#version: 0.2
t h
i n
a n
e r
o n
th e
e d
a t
e n
o r
e s
a r
i s
an d
a l
o f
a s
o u
i t
in g
t o
r e
i c
l e
h e
s t
o m
i on
en t
a d
s e
a c
i l
b e

 

r o
l y
c h
f or
i d
a m
i m
v e
o l
u r
w h
w as
o w
t er
v er
i r
i g
i th
u s
th at
e l
o t
u n
a y
u t
c t
c e
w ith
T he
at ion
h is
d e
er e
a g
1 9
c on
u l
a b
e t
r i
al l
a p
e m
l o
b y
c om
es s
l i
a in
s u
f r
is t
es t
th er
l d
ou n
o d
o p
e x
p ro
ar e
p e
p r
h a
s o
h t
u m
i an
er s
t r
n e
p l
s h
ou r
an t
i f
h ad
fr om
p o
k e
n ot
at e
il l
ic h
is h
q u
ou t
m e
I n
ar t
h er
m an
on e
ou ld
ar d
2 0
it y
ig ht
p er
wh ich
b ut
s a
i es
i ve
w ere
f e
c l
ou g
ha ve
en d
m o
u st
u p
w e
g r
m ent
el l
m y
g e
i v
m er
h im
ac t
w or
at ed
b er
am e
t e
oun d
A n
i a
or t
u d
on g
ic al
om e
ou s
in e
as t
c i
o ver
r a
d er
n o
A r
d o
n ow
in d
o k
e ar
a u
a k
as s
ar y
o ther
A l
th is
r es
p t
T h
ic an
u re
or e
a v
s he
ac k
id e
1 8
oug h
p h
en ce
r it
e v
b l
a f
H e
wh o
b o
al ly
ion s
it s
ac e
ag e
an g
sa id
A mer
c k
o s
the y
d u
an s
st r
i e
I t
p le
the ir
ac h
t im
be en
po s
C h
ab le
c o
i re
c an
e ver
w ay
p art
f ir
Amer ican
se l
d is
i p
ow n
w ould
re e
s ome
the m
ig n
b r
p ort
it e
for m
i z
c ent
f er
t w
g l
ol d
g o
ul t
c re
con t
ic e
p re
0 0
in t
m on
h as
an y
i b
m ore
an ce
l ow
r y
al so
k now
th ere
fir st
wh en
s er
in to
i al
th ing
ct ion
o g
at er
W h
m a
or y
p ol
i le
or d
th an
at t
ation s
S t
ad e
tim e
it ion
mo st
s p
com p
s y
d es
us ed
su ch
the n
s pe
at es
l a
d r
e p
U n
sel f
af ter
a ir
ur n
t en
f ul
y ou
v ed
t y
tw o
f l
c ould
in ter
c c
c ed
g en
wor k
ro w
E n
re at
l and
u e
l l
ab out
it t
be t
li ke
F r
ar k
o b
of f
d ay
c es
c ame
ic k
a th
s c
e f
J o
20 1
pl ay
for e
as e
y ear
in cl
is s
ag ain
ic t
pr es
i ous
en s
ver s
m in
ver y
c ol
or s
ent s
c oun
u g
it ed
w ill
con s
ne w
un der
i ed
wh at
le ct
ur ing
w ard
th r
u se
ig h
re g
wh ere
En gl
t ain
re l
pro du
19 9
t a
A s
w rit
f ound
m ay
oug ht
m ed
l ed
a ve
e w
t urn
T his
t s
r ed
on s
p ed
ul ar
f o
or n
ar ch
19 8
m ade
ter n
com m
An d
ing s
re m
c ar
ur y
p ar
w ell
h and
man y
f t
1 7
I I
e ct
M r
lo ok
is m
in k
l ong
19 7
ol og
g an
ation al
u bl
il y
com e
l es
se e
in s
ar g
y s
ic s
u al
thr ough
at ive
we en
y our
u ch
c er
f in
as ed
d own
op le
c all
be fore
b le
c r
h ow
er ed
v ing
b ack
ex t
is e
ter s
se t
c au
su b
bet ween
c ri
m od
19 6
m en
su p
c y
d id
j ect
Engl ish
A t
incl ud
th ough
c ap
le t
the se
ar m
ish ed
es e
al s
en g
ar s
c lo
con d
o se
re ad
t ed
in ce
an n
up on
on d
s ing
v is
cau se
know n
i o
fe ct
be ing
s ur
at ing
d if
as k
f a
1 6
c ess
h y
pr ess
t ri
f ol
C on
l itt
A ust
r al
st em
wh ile
an k
litt le
s m
if ic
c ur
l ess
s on
al k
i x
un t
he ad
cent ury
b all
b u
S e
il d
A m
pe ople
ib le
B ut
N o
d ist
m uch
n or
gen er
c he
it ies
am p
sh ould
p ubl
A f
19 4
l ight
h o
t on
id ent
ist s
tr ans
v es
c le
ve lo
1 5
b ro
F or
ou th
Th ere
wor d
ap pe
pres ent
om an
v ar
i um
year s
ce pt
ev en
A d
w ar
th ree
n ess
n um
ou se
ur es
i et
p ut
d uring
r ight
fol low
ch o
O n
D e
S he
g reat
as h
ap p
h igh
g h
so ci
his t
C om
bo th
li fe
v en
g et
v al
in st
d ire
r est
sh ip
e y
ic ian
pol it
G er
ar ed
an ge
go od
sy stem
p ers
po int
s ame
p ass
ever y
s s
str u
P r
call ed
a w
s ign
i er
ou p
ad d
s to
c over
m ust
n ing
c our
ment s
in v
a h
19 5
1 0
The y
ar ge
19 3
s ide
ang u
st and
Jo h
b ed
od y
ne ver
iz ed
le g
u b
s im
er n
S o
s ay
ut ion
i vers
l ater
u de
le x
m et
p op
m at
on ly
b re
m ar
f am
u ally
N ew
de velo
Ar t
ve l
w ent
en ed
wor ld
j ust
tr y
ser v
m s
dif fer
B e
c or
again st
ak ing
c al
be came
n er
i el
f ace
ant s
g y
m em
th or
pe ct
c ord
ur al
H ow
cont in
ne ar
R o
st ud
I s
n am
be cause
l ast
th ought
1 2
ur ch
R e
p ow
ical ly
per i
Un ited
to ok
S p
st ill
st ate
pl ace
B rit
fo ot
v o
oun g
pos s
be li
L e
at ure
ag n
l angu
g ot
he l
ag es
a e
W ar
dire ct
c ity
en ch
or der
Ch r
g u
A lex
19 2
gr oup
s k
u ro
includ ing
f il
th ink
al e
re qu
k ing
ent ly
de p
ex am
gr ap
a way
b it
in es
il ity
ma ke
part ic
of ten
A b
se ver
la w
t ing
h al
a x
him self
cons id
ain ed
W e
us s
num ber
n ight
1 4
se em
f act
pro v
f ri
p or
le ad
spe c
j o
g over
be gan
e le
m iss
turn ed
M ar
le y
f our
th ose
c a
Joh n
l arge
sa w
b ody
d en
au thor
e lect
d on
ian s
way s
with out
h ouse
h um
m ain
ch ar
g re
m ight
f ic
g iv
end ed
N or
un g
sm all
y oung
to o
d om
i us
v ent
s ol
de ath
in al
iel d
1 3
and er
b us
ic a
ie w
P ro
an other
B o
a z
is ter
un d
G r
id es
G ree
Aust ral
ta ke
com ple
C ol
unt il
play er
p ri
Wh en
an e
pl ac
o od
St ates
ir ed
l ine
Fr ench
or ig
r on
a im
C an
com mon
bo ok
b ers
qu e
ci ent
ut e
en n
op er
00 0
iv ed
s ince
all ow
sh ow
Ger man
cc ess
as ter
i k
O r
Chr ist
M o
res ult
ef fect
is ed
in a
o cc
p at
m ark
des ign
T r
im e
de c
pers on
en e
ro ss
In d
ap pro
H is
olog y
am ong
l ing
v iew
sup port
c ot
in ess
fri end
P h
ro om
ivers ity
w ater
b ased
ci al
id ed
u c
ar ound
sever al
ber t
su ccess
m us
gover n
m il
se cond
as on
fl u
v i
w on
W or
be g
a il
pow er
A pol
ch ed
E uro
re f
C ar
pos ed
B C
20 0
ward s
om et
ion al
gr am
er y
it al
at or
ri ed
Brit ish
em ent
t ell
k s
r un
l im
des cri
ate ly
ac ter
Apol lo
v ol
re p
Af ter
a ut
au gh
in cre
cho ol
r ic
E m
contin u
j or
pr om
s at
b orn
d i
d ro
foot ball
H er
us ing
Euro pe
R oman
hal f
tr ad
ad y
ir d
in ed
li ed
h ome
ri an
e qu
ra ft
ain s
B y
res p
cont ro
fa ther
19 0
w n
h am
do or
ey es
t em
polit ician
b ur
look ed
publ ic
ul ation
for t
ic es
l ay
d el
n on
g ent
g g
stru ct
ther n
ar r
me an
u ck
How ever
ur ed
p s
P e
A ug
cl ass
exam ple
im port
or gan
fe w
comm un
st e
A p
om en
st art
Wh at
writ er
ab l
ch n
en er
K ing
f ar
Aug ust
on t
g row
Ar ab
h app
st er
em ber
pos ition
ill ion
langu age
mo ther
c are
s il
cl aim
em pt
S h
re t
us h
w ant
p ain
p ur
n al
1 1
W il
re ce
with in
sh ort
st it
k ill
ma jor
S outh
Un iversity
at ic
peri od
L a
w ind
am es
fam ily
govern ment
ne ed
M e
r ad
to p
h ard
form ed
cer tain
v an
et s
M y
en se
ex p
est abl
ha ving
f ield
he art
a ther
is on
h old
c ult
n ational
z e
m om
as es
o x
im es
en ces
s ent
f un
ct or
ad em
g ed
id s
e ach
if ied
no thing
str ong
an im
t est
c ut
re al
b an
G e
Th en
em p
li am
E ar
al ways
f ind
os op
r u
A S
ask ed
r an
A fr
c us
ab ly
how ever
op e
Wor ld
c ase
coun try
Th at
R uss
partic ular
G od
it ary
il osop
et y
re fer
il ar
u ary
su m
ri but
l arg
c raft
el s
r ound
ke y
s ong
P ar
sh all
if e
hist or
mod ern
Th ese
T o
go ing
S cot
it er
giv en
i ver
pro cess
Art agn
Artagn an
g ive
iz e
con om
un e
ph ys
el t
Can ad
gener al
he ld
att le
incl ude
m ind
Alex ander
do es
ex pl
ge ther
hum an
in flu
f ell
ir l
ra ther
g n
it ions
c ell
h or
iv es
n at
18 9
0 s
h ol
U S
gr ound
tim es
Al l
ak en
fil m
d ri
It al
in ation
A g
l ate
b lo
iz ation
du e
char acter
ap s
th od
seem ed
read y
mo ve
f ire
b es
k ind
mom ent
Austral ian
M an
se qu
r ation
S ome
word s
O ne
at ter
consid ered
on es
re le
w a
thing s
z er
P o
fe at
al th
S ch
op en
g er
a i
Y ou
E x
act ion
su re
an al
W ell
d iv
f ac
c um
grap h
to m
te chn
to gether
18 6
ag ed
s chool
y et
bu ild
f ur
pro gram
C l
ith er
M iss
as tr
J ew
d ra
ed er
h our
to wn
cover ed
n ed
Ch ar
ard s
ful ly
st at
ain ing
qu ite
to ld
p ing
poss ible
miss ion
a id
r is
f all
ob ject
y l
lo ve
n ext
cle ar
w ide
some thing
pr of
act or
ch es
bus iness
he ard
s old
are a
f f
other s
qu est
N e
develo p
com ing
dr ess
f ive
he av
c amp
day s
il ed
M ay
omet imes
ch ang
ive ly
d ou
sim ilar
c ir
lo c
re cord
s al
s w
2 5
2 1
be l
m ber
cri ed
follow ing
s po
id ence
pro per
il t
o ve
clo se
sp ir
th os
b and
com b
th s
to t
lo y
hand s
re port
v ir
be come
ak es
ke ep
ab ility
dep end
s l
ch ange
m id
ter m
s ou
en ough
C oun
k en
iv il
t re
w oman
T om
hist ory
Nor th
c ul
i ent
occ ur
ser ies
for mer
c rit
ac y
ex press
po se
Mr s
ap an
ro ad
w in
E d
P l
al most
th us
N ational
A cc
u es
m illion
j our
ph ilosop
say s
M il
import ant
ex ist
C o
on ce
d est
pro te
re ach
P ol
f elt
work s
S y
on y
land s
re w
de v
ro te
L i
le ast
inter est
de fin
i ally
differ ent
off ic
w he
P er
d y
n ame
M in
ful l
sy m
sp ace
o v
act iv
pr act
w alk
J apan
an ces
appe ar
b est
wh ite
A c
l ack
18 8
3 0
continu ed
ser ved
ond on
p ped
dr en
form ation
trad ition
B r
e as
L ondon
s le
t aken
Ch urch
pl ic
sing er
con f
W ith
2 2
z a
ans w
w rote
f ree
l er
es tern
il dren
an c
var ious
l ist
mil itary
bl ack
am a
ro du
bo y
ev ed
w ood
gent le
s of
publ ished
ag ue
my self
s ix
comp any
ro y
de f
C ent
football er
B ar
gg est
it ch
S w
or k
su ggest
al ity
Ge or
re present
t alk
w omen
med i
al though
m aking
18 7
ist ic
M a
al i
writ ten
at om
plac ed
s ometimes
at ch
gr ess
wh om
produ ct
im p
pl es
rel ig
II I
b as
so on
M ary
att ack
ed uc
M arch
row n
su f
e th
g irl
nam ed
at s
m ot
ne y
b ar
d ied
b al
att empt
M us
st ates
h ar
ou d
b or
r ap
eng th
k new
h ind
M ed
appe ared
st ep
Acc ord
ct ed
ac coun
Wil liam
ch urch
br ought
m ass
int rodu
st or
re turned
A C
inst e
iv al
An t
add ition
vis ion
S te
astr on
beg in
m or
se m
Christ ian
comp an
set t
look ing
pre t
D av
mo ved
Y ork
rep lied
f air
m is
g ave
ar ing
Accord ing
bu ilt
ce ed
mem bers
pop ulation
H en
G u
h un
develo ped
to wards
ac ross
ci ally
one y
D o
D uring
pass ed
bro ther
it es
t ro
olog ical
te le
ty p
An g
s our
co gn
t able
follow ed
e ve
s ch
ch ildren
pop ular
the s
se par
er ing
form s
le vel
do g
stud y
as soci
end ing
ho st
Ph il
con ne
spe ak
at a
contro l
th ird
A P
g od
st ant
tr a
ac cord
cur r
pr im
us ually
cour se
p ot
A D
lo st
for d
H ar
P res
ev ent
h on
iv id
ter min
inv ol
r ul
sing le
l am
de cl
L o
h ere
nat ural
produ ced
comp u
a ud
produ ction
d ark
s cre
as ure
develop ment
is ing
e conom
ie f
av es
b ase
lo cal
st ory
ain t
L ord
J u
an ish
ent ial
p en
tr ess
sel ves
J an
b i
who se
in ci
in o
le ar
il le
st y
A then
be hind
ac adem
Em p
c ast
ot s
sh o
st on
who le
c u
pt ion
con tr
ar i
cre t
H ist
f low
st re
ang er
spec ies
Russ ian
es pe
de ad
D ay
x im
ific ant
let ter
L u
itt ed
sub ject
ev ol
for ce
pro ble
vo ice
Canad ian
no vel
Y es
com es
m ult
establ ished
includ ed
rece ived
fur ther
h aps
c op
s ed
2 4
5 0
sc ri
po st
m ist
the ory
a ul
ant i
orn ing
iet y
me ans
Ar ch
ab or
pl an
ab ove
s un
s pr
In tern
s or
s ound
O ther
e k
is ion
lo ck
qu ar
Ap ple
im ent
A ct
ict ion
se a
A ir
M on
al es
op s
ex peri
it ude
bo ard
sign ificant
ex pect
any thing
al one
res pect
ag o
ci ence
E R
E gy
m ater
Emp ire
her self
w ife
me thod
ty pe
ad v
ol ic
b ra
them at
m orning
orig inal
y er
sto od
A M
2 3
Scot t
con cer
ivid ual
r ing
ul l
r en
pre v
Egy pt
th ro
ud d
Ear th
larg est
m ad
A pr
ent ion
m un
tri es
b ig
mus ic
c ry
it ing
or ed
wind ow
bre ak
w est
Afr ican
Un ion
eng ine
it ive
H ol
dra w
ac c
c to
d am
p ha
u el
en cy
stand ing
ar ian
in it
descri bed
espe cially
ro ck
ri a
nor th
de m
Wh ite
in depend
an cient
group s
it self
B er
es h
ag re
de ed
A T
Apr il
academ ic
cour t
Se pt
ind ust
serv ice
ind ividual
4 0
E li
ac cept
be y
f av
or ies
of fer
Ital ian
ex cept
j ud
f ast
t ic
whe ther
ious ly
S er
c il
ver t
b ot
re cogn
m ing
s we
W est
T ur
as ing
in c
add ed
b s
can not
en ced
Fr ance
Wh ile
la un
ch an
res ear
th y
com pos
al ready
f lo
beli eve
comm and
po et
mat ter
play ed
comple te
Europe an
vi ol
r ich
d augh
n et
m oun
p ie
rem ained
ac tress
M ic
r or
m ir
tr ave
Hen ry
s outh
Sept ember
le ction
Ind ian
rel ated
system s
ap e
fl ight
he ar
D or
b ir
ch ild
le ft
s cient
cap ital
found ed
fr ont
ro le
N ow
pr inci
Ar men
langu ages
red u
Amer ica
id ge
resear ch
op ened
mater ial
dr ed
qu ick
ut es
C ath
se x
Al though
M art
201 4
ant ic
g ame
l iter
for ces
cre ated
ist an
fun ction
m it
D on
ot e
p ap
w all
al d
fo od
h ab
ide a
car ri
ap t
oun ced
in ct
m oney
m al
t reat
sy n
li ver
201 3
jo y
ay s
be aut
soci al
be th
coun tries
ne cess
Dav id
ish ing
ma themat
Ju ly
n ature
l in
O h
201 2
a ke
pr ed
h us
p ast
beli eved
con du
pri v
tr ue
L at
c ivil
dif fic
Wh y
i or
er t
f ig
j an
F e
r ate
C or
diffic ult
ent ire
m ach
friend s
them selves
ly ing
man ag
l ad
Eli za
sch ol
s en
b on
us es
l or
J une
cons ist
inste ad
ne g
if y
rele ased
O cto
re me
ri ver
Octo ber
emp loy
M or
ev idence
jour nal
n u
A N
Jan uary
So v
air craft
m ag
i ers
mod el
2 6
song writer
tem per
ent al
No ve
Sov iet
ke pt
ite ct
mean ing
M ac
an ch
appro ach
part y
A thos
min ist
Nove mber
gener ally
allow ed
f ight
La ur
Sp anish
ber g
ex per
start ed
De ce
P ort
rel ation
accord ing
ta il
Dece mber
Th om
c ing
ter rit
D ut
u x
li e
av ail
pro ject
resp ond
R ep
d den
g un
S u
like ly
per or
per haps
Arab ic
be ll
ous ly
part s
g ar
gentle man
ro t
sle ep
Al ban
y n
Fr om
kill ed
pr ison
produ cer
s ister
h ur
d le
le ave
D es
hy dro
lo g
p al
a ver
pro b
res ist
su dden
Intern ational
scre en
Geor ge
stru ction
Eliza beth
Q u
ar ri
ap point
Af gh
l un
offic ial
r ange
ig her
spe cial
compu ter
act ive
claim ed
om in
h ip
ac qu
id ing
2 7
J ames
did n
i os
ix ed
O liver
C am
dou b
prof ess
B ra
ct ions
d ed
blo od
mark et
P at
ic le
v ict
b en
m outh
gr ad
use um
won der
200 7
Dut ch
ar my
o to
spe ct
ific ation
Pres ident
Austral ia
fe et
or bit
act ions
book s
end er
tri ed
ener gy
long er
Ind ia
lect ed
r up
am s
build ing
ch ief
m aster
G reat
b ow
r ain
m ur
18 5
ar ily
d ata
t aking
P aul
ar a
Rep ubl
bo x
pre ad
av ing
bl ed
f requ
t ies
Japan ese
T H
h igher
m es
O f
de ep
grap hy
bro ad
s us
ion ed
g ard
201 0
C ity
co st
S an
end s
li es
2 8
fin al
s qu
g as
m ic
Afgh an
sty le
sur face
L ou
201 5
B attle
p p
200 8
H ung
writ ing
out side
m agn
particular ly
col on
g ht
g old
h ope
l ength
p ath
Com p
w o
l ines
ind ic
G ener
M c
ter ms
b our
v ill
y e
N ot
ar ies
at ors
orig in
trans l
o id
b ol
Cath olic
b urn
de termin
hour s
t ext
c row
e ch
f le
B udd
daugh ter
res ol
y al
led ge
dis covered
cap t
er a
nam es
hun dred
M any
and s
arch itect
ex e
b ad
li ving
P ri
ass ist
comp et
comple x
Lat in
P art
are as
he alth
se ason
want ed
Char les
ha ir
s ens
ord in
E ast
mar ried
right s
201 1
J im
begin ning
mult i
200 5
through out
li ved
w r
St ate
c it
200 9
ent ered
move ment
p et
w ise
tot al
S un
20 00
P al
co ach
200 6
b ank
18 3
ch air
introdu ced
design ed
th ous
de al
ear th
ing ton
ter ed
t it
p air
sa ur
D r
At l
avail able
che m
B ur
id er
man ner
near ly
spir it
um e
us ion
C H
n a
occ up
influ ence
ac id
i que
c ross
g or
g one
ele ments
G re
there fore
ent ed
rel ative
sk y
b ai
inv est
st one
ag on
car ried
evol ution
i ation
pro p
ound s
A zer
con stit
tele vision
J ack
6 0
8 0
I V
Is lam
i ot
r ac
p ic
ad op
20 th
B en
l ady
A R
T e
dist r
s ort
g es
h om
itt ing
scri pt
br ing
A sh
an a
S m
P or
W estern
im medi
S ou
ant ib
g lo
wh y
ad dress
answ ered
in formation
rem ember
sur v
H el
mon ths
sat is
astron om
effect s
curr ent
min utes
associ ated
tr ou
af fect
p ite
Azer bai
Azerbai jan
ard inal
act ed
el se
est im
f ish
st ar
ib ility
ten s
pre vent
Me g
ca used
con cept
se cret
stand ard
sy ch
L in
il es
ship s
Par is
f an
reach ed
reg ular
w atch
c and
cl ub
r ough
D u
re cent
report ed
se ven
in deed
li er
li ve
cent ral
cont ribut
r am
A h
s ize
s n
Bo ok
Mo st
R es
chang ed
is land
B el
h op
if ul
af f
num er
occ as
quest ion
su e
pre par
A my
King dom
happ y
dis c
f em
f und
loc ated
at ory
im pro
feat ures
fell ow
pap er
F ir
poss ess
g ing
p ay
201 7
S al
on a
c ases
compos er
crit ic
ul a
Alex and
co ast
S pe
num bers
Afr ica
in te
s ense
suf fer
t our
2 9
con cl
d in
Ar my
R ich
ic les
l atter
ie ur
law yer
os p
P ers
dest roy
st ra
S ince
commun ic
journal ist
mem ber
cre w
vir on
19 th
B lack
C our
Z e
ent er
tain ed
lun ar
um ent
car ry
200 1
I m
d ie
ac cess
r om
et ic
E l
col l
incre ased
inter national
o il
S ha
an x
am ed
refer red
str ange
f ut
g in
Fe br
am oun
off ice
sou l
A j
econom ic
re ed
ro ll
Febr uary
every thing
lead ing
Ch in
Ro bert
ev ents
Mo on
doub t
pol ic
c orn
gre ater
ill s
M id
g ian
requ ired
bir th
s ight
as tern
heav y
dist ance
il ities
D em
u th
H o
u le
A ber
fer ence
c at
p an
say ing
A I
I ll
al b
gl ass
ey e
c old
spe ed
tit le
H all
rem ark
spec ific
a ur
appro xim
ay ed
d ig
it or
h ib
Gener al
h ot
am ber
be low
com pl
ide o
me chan
17 7
Thom as
Pr ess
m akes
ys is
As ia
At ari
H ere
S T
bur g
G o
ol f
spo ke
Ger many
port s
sof t
clo sed
ho od
n el
tradition al
let ters
work ing
re ally
u ed
val ue
ph en
re vol
Pe ter
sour ce
ush ed
201 6
em er
p i
con struction
um in
F ol
Mil ady
prob ably
sup p
treat ment
Hist ory
Min ister
R iver
m n
ta x
c ro
do cum
expect ed
gre en
st ri
prov ided
Chin ese
l ic
A ch
F in
mur der
su per
ord ers
b ly
il ing
H ouse
act s
cult ure
r ank
sto pped
200 4
Phil ip
n ers
co hol
s es
American s
ve h
Ro yal
camp a
campa ign
produ ce
20 20
es cap
qu iet
s mo
Fir st
M od
el ing
fam il
h ous
is es
s cience
tr ade
ur ies
A ma
M al
ad ed
ann ounced
in j
Scott ish
V ol
d im
r id
run ning
h an
S am
struct ure
v ic
ve y
D ar
w ish
ish ment
ob served
ut ions
Ac adem
br ary
jo ined
d rew
le ge
sur pr
fut ure
med ic
po ly
pl ant
tw are
necess ary
rem ains
sto p
work ed
ad minist
for ced
gr and
al ed
ap plic
li p
priv ate
L et
larg er
lead er
re pe
tre es
pres ident
s ac
ul ated
tw ent
20 18
Ar is
M er
ic o
gre w
resp ons
I r
M ass
pr int
incre asing
so le
au to
me ant
ob serv
O ld
Sm ith
w estern
T er
ing u
ph oto
G over
c ardinal
pret ty
Con f
S im
fig ure
s is
t ou
in str
chem ical
te ach
v ille
Lou is
S ol
ne igh
b ul
elect ron
n ation
r ated
th reat
en ing
com mer
H igh
Port ug
cl im
prov ide
tain s
200 3
base ball
direct ly
dr ink
for man
Cour t
J ust
Se a
b attle
ir on
b ound
e ast
iv ing
plac es
st air
bl ue
educ ation
ens ive
hor se
min ute
Jew s
pe ace
d ial
event ually
qu ant
it ation
u ation
s it
c ab
de b
et e
support ed
writ e
Ad rian
b ing
ro b
ra il
c ular
con vers
lo ss
B uck
Pe ople
dist inct
we ight
cond itions
even ing
st age
Fr ank
clo ck
common ly
hus band
most ly
r ace
soci ety
Q ue
R ome
an thro
op h
g ames
199 9
Athen s
know ledge
s pread
f if
te en
h es
i as
m ig
ri age
ult ure
F ang
20 19
ib ly
ap par
li f
p a
pur pose
k ed
olog ist
TH E
commun ity
um ble
appe ars
ar row
per fect
t in
w ild
V al
ra el
Ama z
So ci
al pha
ext reme
incre ase
includ es
phys ical
show ed
z y
n ia
Jew ish
R om
for ward
dec ided
dr ug
r at
ri al
t ion
anim als
m ut
200 2
ap ter
h at
w it
ol l
3 5
spe ech
u fact
An other
C ali
anal ysis
lead ers
mon str
sim p
Is rael
appear ance
leg al
th a
viron ment
Al bert
att ention
ex tens
la id
quick ly
contro ll
Con gress
br ight
C ap
dire ction
experi ence
20 21
L y
nor thern
ru le
K ar
ell a
Laur ie
con cent
en es
im ag
in ing
lim ited
pie ce
dis e
mar riage
In stit
k a
sh ar
per forman
sa fe
b od
ple ment
am ine
c ities
p on
re ck
s pl
Tr ans
ver se
person al
ill ed
mem ory
sub sequ
var iety
ci ous
A e
S chool
ak er
beli ef
ceed ed
ear lier
fr esh
i j
d a
l ink
writ ers
a j
inst ant
X X
product s
An gl
al cohol
as sem
br idge
ch arge
cover y
defin ed
ha el
he t
manag er
press ion
Brit ain
J er
we ek
P ark
beaut iful
ch arg
do ctor
f arm
w at
I S
if t
It s
Lin col
Lincol n
at ives
al tern
hab it
o le
p un
col or
pres ence
t ree
Ch ina
ad es
C r
ele ment
m el
pro posed
spo ken
199 1
e ks
t le
M ex
l ot
to day
typ es
v in
O L
ol a
as p
sou thern
199 2
N av
b io
if f
proble ms
rap id
ce le
inst it
typ ically
Aust rian
and a
ard ed
om b
eder al
I N
T ER
do ing
iz ing
it ar
ate g
ri ble
s la
v ideo
198 0
199 6
ag g
em ents
arr ang
198 8
Russ ia
com fort
i ence
result s
sur round
tro ops
us ual
Canad a
Sw ed
p ul
man ufact
pres er
the or
um ents
S il
indust ry
por ary
r ug
u z
um b
199 7
et ing
u k
I f
O t
Ot to
m itted
mach ine
p ict
ro se
your self
17 9
bey ond
Ital y
M useum
ac ters
fa ith
immedi ately
196 9
B ill
d re
n est
s light
198 6
en ess
re ason
consid er
su it
giv ing
sof tware
al t
elect r
s ha
4 5
197 2
b ird
E astern
M ad
cor respond
fr ed
grow th
Republ ic
T wo
in qu
B on
D i
Por thos
be ar
li ps
met al
sudden ly
As sy
C O
C al
E S
appoint ed
ben ef
des c
histor ical
vis ible
co de
ev al
198 4
B as
i qu
199 8
al ge
ex act
high ly
ri ef
st ated
stru ck
t ank
cont em
v ow
Mic hael
fe eling
is sue
me asure
ri es
Mart in
S tr
at o
ro d
twent y
v ia
Academ y
an arch
laun ch
B l
J e
cir cum
coun ter
sc ar
me as
per formed
re view
seem s
ang le
be ha
cele br
histor ian
m as
min ister
our s
pract ice
rad io
sh ut
su ed
suggest ed
thes is
4 8
Al ber
Jo se
d anger
k y
aver age
dist ribut
fore ign
sym bol
7 0
H am
Soci ety
chang es
char acters
198 5
am is
at tr
ex cl
major ity
stud ies
cult ural
prim ary
scient ific
sh own
ad vert
fr aid
invol ved
object s
saur us
a fraid
car bon
mo ving
p ack
um p
wide ly
198 9
D el
con struct
gor ith
n s
199 5
V an
fic ient
for est
high est
inte gr
se arch
ul f
ac es
wor th
arm s
der ived
gl ad
proble m
An n
Angl ican
Ar k
Part y
cor re
dog s
territ ory
197 0
199 4
Ab d
astron aut
exe cut
gu itar
197 7
O S
de g
n ic
wh is
AP TER
Ar th
CH APTER
Rich ard
re placed
separ ate
walk ed
C he
partic ip
An ton
C ivil
ann ed
con vent
independ ent
exper iment
ot ing
p il
ot ed
S up
cor por
k er
pain ter
press ed
E r
el a
Mus lim
be long
fe ction
u ge
disc uss
en joy
serv ices
small er
su c
y es
197 6
198 7
arri ved
im per
le aving
philosop hy
ab les
var i
e at
cond ition
AS A
ad van
ask et
her o
li ves
t arg
C a
Le ague
3 1
H y
en a
ill ust
ir es
n one
philosop h
requ ire
ce ived
199 3
A F
Arth ur
con sequ
ell ig
low ly
ra ised
int ellig
tr ack
196 8
198 1
A ud
Al fred
Sp ain
deg ree
dem and
proper ty
sold iers
19 20
John son
R ed
alge bra
ant ine
f ing
Aris tot
Fr an
ast ro
con stant
determin ed
sp ent
st ation
194 5
3 9
Afghan istan
Be th
P re
Tur k
adv ant
is to
offer ed
pr on
would n
By z
cap tain
grow ing
simp ly
197 9
Be cause
ag ric
b a
blo ck
is l
at ures
st ars
ell ow
re ign
sim ple
sol ute
y r
The ir
W ash
al le
exp lo
spr ing
Mid dle
act ing
str ug
s am
re li
school s
sum mer
197 4
197 5
198 3
bl es
d ut
Coun cil
bo at
con fl
ict ed
need ed
stra ight
198 2
co ck
express ion
w ave
Conf eder
M os
activ ity
af fair
cre ate
order ed
s lowly
z en
M ag
n ine
resist ance
ser ve
ci p
o c
j e
sett le
sour ces
u ff
S at
approxim ately
gr ave
li ft
origin ally
Ar amis
Cali for
Wash ington
comp ared
could n
dial ect
dis play
mon d
spe aking
un its
197 1
Com mun
Ir ish
al leg
ide as
int ended
it ors
mid dle
po ck
prev ious
und ers
adop ted
em peror
fa iled
hous es
Armen ia
G ood
cent uries
ic ated
ud ed
E very
equ al
occur red
swe et
A ar
D an
che mist
d ate
im ents
og y
reg ions
bro ken
cit iz
on ic
Du ke
Instit ute
20 22
AC L
Ill ust
3 8
An dr
Califor nia
L M
R evolution
distr ict
happ ened
M ark
comm iss
Hol mes
ab s
cl es
ele ction
proper ties
satis f
techn ology
19 00
ACL U
en c
get ting
mon th
n av
shar p
stair s
al gorith
d ess
exist ence
it ic
m ort
v ation
D ick
F il
M ur
ris k
de monstr
en vironment
k es
on ed
on om
thous and
Pol ish
compan ies
screen writer
str ength
bl ing
corn er
M ons
fav or
large ly
performan ce
M ore
Sy stem
beha vi
ick ed
liam ent
mo le
mot ion
su es
Hung arian
Re g
amoun t
cent er
contr ast
eas ily
resp on
respon se
As soci
U K
altern ative
em ph
schol ars
stre am
A B
A L
Gree ce
ab solute
ag ree
bo ys
ex tr
flo or
le ague
mic ro
E lect
N ASA
accept ed
c red
ell ed
occas ion
think ing
trave l
vict ory
Hist or
agre ed
pot ential
to w
J ud
li est
oper ations
pri or
trou ble
196 7
197 3
197 8
4 4
J ane
al ter
ing ly
l augh
mat ch
F el
S ir
c el
se ts
7 5
I C
be coming
not e
port un
see ing
t i
B ell
A k
we alth
3 6
b ond
enn a
numer ous
s now
tr aining
v a
po or
we ap
Jose ph
Scot land
de te
ins ide
k ins
ow er
relation ship
b asket
dou ble
en ic
influ enced
iv ity
col lect
ref lect
B ro
Islam ic
Th us
c os
co at
cri pt
B et
de en
form ing
ne ither
sold ier
Aber deen
Art em
Ear ly
L aw
multi ple
p sych
ple asure
relative ly
sh ot
Al ice
ap art
commer cial
exp and
for ts
g ate
hon or
invest ig
ment ioned
sh are
Aust in
Sou thern
comple ted
girl s
se cur
step s
un it
vill age
ch ance
ans as
c as
ce an
ex ts
prom in
ag er
requ est
t el
St ud
V ict
li ber
n ative
ster dam
16 0
Am sterdam
D is
reg ard
ad ow
ast ic
d read
entire ly
fav our
A ph
Egypt ian
col lection
mark ed
Dem o
L ist
anim al
comp on
direct ed
econom y
i ber
194 4
August ine
fr ag
temper ature
vir t
b illion
cr im
in ated
form al
Artem is
bro ke
it a
mon s
ple as
st ances
Alexand ra
arg ued
au ght
ct ure
del ight
im age
is ation
sign ed
And rew
Mons ieur
in er
liter ature
profess ional
w id
B enn
ant a
care er
est ival
w inter
Col lege
att ribut
fe ated
hold ing
mo s
to ms
Armen ian
No bel
de feated
dri ve
gr ant
th ick
196 6
op portun
Gr and
M em
class ical
is sues
ph ere
polic y
var ian
A A
C ur
ad s
press ure
Bo th
Fr anc
cell s
dist ingu
ex hib
fil ms
impro ve
ox y
r ub
b ish
bish op
repe ated
w are
fir m
A u
act ually
c ise
com posed
div ided
great est
method s
mo b
i ar
pri est
rest r
se ction
sett led
L ady
el ess
or es
r um
our ed
rele ase
t il
P C
4 7
Se cond
Un der
ap h
author ity
express ed
f at
o thy
op pos
ors es
reed om
ter ror
196 2
Aristot le
fac es
hydro gen
king dom
my th
or ial
sel l
try ing
schol ar
te eth
th in
A re
an o
build ings
estim ated
laun ched
main ly
qu ality
stre et
Atl antic
de tail
poss ibly
result ing
sil ence
st ro
196 3
M oun
S ik
ne ck
And al
Li brary
addition al
f ash
stud ents
u er
wr ong
196 4
L ater
W all
1 00
ant is
as sa
k n
business man
ch er
ers on
low ing
oper ation
re ve
sc ale
t one
S em
anx iety
effect ive
ism s
m ess
not ed
represent ed
T reat
an cy
accoun t
cal cul
man n
to od
ult ural
E ven
G old
Otto man
ach ed
cont ains
dis put
h all
M u
t ask
3 00
In ter
as c
im plement
n om
t ur
il s
ag ing
certain ly
de cre
init ial
roy al
ser ious
show s
unders tood
A bu
Pri ze
ct ic
exp ans
st able
un known
C ome
bas is
decl ared
elect ed
equ ip
cho ice
in no
med ia
Al ask
br ain
eas y
independ ence
record ed
v ice
Jack son
M ill
ab ort
f ro
fem ale
gu ard
ician s
medic ine
sup pose
z o
f on
Byz antine
Cl ass
F er
god dess
ident ified
pre h
194 7
bur ied
ef fort
i ated
philosop her
ra w
ref used
S aint
dec ision
ex as
p aid
prote ct
the less
Cent ral
Demo cr
K ore
Wh ere
al y
de feat
kill ing
z il
196 5
Cent er
Dar cy
I ran
Pr ince
ant e
ar med
fin ished
ist ics
th ir
be comes
B rown
Or der
b ury
engine er
me eting
ol s
t akes
B ab
Dor ian
Em peror
N ever
dra wn
g a
n d
3 2
h ang
redu ced
C y
R od
id ents
m ill
A ward
Pr of
fight ing
in i
iqu es
art ist
rel ations
Que en
ed ge
new s
or al
sex ual
ar rest
prim arily
Ch apter
T V
ill ery
pro gress
B al
C ast
ed a
M et
amp ion
em s
guitar ist
Je an
dise ase
g ro
ordin ary
pl ants
lear ned
neg ative
pro ved
prom ise
6 5
P ubl
advant age
fin an
ie ve
o graph
p ian
n y
V ir
k in
w el
d ing
ph on
prev iously
Nor thern
ill a
we eks
Alber ta
Car ol
i om
m and
reg arded
3 3
18 0
9 0
4 6
3 7
5 00
Franc is
d ry
point s
dro pped
eas tern
t end
c ere
Am bro
Bra zil
Her bert
ear liest
fic i
l av
l it
Sha h
o ids
t or
15 0
194 3
P ope
atom s
id a
o is
Andal us
comb ined
death s
dro p
fin ally
p y
ed s
play s
power ful
Pr ime
V i
gr av
om er
p ine
r ine
sol ution
t rem
Ar ama
D ef
K e
cont ain
individual s
re moved
194 2
Vict or
al ing
bre w
lo ved
p ale
re action
4 9
Arama ic
Col l
S ever
d are
emph as
i form
is o
ie ux
prov ince
com ed
f illed
offic er
s ought
se at
sh adow
sto ck
b acter
C amp
en cour
relig ion
she ll
stor ies
U N
cus tom
dri ver
the tic
as y
Ach ill
Al ger
allow ing
hum ans
n es
re ject
squ are
Budd ha
Illust ration
antib iot
conne cted
fig ures
h ill
sever e
Ang el
Fol lowing
Portug u
an es
A ri
clo thes
for th
hel ped
i ke
Assy rian
C E
H a
A li
Portugu ese
Sp ace
agre ement
cr u
fin ite
inst ance
re v
s port
ul ations
O x
app lied
del iver
differ ence
god s
inter nal
jo int
k ne
nu cle
trans fer
Aj ax
Al ab
Aust ria
Dor othy
F ort
contin ue
tr ust
Ash ok
h unt
st ick
L ife
Prof ess
S M
T ime
ab and
ac cur
f it
famil ies
grap her
m ix
H uck
b rief
ch ain
import ance
in ary
mor al
on to
p it
ch ing
for got
fr ight
g le
o bl
qu al
s itting
sk in
Alask a
Con stant
S ur
r end
h arm
level s
loc ation
ter rible
us al
196 1
Al fon
Des pite
R os
y a
V en
be at
cl er
escap e
should er
P ak
Se e
al and
allow s
as pect
close ly
condu ct
fun ctions
ig en
op posed
se y
B ern
BC E
L ong
atom ic
est ic
open ing
osp ital
quar ter
r ay
rece ive
un k
wall s
Aph rod
Benn et
cau ght
ext ended
frequ ently
princi ple
sil ver
un cle
v ary
194 0
Alfon so
B umble
ass ass
iz ations
er al
n is
fa il
pock et
t ons
thod ox
4 2
Swed ish
church es
ef forts
field s
m ine
h orses
material s
p in
sh ire
sit uation
targ et
ul ate
Pers ian
ab sor
ac her
av oid
im al
pain t
Al so
Associ ation
Be fore
ch ron
complete ly
elect ric
fe ature
g ained
ne ut
sc ene
Aphrod ite
D en
y ing
ri f
H um
organ ization
recogn ized
space craft
190 1
Col in
c av
ch est
expans ion
f ederal
giv es
on ian
pat tern
Gre en
astronaut s
jour ney
st ic
H av
T exas
ac ity
az ine
F l
cont aining
fr ame
no ble
on ia
pl ane
res er
scar ce
the ast
194 8
B est
Comp any
F lor
equ ival
rul es
sh ape
st ance
v on
Alab ama
ach i
d ish
pos itive
G l
Nav y
V iet
Ze aland
alpha bet
beaut y
claim s
ho c
hy po
rem aining
su med
re as
ter y
whis per
An cient
B ay
anal y
cons cious
corre ct
draw ing
ex tra
magn itude
reg ional
spirit ual
A le
in u
A inu
ac ids
ad a
b ass
e c
h ung
own ed
Mod ern
bas ic
com ment
l s
c ow
occup ied
P ip
Vir gin
bre ath
con qu
ela ide
ere ly
old est
pol ice
view s
G en
R ob
bod ies
cand id
do ct
mo on
r ise
o st
od es
phys ic
pl om
re y
tr ain
8 9
M el
fo cus
inste in
sc he
tr u
193 9
Ad elaide
E st
Ne ther
er r
me at
oxy gen
res our
tw ice
under standing
v est
Ed ward
W ood
ann ual
art ists
cot t
go es
h id
ig a
5 5
A ster
Athen a
gover nor
leg s
program s
192 8
Har ry
c ited
pro port
respons ible
t aught
tem ple
L and
M at
r ang
beg un
destroy ed
ict ions
laugh ed
o h
r d
some what
t exts
C la
comp ounds
cont ent
ex ped
nor mal
ref ers
sil ent
sm ile
B ak
N ap
War hol
ad mir
inter pret
respect ively
sh ap
transl ated
ur ban
Pak istan
hard ly
ic ip
it zer
4 3
G ra
init ially
p urch
pro of
refer ence
te e
techn iques
umin ium
val ues
ass ign
pro pos
vis ed
des pite
f are
iz es
leg isl
o ch
ab o
ou l
P an
p ure
play ers
E N
V I
break fast
dis covery
prov ides
st aff
H or
am mon
din ner
fash ion
great ly
in corpor
mon arch
p age
ul s
ul tim
wa iting
y ield
con ce
eng aged
he ight
head s
ic ke
sa ve
ud es
Ab ra
C row
cere mon
dis ci
iver se
promin ent
Ar gent
Aud i
Bon ac
Bonac ieux
E ach
affect ed
charg ed
ci ences
constit ution
docum ent
ens ity
est y
ex er
it z
Al an
n arrow
pass age
prote ction
r ates
sp ot
t es
c ou
ly m
19 14
195 8
L itt
S el
in us
Sw iss
ad vent
anc est
attempt ed
l an
not es
pow ers
194 1
Sh ar
T ri
art illery
cl oud
co ok
fort un
i ents
prov in
sp ap
195 2
Alban ian
Ashok a
F our
Ph ilosop
Viet nam
ac le
arch ae
attack s
fol k
l ab
prepar ed
st ret
suf ficient
19 18
F res
On ly
R O
j ur
193 8
bl ind
im possible
193 3
h i
mod ule
n i
no on
stud ied
surpr ise
t u
where as
Alban ia
Sever al
basket ball
p ark
suc ceeded
t ical
194 6
E instein
advan ced
assa ult
ch amber
contem porary
cy cl
des ire
descri be
dr am
en de
g ment
ge omet
indust rial
l at
vol ume
192 9
196 0s
Gover n
Turk ish
compu ters
crit ical
empt y
fo ol
p he
pl anned
str ess
th rew
wor e
193 7
acc ident
ach ieve
capt ured
comp ut
di plom
f iction
n it
ph one
result ed
192 6
Res ear
Sik es
ab b
clim ate
defin ition
nu clear
r ative
supp ly
O lym
anc ing
compan ion
div ision
er o
met als
mod els
pres ents
re ven
tw el
195 4
Li ke
M ah
ch ip
du ke
exam ples
fe e
glo bal
ian ce
is lands
re cept
ro s
we ar
192 5
L os
N F
Y ear
ant im
c ard
comb ination
veh icle
195 9
Coun ty
Or thodox
R ight
Resear ch
au re
fort une
rug by
sho ok
192 4
195 5
De part
P as
ch all
convers ation
rup t
start ing
w ine
N az
ab ol
ir ing
te ars
ur ally
was h
S I
T y
ch os
ap ped
ax iom
gener ation
le aves
obl ig
plan et
pleas ant
r ator
y ellow
195 6
ash es
m erely
new spap
occur s
pict ure
s and
talk ing
ten ance
S to
S ub
j un
T em
commun ities
educ ator
know s
l as
opportun ity
K y
S ar
after wards
br anch
ck ed
con serv
el ings
emp ire
set ting
struct ures
17 0
193 6
T est
bird s
ev ident
exact ly
flow ers
h en
no se
6 6
8 8
August us
Se cret
c am
consider able
ish am
quest ions
sp ired
18 th
Te chn
coun cil
f urn
grow n
int el
m ixed
play w
suffer ed
tre ated
al ive
am ent
eth nic
fe elings
li ked
sh ared
w ished
192 1
Mus k
N ic
a us
u a
bot tom
carri age
neigh bour
oppos ite
or ph
p ard
O ver
activ ities
mus ical
thought s
u ter
20 23
Ho ly
V er
se c
ar c
b read
comm it
finan cial
g est
hoc key
is ions
oper ating
peri or
thr one
ut ter
E v
art s
or ation
as ion
F ound
H un
gr y
O R
N A
Or gan
Sup reme
gen cy
sh op
un iversity
B or
Y oung
d ia
secur ity
sign s
ad ing
app ing
in tr
keep ing
pl at
r ane
reas ons
satisf ied
str anger
t ar
195 7
T al
con sum
dut y
employ ed
en ate
gentle men
A OL
Mac ed
Musk ete
Ox ford
Profess or
T or
Th ree
cr icke
in hib
in struct
no ise
produ cing
ser ving
192 7
An ne
pol ar
viol ence
Am ong
Coll ins
F light
Li ber
cons ists
gg er
gun s
bl ow
per ceived
ris ing
st ell
stit ution
trave ll
194 9
Gr oup
Lu cy
S um
ad apt
cricke ter
ens ion
b id
slight ly
192 2
199 0s
G al
M ont
S ax
c ateg
circum stances
f reedom
k no
ma xim
pie ces
sp ite
D ire
Hung ary
On ce
Sp ider
i i
J ul
Geor g
s an
if ically
jud ge
mo v
ot ic
ph y
ther ap
T ro
A y
Am iga
Depart ment
H aw
L abor
N at
U r
controll ed
electr ons
f old
e ight
ham mad
in her
r ess
wa it
Ark ansas
W el
architect ure
comm ander
cons on
intel lect
j ob
just ice
veh icles
Hel sing
La ke
Le e
conne ct
dre am
e ager
not able
subsequ ently
192 3
C at
Cam bridge
administ ration
ar bit
ate ver
chos en
fo c
mil es
neg ie
p up
pro to
revol ution
sol id
wat ched
P ac
bl ess
carri er
conf ess
pass ion
ple ase
stat ement
193 4
H on
Hav isham
K han
Par liament
broad cast
ca uses
e per
g all
op in
opin ion
part ies
pre ced
resol ution
un able
ves sel
Car negie
anthro pol
c ous
condu cted
eng er
ent ially
pre fer
fir med
lo gy
mar ry
quar ters
19 10
193 5
S ult
ify ing
lear ning
n ice
rul ed
sh ore
suggest s
Ant ar
T im
W ales
advert ising
am i
ad o
vo c
de cor
gr ace
ict s
ol es
partic les
physic ist
sla very
the at
young er
Achill es
B M
Fres nel
bur st
con v
def ense
f ill
miss ions
vis ited
Al pha
C er
D iv
S ing
ant ly
b ud
cont ained
f ought
intellig ence
le ep
pers ons
pr ice
significant ly
ten nis
twel ve
we ather
H ind
Sult an
ab ilities
ang ular
difficult y
gr ass
t all
n ut
ob tained
pap ers
t ong
J ona
J our
St and
applic ations
arg ument
art icle
in ian
not ice
other wise
sk i
vers ions
19 17
193 2
198 0s
B ank
Dick on
Jona than
Litt le
Sil ver
cab in
compan ied
construct ed
dev ice
expl ained
fail ure
hold s
offic ers
res em
song s
sup posed
win ning
Mar ia
Mex ico
Wall ace
adv ance
ang el
ce ased
conne ction
descri ption
equival ent
extreme ly
h r
B u
m useum
per su
pl ans
regard ing
ward ed
B es
Ro ck
ab str
ack now
ded icated
h ast
n arr
offic ially
par alle
record s
A z
H ad
Pro test
R el
S k
ar ose
ax im
communic ation
d ust
heav ily
imper ial
in spired
inter pre
ot es
up un
walk ing
H ill
br and
work ers
195 1
A ge
D id
ae us
al uminium
cu is
find ing
happ iness
op position
pl ate
pr ime
un ique
un less
195 3
H itch
M en
n ig
re put
sus pect
Gover nor
R and
S E
6 8
O N
7 9
AM D
6 4
1 st
8 5
ac companied
af fection
beg ins
experi enced
she l
Abra ham
Au to
G i
br an
Is lands
O ut
law s
Pl an
s ides
R ay
appar ent
concl uded
cre ature
expl an
f et
liter ary
n ur
p es
prom ised
writ ings
Chr is
Govern ment
H ell
S cience
a qu
ann ing
applic ation
cou ple
ens us
m ick
perfect ly
s ad
ste el
um es
A G
Ag ass
L angu
S her
S uch
b ag
c ave
fe ed
k ings
k iss
on line
st ad
ol der
197 0s
Ar m
D anish
N a
S ay
W omen
an i
F ar
atter ed
b ind
cap acity
des cent
gr at
u it
J es
ne ur
R ad
p se
Christ ie
Com mon
Crow ley
G ard
Republ ican
ca using
call s
dest ru
dr ag
lock ed
n od
no body
or us
t as
L am
usal em
193 1
Fel ton
Mic ro
Q a
R em
em br
ac ed
comb at
in em
por tr
stud ent
H as
fall en
o graphy
ph ase
str ing
ut ed
w olf
E p
Jer usalem
P en
c up
desc end
el er
fl at
not ably
o ke
v ous
Ag ri
Christ ians
R og
Treat y
ain ts
grant ed
s word
For ce
G reg
O per
abort ion
ace ae
ag in
F agin
ar an
as i
al ty
dev ices
in habit
man aged
night s
redu ce
sl aves
sor ry
sym p
talk ed
Hitch cock
ac compl
algebra ic
attempt s
feat ured
follow s
inst all
m i
o e
rane an
separ ated
strong ly
sur vey
z ene
Sch war
ay er
bes ide
che t
com preh
cy cle
l ord
princi pal
speak ers
subsequ ent
19 12
C au
He brew
abs ence
ak h
bran ches
de x
dec ades
ie ge
n anda
p ill
room s
techn ique
thous ands
us age
vic tim
wit ness
wor n
wor se
A ur
R ose
Virgin ia
W em
W ind
at ol
expand ed
g ers
r ig
m ous
manag ement
mathemat ical
o y
reli ef
su perior
ush ing
zer o
D ist
Nether lands
P ho
S id
T uring
citiz ens
curr ently
elect ro
exist ing
f ety
fan cy
fle et
het amine
p ick
resour ces
sa fety
tri bes
y ard
An atol
As ian
C P
H al
ste ad
T enn
ac he
o th
F o
algorith m
enc ies
is sued
st ir
um ed
vow el
weap ons
B id
C up
M ot
Ma j
O ff
activ ist
administ rative
d oll
igh ter
im mig
instr uments
the d
to x
alk ali
f ix
fact ion
r are
phys ician
remember ed
L ev
M ir
New ton
Wem mick
av en
aw are
differ ences
fact ors
his m
it ism
put ting
ro of
scarce ly
surround ing
19 13
Agri pp
Ar sen
Mex ican
ad ult
cul es
g am
go al
pat ient
sit u
smo ke
j um
19 11
Th ough
ac cus
colon ies
ext ent
im ages
scient ists
ste am
upun cture
wa ited
Med iter
Th rough
act ual
carry ing
comfort able
m arch
mun icip
playw right
reject ed
w rest
17 5
19 16
L ove
S enate
U l
capt ure
d ated
drug s
l aure
medi eval
own ers
par ents
rapid ly
spec ifically
Bas il
D NA
M es
acqu ired
co al
de mo
g al
fac ed
ial s
instit utions
ivers al
phen omen
qu id
second ary
I T
Mediter ranean
O s
am ental
dark ness
or ient
territ ories
w ig
P ap
Qa eda
U p
a unt
as sumed
sh out
transl ation
us cript
I ra
ag an
arm ing
ch ann
comp at
cover ing
cuis ine
da ily
ed y
ev il
every body
show ing
sound s
spec im
strug gl
t al
s ir
t um
u ous
window s
Pro ject
S S
The od
a is
f al
appro pri
ex change
photo graph
pro ced
r ants
recent ly
spir its
sy ll
thro at
Christian ity
E th
Mill er
Pat ri
fa ult
iet ies
introdu ction
mil it
pract ices
se ctor
trad itions
us ers
v ote
Ber lin
W rit
a warded
am ph
d ition
dialect s
ex tern
f uel
grad ually
m ud
ne got
sus pic
teach ing
Ang ola
Char lot
He alth
O F
b row
cont ext
detail s
equip ment
head ed
hur t
leaders hip
ong side
M un
N ations
agric ultural
am in
B a
ar et
assem bly
con quest
concer ned
cr ime
famil iar
h uge
hard ware
moment um
mons ieur
Bet ween
Est ella
L es
P ier
affair s
call ing
ch lor
interest ed
ion e
con ver
look s
mat ic
pos it
prov iding
resol ved
sla ve
D ig
I re
Ire land
K uro
achi eved
l amp
nat urally
settle ment
success fully
un iverse
K en
y ah
R ev
act in
br id
c atch
g ain
in come
increasing ly
ke ys
se cut
A unt
Confeder ate
P op
aband oned
ad voc
appe al
as leep
exe c
f ant
hunt ing
impro ved
it able
su st
sub stant
t un
us er
wh atever
K emp
P et
Pac ific
T ele
ub a
W inter
attribut ed
cir cle
develo ping
extens ive
fl ag
i od
need s
ut en
AS C
Tur key
after noon
disci pl
do ors
philosoph ers
t ender
watch ing
af ford
brother s
col lected
i ate
in cess
int ention
lo s
mag azine
saw a
se ized
surpr ised
tra it
z ed
c li
Ad dition
Agass i
Arch ae
Bo ston
Charlot te
F ried
L ion
Lo ok
O ur
T od
am big
ib n
mathemat ics
neigh bor
or a
rad iation
se us
sw im
Lu ther
O cean
Schwar zene
Schwarzene gger
anim ation
b ore
chang ing
cry st
descri bes
dri ven
mark s
ple ased
po ver
rep ly
st an
v ac
N et
R u
ig er
St ar
V ery
act ors
ag ement
anx ious
car s
chemist ry
con firmed
dig ital
in ction
pat ients
ret ired
second s
t ics
typ ical
A irl
Aar hus
B re
E T
P S
J ones
Kuro sawa
O b
tain ing
serv ant
Publ ic
Val ley
Ze us
arri val
ars enic
comp ass
d ys
se as
ess ential
fle w
il li
r ance
val ley
world wide
Ira q
S lo
T ra
c ore
al ongside
compet ition
ende av
exped ition
k i
K o
med ium
new ly
ov a
se lect
u ct
Bes ides
F ather
N ative
att ached
att ended
bes ides
com pr
cross ed
dete ct
distribut ion
dom estic
fal se
influ ential
itch en
mob ile
public ation
report s
sal es
symp toms
um en
Ag es
F le
W at
ac les
an ed
compon ents
conver ted
enn y
he aring
move ments
n ie
op les
or ing
sa il
organ ic
pract ical
project s
r ations
B ol
De velo
In depend
Mu hammad
V e
attack ed
b rown
instr ument
lad ies
ph r
po ison
pro test
short ly
success or
uz z
190 8
Airl ines
Ca es
Col on
De ath
Fil m
Kore an
ammon ia
author ities
cu it
dam age
dress ed
ic it
in ople
Constant inople
j a
ic ed
ig an
plac ing
program ming
tou ched
w ed
E ston
Ste phen
adv ice
ar es
c en
ex cell
inv asion
partic le
pro ve
stre ets
ve get
17 th
I sa
R ah
any body
b ic
bre ast
igen ous
in fect
preser ved
row ing
t ure
viol ent
Ab out
H ave
H ay
Jour nal
Mass oud
ac re
agg ers
am an
com position
d io
dro ve
emer ged
heav en
inv ent
iss ance
manufact ur
res ign
te ams
tong ue
var ieties
A ld
Budd hist
C ross
Sch open
b are
b ent
log ical
poss ibility
prison ers
th rown
u an
vent ion
vo y
19 15
Ma jor
Per haps
Schopen ha
Su per
f ine
m ale
Wel sh
bre a
commiss ion
cre ating
ex cess
except ion
intellect ual
ish er
pr ide
roll ed
st ones
Hum an
Roman ian
agric ulture
c ort
is ol
cl in
col um
dread ful
extern al
h ed
k rain
U krain
list ened
m ally
mat ters
pl ed
re fr
sem i
support ing
un iform
ur g
it ated
E le
Secret ary
ate ur
aud ience
bish ops
comm itted
explo s
in ations
el im
up per
moun ted
novel s
sa ke
the ories
E du
c ation
G ins
Portug al
ap ted
arrang ed
c ub
celebr ated
class ified
de ck
depend ing
exper iments
in th
m art
oper a
p us
r ick
Fr ed
ir k
H op
strug gle
wor st
Con stitution
K ent
Mus ic
Schopenha uer
assist ance
b att
back ground
colon ial
cons ult
consist ing
design ated
former ly
ins ula
je ction
k itchen
k o
l oud
l uck
mos phere
present ly
print ed
stri ke
tell ing
Alger ia
B ible
C re
9 5
Gree ks
V is
A al
coun t
accoun ts
acknow led
any one
d an
fall ing
h ide
ho le
p ig
ment al
de part
moun tains
provin ces
requ ires
sec ure
vari able
w an
w aves
Ad a
Gins berg
S ud
T ha
The at
concent ration
f ier
histor ians
mis er
miss ed
pat ron
A gr
C op
D er
Nap ole
grad u
incre ases
ing ham
W ill
inhabit ants
r ushed
reve aled
ultim ately
wonder ful
And or
Class ical
M P
Ser b
acc used
am ino
antis em
con ven
d ates
destru ction
f el
g el
ident ity
ly n
oun ce
spl it
to ler
tri but
um ph
um s
en th
v as
od d
Cent aur
Elect ron
J aggers
ad apted
am ond
G ar
b ac
care fully
inv ented
list ed
man uscript
po sure
pover ty
princi ples
rul er
tom b
16 th
B BC
C D
M ina
amp hetamine
ass er
ather ine
ci ation
clear ly
con vin
consist ent
em an
gre es
it im
Le g
os sil
part ly
pian ist
pron ounced
rend ered
v ard
B us
G ulf
Gold en
M arg
O pen
M S
9 9
Sun day
W alter
Y et
appro ved
ax is
b its
conf idence
f lying
he im
my st
near by
rough ly
s igh
s od
wat ers
T op
ac upuncture
burn ing
cour ts
e gg
gen etic
l ers
la ke
ox id
p ical
phys ics
re bell
st im
st ore
therap y
Ar ts
B ul
Po st
Tenn es
Ter rit
bir ths
bur gh
condu ctor
ex claimed
fing ers
ell ing
ide al
il ty
in ate
li quid
polit ics
process es
sup por
tradition ally
wood s
195 0s
A ston
Angel es
F al
cous in
de grees
demand ed
in finite
organ ized
ph il
se ct
pr oud
thr ust
Fr eder
G all
Im per
M aster
M att
R E
among st
convin ced
form ally
ins ist
it age
possess ion
rac ing
term ine
w il
y an
190 3
A v
Af on
Afon so
C ze
D ou
Ser vice
an gry
bre vi
os ph
rail way
real ity
velo city
wor thy
pr a
ASC II
Aur ang
H ug
J ac
Joh ann
Ky i
Pro v
Sim ilar
Tennes see
U pon
ad el
assign ed
aw a
de termine
dev oted
lead s
os is
prefer red
remark ed
t ight
y ards
D un
s in
Ly dia
S i
ant ip
convent ional
cr is
f aint
fif th
h ospital
ic ago
Ch icago
inc ident
m ac
meas ured
ne uro
olog ies
paint ings
pat ri
re covered
ro gen
stand ards
str ict
B ob
Gr ant
H an
Jes us
O ct
S care
Theat re
V II
ap se
coun tenance
graph ics
ish es
ast on
m ers
sequ ence
to s
em en
use t
Ad am
Ambro se
Develo p
F estival
F ore
war n
H u
M me
P lay
Rah man
Su u
ag ent
al a
G a
c rown
div ine
fe ver
geomet ry
ide press
ides pread
il i
leg itim
main tained
orbit al
paralle l
plac ement
prom pt
qu et
C ro
ok ed
quiet ly
reput ation
ri ka
syn thesis
tem porary
Ae ge
B ach
Bid dy
D oug
Pal ace
R us
S a
_ I
arrest ed
drink ing
kn ife
p ent
r ence
ro ot
se lected
ser ver
190 5
7 2
Ang lo
Com mission
Mil itary
Protest ant
S ciences
St an
antibiot ics
astronom y
elect ions
establ ishment
h ence
histor ic
k m
laure ate
li brary
ma id
man ent
mat ches
n ick
pe oples
po le
pul led
ref lected
sa ved
Col umb
D am
D ue
L un
Scare crow
arm ies
c art
deliver ed
good s
graph ic
hor iz
ill in
indic ate
laugh ing
lo ose
ow s
r ender
re presents
stat ue
t ied
B ron
C SM
Dan iel
Fo ot
Mass ach
Massach uset
b ill
bre aking
fing er
gu ilty
hur ry
is ters
list en
organ izations
road s
should ers
w ret
ze b
6 9
6 7
8 1
AF L
Massachuset ts
Ph ys
ab led
aud io
b ark
benef it
ch ess
contribut ed
explan ation
f estival
le ap
ling u
not iced
sp her
thir ty
A ung
Con tin
K h
b n
No thing
V ar
approach ed
del ic
dis appeared
ex ists
im ed
man if
est ed
maxim um
p ushed
pain ting
ra ise
190 9
C atherine
Ch ief
Con tro
ap has
arr ay
at i
ad m
at mosphere
bacter ia
carri ers
class es
clo ser
excl us
ho v
in ity
mer ch
ol is
R h
or ous
quant um
M ars
Pol it
So cial
There fore
ali yah
e es
gen e
E u
al og
ian a
ou ter
p ir
s om
sis ters
w idespread
A aliyah
Aust ro
B ig
Christ mas
Develop ment
S on
b one
c ad
u ce
il ly
sh r
ill ness
contin ent
min im
mod ified
od ies
ste in
ul ous
uten ant
Comp uter
D ur
Georg ia
H and
Mar tha
T imes
bus y
cr ack
deep ly
forgot ten
frequ ency
g s
hur ried
oper ated
spr ang
In deed
J ef
K ab
L uc
Plan chet
Rom ans
Sem itic
W al
bal ance
cal m
ch ose
citiz en
con dem
concer ning
d ensity
ear nest
enjoy ed
gre y
i est
che er
w art
ific ial
popular ity
pow der
pre gn
ref uge
scri ption
so ver
e ign
sol ar
A us
As sem
Aurang zeb
Po i
S even
Sat urn
ar ic
at us
ceremon y
deb ate
ier i
invol ves
n ations
re in
or g
plat form
poet ry
ro ots
sent ence
sm iled
to lic
190 4
8 2
Aal en
Alex ios
P to
Poi rot
R ail
R en
Rod in
Spe er
av ian
comm ended
crim inal
execut ed
he m
is d
la h
mod er
ren ew
res umed
un usual
w et
w ick
190 7
A str
ic on
AB B
Bab yl
Brazil ian
appar ently
do zen
ent rance
fif ty
happ en
hop ed
indic ated
ke let
link ed
pol is
prote cted
pur pos
reach ing
subject s
190 6
AP L
I bn
In stead
Mar vel
Naz i
Pto le
add ing
address ed
b ought
con vict
design er
dis k
et te
foc used
in fr
lift ed
official s
possess ed
sole mn
surround ed
whe el
f ly
Agripp ina
Am mon
Centaur i
Ch ampion
Eston ian
Imper ial
L ew
N ear
NF L
Pro gram
acc eler
aspect s
bring ing
coll abor
compon ent
cre te
cry ing
fac ilities
h orn
interpret ation
invol ve
mass ive
pol l
proport ion
re actions
ri p
s ports
sol ved
some one
Gr im
Pol and
ag a
bank s
cast le
daugh ters
docum ents
exp ensive
fe ared
lab our
m ate
hel p
te am
che ck
treat y
Anatol ia
M ich
Right s
W o
can cer
consist ed
g reg
he ir
it an
ner vous
o cean
pain ted
pre cise
prison er
purpos es
rup ted
s iege
se lection
str ateg
van ia
vis ual
wit z
au se
W as
with draw
writ es
16 00
E D
I A
F air
G lo
T ell
ar ia
ather ed
bo ards
d at
environment al
fund amental
gen us
ib an
il a
in formed
invol ving
n omin
produ ces
t les
temper atures
21 st
Atl as
C as
ur an
Dig ital
Found ation
Shar on
agree able
ant idepress
behavi or
concer n
cr atic
fact ory
ge ograph
hor ror
last ed
philosoph ical
process ing
rest aur
surv ived
13 th
ABB A
Democr atic
F ree
H ans
H omer
Pe ace
a es
aw n
cult iv
des pair
exec ution
exist ed
gl ance
inter face
mechan ical
observ ations
occasion ally
ot a
pow ered
pre cip
s ched
shap ed
sing ular
techn ical
190 2
5 2
Com mit
Muslim s
Never theless
R am
Rog er
c od
d ance
design s
f ossil
har mon
ick ham
jur isd
kne es
meas ures
mole cules
my ster
nucle us
red uc
to ols
u f
fl ed
te a
Addition ally
Arch imed
C ha
F ederal
I BM
P el
P enn
R ous
S part
escap ed
hand ed
illust rator
o ir
ong o
pl us
r and
te acher
Ag ain
And re
K el
M A
V III
W ickham
associ ation
bio graphy
br on
ch ampion
dep loy
eng ers
P ass
hand some
lo ad
mom ents
n ik
nor mally
prote in
reduc ing
strong er
the dr
D omin
E s
Po ly
character ized
co ordin
danger ous
di ag
dy ing
effect ively
incorpor ated
love ly
mach ines
murder ed
newspap er
ol as
recogn ition
ret reat
sh if
u ced
ur a
K it
Kit ty
vow els
A vic
B apt
Den mark
Har vard
Israel i
Jef f
RO M
alleg ed
appropri ate
art istic
ate gy
ex posed
fir ed
gold en
gu ess
ific ations
it ate
lo sing
mon aster
r ag
r er
tit les
tox ic
whisper ed
Arsen al
Fore ign
H ann
M agn
On line
Sy ria
Th ank
Th ose
arg ues
b om
candid ate
categ ory
conqu ered
d ating
friend ly
ist ry
neut ral
o bey
ph osph
prop ag
script ions
stand s
um ber
186 1
Ae g
Ar agon
Azerbaijan i
C ave
C ons
Cl ub
H ot
S C
Tal iban
abo ard
b omb
cr uel
des ired
dis played
dist inction
em iss
es ch
le an
ex ceed
f aster
found ing
ov sky
B os
ir in
ch a
p ity
rem ind
sam ple
sel ling
serv ants
ul es
we bs
Be ck
C all
Camp bell
E conom
M i
Maj esty
S us
St at
asi atic
col ony
cre atures
d ir
et t
lo d
mix ture
nam ic
a er
B i
oblig ed
pict ures
pun ishment
r ical
rece iving
s id
suffer ing
tri umph
un iversal
193 0s
5 7
H ip
M as
R I
L A
S ometimes
ac ing
al together
ar ter
asp irin
bot tle
col ors
crit ics
cur s
des ert
employ ment
et ime
fr uit
inter ior
ir t
iso de
l est
ick s
C le
period s
r ons
rare ly
ren amed
sm iling
Andalus ia
B ish
Commit tee
L ab
ad en
Muskete ers
St ad
Vi enna
an ime
can on
engine ering
experi ences
ij ack
immedi ate
mor row
port ation
rat io
re commended
sac red
sover eign
sy l
189 4
All en
Ant ig
M it
ig ation
Napole on
Rom a
ab brevi
character istics
encour aged
execut ive
extra ordinary
gener ated
inqu ired
lay ing
m ates
might y
ot y
own er
rank ed
sle pt
sub stance
ter day
Ar bor
Assem bly
Bra ves
Med ic
S pr
V A
ab und
c ope
character istic
cho ose
concer ns
consequ ence
cul iar
depend ent
mar sh
novel ist
pi pe
sp in
trans ition
weap on
Ar n
bit ter
Aus ch
Ausch witz
C ard
D uch
Hind u
L yn
Per seus
Victor ia
W in
ad or
b arr
cult ures
doct rine
ed itor
est s
expl icit
fo x
ivers ities
l on
log ic
m ap
our selves
person nel
represent ing
ri er
st ack
suit able
ul ating
v ak
Buck ingham
Columb ia
Jac ob
K ash
am ateur
ap o
appro val
art icles
astronom er
cr acy
distingu ished
evol ved
g athered
observ ation
p ione
pard on
ple x
plic ation
r ics
satis faction
surv iving
tr ail
tri p
od s
A qu
Caes ar
Cor por
Foot ball
H ark
Kar l
O l
Or ange
Stud ies
V o
it ure
ad minister
algorith ms
aut onom
be aring
decl ine
dep icted
ev ing
g ri
ev es
ex cited
form at
offer ing
oper ate
rup tion
se ats
stor age
town s
Ad mir
En g
K enn
Ne o
Pier re
S ic
ap op
appoint ment
c ards
fl ash
ch rom
decl ined
ex posure
frag ments
furn iture
i at
inqu ir
inv ited
ish ments
nav al
prote ins
redu ction
rock s
sh or
stor m
sus p
z ona
Avic enna
Dire ct
K er
Pro to
W ater
William s
ab er
h ag
ane ous
aphas ia
ass ured
b in
behavi our
col lege
do s
fright ened
hundred s
ic illin
light s
p ines
pe culiar
pen et
st ayed
st ern
symbol s
tank s
tr ig
Al lo
Arab s
Cze ch
Lew is
Nor we
S ix
T O
Tem ple
af fil
dri ving
ens es
ep isode
hid den
interpre ted
low est
rot ation
ast y
dy n
dyn asty
ser ves
st ations
st uff
ta iled
tr af
vis ions
Br and
D E
Just ice
T ake
Wat son
astro logy
b un
compan ions
cy clo
demonstr ated
does n
dom inated
h ijack
ph al
pred omin
pro ceeded
ri x
C ra
ro pe
sol utions
the me
theat re
thedr al
tit led
varian t
y m
186 2
Aege an
H ux
M ach
Norwe gian
S and
Swed en
au tom
aw s
cent s
cir cuit
excell ent
ic ial
im prison
mess age
mist ress
r ict
sym path
vol can
war ning
A ach
Ant i
Bak r
J r
L ast
Le on
Pr im
Ste ve
Wor k
ad i
anim ated
ass ium
belief s
claim ing
contro vers
dom ain
fl am
miser able
no stic
per manent
r ays
represent ation
sen ior
separ ation
sing ing
v ant
j u
wrest ler
Ad ri
B an
Contro l
Off ice
Techn ology
We b
ck et
ag h
amph ib
art ificial
c ra
cand le
command ed
compat ible
conf usion
continu ous
ele ven
ex ha
ust ed
interest ing
le ts
phr ase
pse ud
sc op
suc ceed
wood en
A wards
AS U
C S
C rit
Can ter
Cap tain
Gre y
J ag
M uch
Sw itzer
W es
bit umen
contr ary
defin ite
di ver
g ence
flow er
hang ing
mar ine
nit rogen
part ner
reg ister
str ategy
su ff
threat ened
tri als
v ain
ver b
Af rika
C orn
Canter bury
Switzer land
Tod ay
al g
astronom ical
car tr
comm end
cop ies
g ang
ik os
r out
rout e
on al
origin ated
ro polit
sc ape
sw ift
th yl
we igh
y on
160 1
D ev
ot ion
D ie
Ear l
Kash mir
Langu age
S ong
Sh ort
T alk
Wood man
alk al
az z
club s
coast al
e ating
fier ce
h ills
hy dr
met all
mov ie
n oun
op tim
p itch
pr ince
ref lection
scient ist
t ip
w ing
tas te
traf fic
transfer red
ve ll
was te
An imal
Bel gian
G B
Sal ieri
Territ ory
anthropol ogy
bind ing
charg es
con stell
contin ental
continu es
electr ical
en z
ene ath
fem in
i ro
h it
isol ated
loc ations
part ners
pers ist
remark able
respond ed
to sis
189 8
AN D
L ie
Me an
N ich
Un like
_I _
ag ents
ak ened
aster oids
av ed
az ed
b und
be an
cler gy
de t
disput e
ef fici
ep is
exer cise
experiment al
f est
f ishing
B ow
in spir
m ology
en zy
off ices
ra ising
re tained
sam ples
sc enes
sk ull
spl end
st up
sw itch
t ale
B ed
Carol ina
Cro at
H ou
Intern et
R ena
Re cord
Sam uel
Se ward
abstr act
all iance
arg ue
au g
ur ation
conf ig
convers ion
evident ly
hand ker
i ary
In c
inj ury
instit ution
ios ity
j ac
rand om
research ers
ri k
see king
soft ly
su ic
ul ed
val u
189 9
Aach en
An ab
F eder
Francis co
L or
bo ots
cl ar
cris is
ind igenous
interest s
step ped
tell s
your s
AT A
Afrika ans
An th
Andor ra
Cla ud
Corpor ation
Dist rict
Fried rich
K B
Ser ies
a head
attr acted
c attle
cop per
f ond
feat uring
he ll
i the
j ew
k ara
rad ical
ropolit an
sp ons
12 th
189 6
Ad minist
Ah med
An axim
D A
F am
Fol io
G ord
H arr
John ston
T el
es p
ad just
ad mitted
ann i
antibiot ic
arrang ement
aster oid
be tr
ay ing
commiss ioned
communic ations
d ign
ent ering
handker chief
im pression
it is
near er
par liament
rest ored
s lip
sty les
Ar g
Flor ida
Greg ory
Hop kins
M ain
M ess
P y
Pl ato
S qu
U s
ac ious
ain ted
ame ter
amoun ts
arg uments
class ification
di verse
dise ases
fair ly
far ther
for ty
form ula
hor rible
ic y
ict ional
ident ical
ink ing
p ause
pr ayer
sche me
sod ium
v ig
run s
r in
in n
wh ist
Alexand ria
An im
Ar es
Independ ence
Kenn edy
Sim on
a o
cer t
den ied
descri bing
fif teen
hop es
imag ine
int ense
kind s
ob v
ow ed
pro hib
pur sued
que er
th under
ve ctor
186 9
Am al
Anab apt
De co
F re
Ind ust
L im
Mos cow
Moun t
N ight
P le
Penn syl
Wh it
arm our
ast s
at ically
ath a
b eneath
bor ne
concent rated
desc ended
doll ars
extens ion
gr im
head quarters
l en
mil k
mor ph
t act
olog ists
op pon
ot am
pal ace
sim ult
sup per
ure au
var ies
186 5
B ase
Iran ian
L E
R AM
F A
Pennsyl vania
Rous sim
Roussim off
St ill
T ark
T own
s end
W ars
ab road
al o
camp us
clin ical
cover s
critic ized
eat en
eng then
fact s
fortun ate
fr anch
ins on
investig ation
it udes
land ed
like wise
ma il
nig ger
regular ly
ro polis
st ared
suppor ters
t ap
v y
sa v
yes terday
z one
189 1
189 5
Ari zona
Chris top
G et
M ug
Mad ame
Mich igan
at ine
ative ly
comp ar
aw ful
discuss ed
dut ies
hypo thesis
ic ing
in scriptions
instant ly
key board
liber al
or p
plan ets
r ent
ak a
s aint
st iff
stud io
tr aged
15 th
Ar uba
Doug las
German ic
J acqu
N S
Nat ural
Sch we
b old
ber ry
el der
el abor
et ings
farm ing
in tim
l one
pass engers
polic ies
pt ure
sc ul
scul pt
sculpt or
re covery
recogn ize
vol umes
wish es
189 0
Al ps
Antar ctic
For ces
Kab ul
Mem bers
Po or
Stand ard
ag ues
at ivity
bra ve
consum ption
der iv
dis orders
discuss ion
educ ational
else where
fan try
if ies
instruct ions
iss ip
ou st
pop ulations
stro ke
um ental
A BC
Aster ix
Brown low
Christop her
En d
ur ance
H ard
N in
P rem
Rena issance
S ak
T urn
W itch
Wil son
accur ate
adel ph
comm em
conne ctions
conson ant
cri bed
def ence
en thus
ens ional
exam ined
f ts
li bert
mur m
per mitted
po ol
ro g
sel ess
sub stit
vary ing
vis itors
w ars
9 2
m m
6 2
7 7
Bar on
Edu cation
J ord
L ine
S af
T ay
acqu aint
advert is
am ples
Ex amples
be ings
comed ian
cro ps
del iber
des per
dr unk
electron ic
est e
em ed
hy mn
lim its
m ild
proper ly
ri e
st ages
t et
than ks
Aar on
Archimed es
As s
C u
Con ference
H aving
Miss issip
Th ird
air line
antisem itism
au x
ot ro
R on
d raft
dif f
eas ier
l ux
miss ile
organ isms
per pet
point ing
pot assium
se ated
sign als
surv ive
the l
ud ing
ur s
12 8
Ar min
E min
Gr ace
L av
L ow
Mor ris
Pat rick
Pe ters
Phil adelph
Pho en
Tark ovsky
ak ers
concept s
cost s
crew ed
depend s
econom ist
el ine
er ic
glo om
jud ged
kno ck
l u
w arm
members hip
municip al
myst ery
narr ative
ome ter
k il
ot on
p ounds
sat ell
sho ck
six th
stat ist
stri king
u cture
un ciation
Ambro s
B ah
C ir
D om
H O
Hon or
Kore a
Lun ar
Miss ion
No ah
Organ ization
absolute ly
all ies
aph ys
att itude
ay a
cho ok
do be
A dobe
emphas is
forest s
ha w
inter rupted
ith ium
list ening
prom ote
s kelet
t ent
var iation
we b
Ab bey
Ad vent
Cer tain
Com mand
Def ense
Mississip pi
Philip pines
S ign
ang les
c ue
cl am
con fin
constitution al
dec ade
f asc
h oney
i ac
m am
r ush
rebell ion
ri fic
sec ution
suspect ed
tel es
Agr ic
Co ast
D ep
end ant
Don ald
G un
K ur
Mes op
Mesop otam
P umble
Pumble chook
S av
is a
S cient
ak ness
bond s
che my
concl usion
contribut ions
de pression
descend ants
educ ated
fl our
ick en
id ers
inst inct
iv eness
im press
k hov
re cru
refer ring
rep air
sleep ing
stor ed
travell ed
valu able
w ants
war ri
C ape
Gord on
T her
am id
an atom
apart ment
b is
con trad
convent ion
cur iosity
ed ited
equ ally
gener ate
hydro x
ino is
mon o
r ural
rul ing
s ar
se es
sol ve
sur g
w ol
when ever
A rian
Arab ian
Car ib
G ames
In tel
Ptole my
S ri
v ast
antip sych
assass ination
certain ty
eng ines
g if
ic ular
its yn
z hen
kind ness
mar ble
o saurus
orig ins
ox ide
pre y
profess ion
public ly
situ ated
theor et
un iversities
v re
189 7
1920 s
Arch bishop
B S
H ome
H ospital
L ight
L iter
L ud
Mart ians
N one
W he
absor bed
al mond
b apt
c ence
ex c
ch apter
ch t
coun tered
earth qu
fl esh
follow ers
gr ade
ican ce
if icance
in f
us ions
it arian
it ems
j er
met ic
of t
pro spect
pro ton
prom oted
sport sc
t orn
we akness
188 9
189 3
Ak k
Che khov
Philadelph ia
Sol zhen
Solzhen itsyn
T ed
ad ers
ane ously
antib odies
av ia
belong ed
c ensus
ch im
cheer ful
f ate
function al
gian t
grand father
ict ing
in als
Or ig
in fl
is er
ab il
j ack
link s
mag ic
ob sc
occup ation
om ed
p ip
r as
res idents
smo oth
sportsc aster
ther more
F ur
Fur ther
top es
AT P
Al b
Bish op
Hark er
Ill inois
M other
Po cket
R ud
Sp ir
arm oured
c raw
continu ing
cop al
ge on
histor ically
iction ary
immig rants
le agues
long est
manufact uring
propos al
publ isher
rif ice
scul pture
st aring
stret ched
t d
trans mission
up stairs
vill ages
186 0
186 3
Akk ad
Am way
B all
ch y
o on
B run
H it
Med al
Pr uss
Pro du
atter y
c able
c inem
con vey
des k
establ ishing
id ity
il ation
indic ates
li a
may be
ob serve
ous ed
prev ail
reason ing
ren al
rom antic
sc attered
tem pt
the ology
tr aces
ve ter
wh ip
z z
P a
av o
187 6
A ene
Anton io
B rad
do ck
Carib bean
M ong
Marg aret
Min istry
P ower
Sax on
W ild
ad hes
aud i
bour n
c of
cl ay
con sole
distribut ed
du al
ha ven
ic rob
id al
por trait
r ice
reason able
reg ret
sc ore
th rowing
186 7
A 300
Am E
Con serv
E ll
m ere
ot t
Eng ine
Fran co
Fur thermore
H es
che l
Hou ston
L iv
S ev
antib ody
b orders
back s
th row
bi ological
campaign s
complex ity
cro p
dim ensional
employ ees
eng ed
flo od
pl ain
house hold
in scription
pat ience
plic ated
pred e
r ating
T it
re move
rem ote
res idence
resist ant
respons ibility
some body
t ort
Allo saurus
Bach chan
Bern ard
Bl ue
Colon el
Fin ally
Hux ley
L I
Ma ur
Mean while
O p
pos ing
P ra
Se cur
With in
ad verse
anarch o
bo ats
mot or
burn ed
ch ains
con ference
coun ty
de tailed
direct ions
en force
ex cit
m ation
me etings
purch ased
san ct
ship ped
stat ements
su me
suf fici
sym met
tra its
Al aric
C rown
F ield
In don
Indon es
Jul ius
Nor man
Pen insula
Ro y
Say y
acknowled ged
ae an
br is
c ree
compar ison
depart ure
e cho
ens ions
get s
h u
ke eper
m arg
men se
part ially
pr ices
r ab
sh ift
sha king
sk ill
st um
study ing
13 0
9 7
7 4
188 1
9 3
Act s
Alban ians
C C
X III
Cast le
Emin ence
F all
K a
K ansas
K u
Luther an
Pal est
T un
ag le
antic ip
ap pre
arbit ration
astronom ers
constit u
depart ed
di amond
difficult ies
em e
Al g
e u
en or
every one
fall s
fun eral
hand le
hy per
r ational
im m
in ch
in struction
leg acy
mer ged
mist aken
murm ured
ob st
rang ing
refer ences
sh ine
vert ical
AS L
Ch ile
L ank
L iz
M ike
Med ical
N ancy
R aj
ach ment
bl ank
bron ze
c ate
capital ism
chann el
ches ter
cro s
distr ess
fel d
flight s
g host
graph ical
legitim ate
m aker
man ners
mort al
nur se
op tery
pri ze
purch ase
quant ities
r age
re commend
sho oting
substant ial
suic ide
tain ment
un ited
Ag am
B ates
F ern
H om
Laur ence
Of fic
So on
Spe cial
T roy
b age
bar rel
c ulation
cess ion
ch arming
che eks
clo th
e leg
fr on
har sh
hol id
horiz ont
human ity
j i
liber ty
mad ame
p icked
particip ated
re fin
read ily
st ating
t ick
w ider
y o
11 th
14 th
187 5
189 2
Ab bas
Ab sal
Andr on
At t
B lo
gard en
F ood
Gu ard
Hann ah
I l
ha z
ri ans
J os
Jacqu es
N on
Pr incess
Ukrain ian
W ay
ac company
bl ical
cloud s
conson ants
cr imes
dis pers
e ing
h ier
hel m
id el
im mense
j ug
ly wood
medi ate
or ic
our ing
prob able
restr icted
ret ire
sc ope
sh ame
she et
sp ark
vo ices
A gent
Af fair
Ar ound
Arm strong
Be aut
G am
H ur
R et
Wind ows
alg ae
ap ple
ar th
brief ly
de but
dre ams
ear ned
en cing
en countered
fac il
fin ity
fund ing
crow d
influ ences
jac ent
la x
lim bs
mot iv
pl anning
pl ates
pl ent
process or
prof ound
s ack
sho es
t z
tru ly
186 8
An kara
B AS
B ru
Br E
Cath ol
Dar win
IN G
S P
I P
AN C
K now
P ent
P ot
ac comm
ac cum
accomm od
altern ate
but ton
consid ering
dr ama
egg s
ex ile
fil ed
ic as
implement ation
install ed
myth ology
per mission
pr ud
rout es
sh ield
t ide
thor ough
uran ium
var ied
ve t
w ire
Af ro
Alg iers
B av
Contin ental
Mar ie
Moun tains
N ev
Prov ince
R i
Similar ly
arch bishop
b ull
bl ame
commit tee
conscious ness
consequ ences
em ig
r ant
equ ation
es ium
ex cav
govern ments
heav ier
hom es
hun gry
implement ed
ind uced
ivers ary
mark ets
p ages
s li
stop ping
str ang
ut il
vari ations
virt ue
Andron ikos
Arab ia
B ened
t us
Cap ital
Philosop hy
S c
St ation
arg u
assist ant
batt les
c ers
cl ust
consider ation
controvers ial
dec isions
def ended
in dex
mon itor
nam ics
necess arily
pan ic
pattern s
prede cess
prepar ation
record ing
se ed
su ing
sust ain
task s
th al
the w
wa ke
187 4
B ud
D C
D et
Div ision
Do ctor
L ind
Micro soft
N ik
Pr inci
Rev iew
S anta
Stad ium
ac ulture
assem bled
b ars
br illi
che ap
chron ic
cred ited
d iet
en abled
for cing
gu ide
heart s
infect ions
integr ated
iso topes
miss ing
ph arm
quant ity
r ist
G il
re mo
re place
res id
sign ificance
sp elling
um ni
wid th
A by
Agam em
Agamem non
And erson
And y
Atl antis
B io
Gu ards
Hell en
Isa ac
L og
Mos es
N ag
Sy m
T R
U R
acquaint ance
air lines
bor ough
cir cular
coll apse
f i
fat al
5 3
in visible
j amin
Ben jamin
jud gment
me al
never theless
op hy
s per
pro sper
ot ional
pre c
recogn ised
sett lers
sp ar
w ander
186 6
A pat
An na
B ey
C R
Ch ap
Cl ar
M E
O dys
P ed
og ical
R un
Sou theast
W ord
ad jacent
ast atine
be am
cal end
conserv ation
den se
faith ful
fl ame
he x
4 1
inj ured
int end
lo aded
m ales
ment ions
metall ic
per forming
pre cious
priest s
re joined
se ctions
sent iment
sli pped
some where
to ol
trans mit
trans portation
wret ched
187 7
Abd ul
Cathol ics
Ch ildren
Fin land
Hug h
Jud ge
Me thod
P os
s ess
Rad io
Th orn
aber ration
accord ion
arg on
assist ed
bel t
by e
cam era
candid ates
ci um
cof fee
con fer
conf used
decre ase
ef ficient
g rief
ho ly
i ations
re con
lif etime
myster ious
os tolic
ap ostolic
p uzz
pa used
pat ent
person ality
requ iring
rul ers
shor ter
uls ion
we ed
Ad van
Are a
E mer
Glo bal
K om
Mot or
al an
astr ucture
cal i
class ic
direct ors
equip ped
in fantry
jum ped
l ane
l ar
ord ination
par ad
portr ayed
process ors
represent ative
revol t
rit ual
str engthen
swe ar
tele phone
tem por
un expected
varian ts
viol in
vo cal
webs ite
AC E
Al cott
Al tern
Anth ony
Astr onom
Cr us
F ive
F ord
He aven
Hit ler
K al
in y
Le ban
M ack
P ad
Phil lip
Prem ier
Tay lor
accoun ting
ach es
adult s
but ter
district s
et ary
few er
fir ing
g ift
ind ire
ing er
int on
it als
mole cular
name ly
ol ar
pre m
priv ile
require ments
sac rifice
sp aces
specim en
splend id
ur bed
v ague
vessel s
war fare
188 8
Ah mad
Bu ild
E ss
Jord an
Ros s
S ac
S ah
Spir it
St one
W oman
ach ing
alt ar
appear ing
approach es
az ing
b ases
bel s
bes tow
comp ens
cott age
discipl ine
enn ium
f ictional
hast ily
ian t
imag ination
it o
le af
B road
lo op
magn etic
ment ary
mid st
occas ions
olog ian
orbit als
pl ess
pro xim
reven ue
ro de
supp lies
swe pt
tem ples
187 9
188 0
188 5
Ar ctic
B ack
Chr on
Democr ats
F ire
L omb
M ob
More over
P il
P ur
port ed
Per u
Revolution ary
Secur ity
Ven us
Wh ich
accompl ished
al chemy
antidepress ants
c aves
clo sing
commem or
comput ing
di ameter
estim ates
free ly
g ently
h ired
il er
indire ct
know ed
legisl ation
lo b
m ol
id o
m u
min eral
moder ate
pass es
poly nom
pred icted
proced ures
r hy
real ized
se eds
soon er
ste ady
them es
tre asure
vers es
wol ves
188 6
AG P
Bus iness
C ab
all o
N ar
Oct avian
V ill
ag gress
al ph
um er
cat aly
def ine
dist urbed
dri ft
earthqu ake
f ed
e en
farm ers
fl ung
gen es
G y
in sect
insist ed
inv ention
m ant
mis ery
net works
og en
ol an
persu aded
ro l
stra w
the astern
top ic
uc ci
Car l
vi br
w icked
wed ding
wil der
win ners
y ne
Bro ok
Col or
D ion
Fil ip
Fr ont
K on
Mur ray
With out
Year s
absor ption
ann ually
ar isto
ass ess
assem bl
ather s
back up
chall en
challen ge
com ic
d ers
rem ain
de emed
dram atic
exclus ively
fe ars
g ender
in fection
ke en
mus cle
mut ual
newspap ers
p ull
president ial
prob ability
r ings
ro les
sal ts
spect rum
su mer
t ut
the e
trou bles
victim s
voy age
1 000
7 00
186 4
Ap p
Budd hism
E ld
Fal cons
H 2
J un
Mon ks
Re present
Sy d
Ven ice
Wor ks
a wards
acqu ainted
adapt ation
all ied
am bit
am orph
and al
be ating
c ury
child hood
conv iction
do se
document ary
ess entially
fac ility
im mun
inspir ation
mort ality
ne phe
nephe w
nod ded
p ush
pos its
put s
qual ities
reven ge
sc rap
she ep
specim ens
struct ural
su gar
sur render
tax es
the ologian
tro pical
ud der
ur ged
v ices
vers ed
yl us
14 0
187 8
Am ph
Apat osaurus
Ar cad
i op
B alk
B ang
BAS IC
Bapt ist
Common wealth
H E
9 8
7 1
7 6
7 3
9 6
9 4
Ma themat
Mor oc
N ext
Nich olas
Pro te
R S
6 00
Rel ig
Sayy af
U T
E C
We ather
ac ute
advent ure
anti qu
be half
cav al
dish es
g ium
gr ain
gu ar
ie th
ind if
fer ent
init iated
jo ining
kne e
li v
mem oir
or chest
pra ise
product ive
s ending
seas ons
sh ed
to saurus
tr uck
wa ist
188 4
Atl anta
Cam us
Cy pr
E h
Fle ming
K im
L en
Law rence
Med lock
P ut
S ul
_ you
ad ic
administer ed
ae a
ash amed
aston ishment
bow ed
ch in
In do
che ll
cor rid
dim in
equ ations
fac ult
gradu ate
ik a
s lo
le ys
B ing
Bing ley
occur ring
off ensive
po ets
pot entially
reg ime
s ung
special ized
supp lied
tow er
tu be
z es
25 0
A V
Antig ua
C lay
Ed in
Eth iop
G as
H old
N T
D S
S et
Sar ah
T ony
Un til
al oud
antim icrob
d ip
div isions
em otion
hab ited
horizont al
host ed
ie u
in aug
it ating
ly rics
monaster y
o es
obv ious
pian o
prevent ed
r ans
par ent
relation ships
ser iously
tri be
ul us
v oted
v oting
y le
Col omb
F reedom
M ann
Rus sell
S en
S in
Trans l
architect ural
ass ert
b ard
box es
ca ution
ci us
col ored
con str
cy lin
cylin der
de z
em ic
est ial
fold ed
land scape
lit urg
market ing
optery x
ot ics
pass enger
pers pect
person ally
publ ishing
r ide
real m
rest rial
rit is
s ank
support s
the tics
tr an
u ity
Aber dare
Am es
Antar ct
Cau chy
G ame
G aul
He in
I li
In it
L O
A K
B I
L td
M ult
read ing
Mat thew
Medic ine
T ok
T ol
ah u
am ines
apop tosis
as man
T asman
br ick
lay er
colum n
cri ption
dec is
dio x
e b
et ies
n in
m our
ful ness
tr uth
you th
for get
than k
gr ate
grate ful
F a
exer c
gl an
her itage
i ently
ic op
inter cept
lo go
mem orial
n st
op tical
re ct
request ed
roll ing
se vent
system atic
there by
u seless
vol unt
187 0
Art icles
Cent re
Con ne
D ictionary
K ir
ch s
au ro
Mesopotam ia
N ature
T an
accur acy
actin ium
am eric
am use
cap abilities
cle ver
disput ed
estim ate
et ch
exam ination
f ab
f itted
im pressed
is dom
kiss ed
mass es
minim um
o ct
over w
pl as
pl ural
preser ve
pur ple
quar rel
r ors
sequ ently
sort s
sp an
sp ell
stad ium
sub sid
trad ing
um a
10 th
A br
A ut
um n
Advan ced
Antarct ica
B aker
C art
Cypr us
Jer sey
Mug hal
Muskete er
P un
Pres ently
Schwe itzer
Squ are
Syd ney
W alk
ad her
ail s
americ ium
arri ve
back ed
bed o
benef its
bi ology
chall enged
collect ions
explicit ly
favor ite
fl own
for bid
glan ced
guar ante
im ir
ir s
ld om
lie utenant
m und
manufactur er
measure ments
mon ster
neighbour hood
rele vant
s can
sharp ly
some how
sp are
stell ar
su its
vol t
A th
Ale ks
B our
Bru ce
C ass
E P
F und
G ab
Lav ois
Lavois ier
Olym pic
Pl us
W W
agre ements
attempt ing
b il
bas in
consequ ently
cot ton
cri es
exhib ition
in habited
inj uries
l ined
me ter
measure ment
object ive
p ist
phenomen a
prepar ing
remain der
secur ed
sens es
sens itive
shell s
similar ly
speak er
theoret ical
van ished
wonder ed
A esch
A x
Archae opteryx
Bel gium
Br idge
Edin burgh
Ju an
L ar
em y
en emy
M axim
il ian
Orig in
Other s
W oll
al tered
al tru
b attery
be ars
brea thing
constant ly
constell ation
cre pt
d ies
dam aged
el and
en compass
establ ishments
exhib it
gener ations
inno v
lone ly
m ouse
man age
mechan ics
necess ity
on aut
restaur ants
review s
stead ily
sub mitted
suff ix
tin y
to ph
tre as
vari ables
Al ta
Alger ian
Bar bar
ig o
D a
T ar
un te
Bro oke
Ca thedral
Lo yal
M and
ir a
Mem orial
Mur der
Ro ber
Tro jan
V lad
W olf
_you _
access ible
add le
ag ency
an th
ark s
O z
ask s
c in
calcul ated
concer t
cros sing
eng age
enor mous
ext inct
fund s
go als
grav ity
he ter
j et
liter ally
mist ake
os ity
period ic
phenomen on
pro tons
pron unciation
read er
sac rific
st ability
suffici ently
ver sy
vol unte
wealth y
z ing
188 3
A gency
B agh
B at
Be aver
C old
E ric
E ur
om on
En vironment
Fam ily
Fel ix
O k
S how
ground s
Sev ille
W ould
aps ed
att ested
beli an
br ane
c ure
cent ers
clo ak
correspond ence
de fect
die ck
G ro
do ses
drag ged
ev a
ex ual
fac ing
hel ping
infr astructure
kind ly
light ning
man ip
n ons
photograph s
proced ure
rad ius
rang es
reli able
rev ival
ri ved
satell ite
soul s
syn thes
then dieck
tr am
tr ap
u um
w ag
T our
withdraw al
AC M
Am p
Amer icas
