{
  "<PAD>": 0,
  "<UNK>": 1,
  "<BOS>": 2,
  "<EOS>": 3,
  "\n": 4,
  " ": 5,
  "!": 6,
  "\"": 7,
  "#": 8,
  "$": 9,
  "%": 10,
  "&": 11,
  "'": 12,
  "(": 13,
  ")": 14,
  "*": 15,
  "+": 16,
  ",": 17,
  "-": 18,
  ".": 19,
  "/": 20,
  "0": 21,
  "1": 22,
  "2": 23,
  "3": 24,
  "4": 25,
  "5": 26,
  "6": 27,
  "7": 28,
  "8": 29,
  "9": 30,
  ":": 31,
  ";": 32,
  "<": 33,
  "=": 34,
  ">": 35,
  "?": 36,
  "@": 37,
  "A": 38,
  "B": 39,
  "C": 40,
  "D": 41,
  "E": 42,
  "F": 43,
  "G": 44,
  "H": 45,
  "I": 46,
  "J": 47,
  "K": 48,
  "L": 49,
  "M": 50,
  "N": 51,
  "O": 52,
  "P": 53,
  "Q": 54,
  "R": 55,
  "S": 56,
  "T": 57,
  "U": 58,
  "V": 59,
  "W": 60,
  "X": 61,
  "Y": 62,
  "Z": 63,
  "[": 64,
  "\\": 65,
  "]": 66,
  "^": 67,
  "_": 68,
  "`": 69,
  "a": 70,
  "b": 71,
  "c": 72,
  "d": 73,
  "e": 74,
  "f": 75,
  "g": 76,
  "h": 77,
  "i": 78,
  "j": 79,
  "k": 80,
  "l": 81,
  "m": 82,
  "n": 83,
  "o": 84,
  "p": 85,
  "q": 86,
  "r": 87,
  "s": 88,
  "t": 89,
  "u": 90,
  "v": 91,
  "w": 92,
  "x": 93,
  "y": 94,
  "z": 95,
  "{": 96,
  "|": 97,
  "}": 98,
  "~": 99,
  " ": 100,
  "¡": 101,
  "¢": 102,
  "£": 103,
  "¥": 104,
  "¦": 105,
  "§": 106,
  "©": 107,
  "«": 108,
  "¬": 109,
  "­": 110,
  "®": 111,
  "¯": 112,
  "°": 113,
  "±": 114,
  "´": 115,
  "¶": 116,
  "·": 117,
  "»": 118,
  "¿": 119,
  "×": 120,
  "÷": 121,
  "˭": 122,
  "˹": 123,
  "˺": 124,
  "̀": 125,
  "́": 126,
  "̃": 127,
  "̄": 128,
  "̅": 129,
  "̌": 130,
  "̡": 131,
  "̥": 132,
  "̨": 133,
  "̮": 134,
  "̯": 135,
  "̲": 136,
  "̵": 137,
  "̽": 138,
  "͡": 139,
  "΄": 140,
  "҅": 141,
  "ְ": 142,
  "ֵ": 143,
  "ֶ": 144,
  "ַ": 145,
  "ָ": 146,
  "ֹ": 147,
  "ּ": 148,
  "ׁ": 149,
  "ׂ": 150,
  "״": 151,
  "ً": 152,
  "َ": 153,
  "ُ": 154,
  "ِ": 155,
  "ّ": 156,
  "ْ": 157,
  "ٰ": 158,
  "ۖ": 159,
  "۝": 160,
  "۞": 161,
  "ܲ": 162,
  "ܵ": 163,
  "ܼ": 164,
  "݂": 165,
  "݇": 166,
  "ं": 167,
  "ः": 168,
  "ा": 169,
  "ि": 170,
  "ु": 171,
  "े": 172,
  "ो": 173,
  "्": 174,
  "।": 175,
  "া": 176,
  "ি": 177,
  "ে": 178,
  "্": 179,
  "ാ": 180,
  "ി": 181,
  "ു": 182,
  "ോ": 183,
  "്": 184,
  "ี": 185,
  "์": 186,
  "᛭": 187,
  "᾽": 188,
  " ": 189,
  " ": 190,
  " ": 191,
  "‌": 192,
  "‍": 193,
  "‎": 194,
  "‐": 195,
  "‑": 196,
  "‒": 197,
  "–": 198,
  "—": 199,
  "―": 200,
  "‘": 201,
  "’": 202,
  "‛": 203,
  "“": 204,
  "”": 205,
  "„": 206,
  "†": 207,
  "‡": 208,
  "•": 209,
  "․": 210,
  "…": 211,
  " ": 212,
  "′": 213,
  "″": 214,
  "⁠": 215,
  "⁣": 216,
  "₩": 217,
  "€": 218,
  "₳": 219,
  "₹": 220,
  "←": 221,
  "↑": 222,
  "→": 223,
  "↓": 224,
  "↔": 225,
  "∀": 226,
  "∃": 227,
  "∅": 228,
  "∆": 229,
  "∈": 230,
  "∋": 231,
  "−": 232,
  "∞": 233,
  "∧": 234,
  "∨": 235,
  "∴": 236,
  "∼": 237,
  "≈": 238,
  "≠": 239,
  "≡": 240,
  "≤": 241,
  "≥": 242,
  "≼": 243,
  "≽": 244,
  "⊂": 245,
  "⊖": 246,
  "⊗": 247,
  "⊥": 248,
  "⋅": 249,
  "⋯": 250,
  "⌈": 251,
  "⌊": 252,
  "⍋": 253,
  "⍳": 254,
  "⍴": 255,
  "⎧": 256,
  "⎩": 257,
  "⏨": 258,
  "␣": 259,
  "Ⓐ": 260,
  "─": 261,
  "┌": 262,
  "┐": 263,
  "╥": 264,
  "╨": 265,
  "▀": 266,
  "▄": 267,
  "█": 268,
  "░": 269,
  "▒": 270,
  "▓": 271,
  "□": 272,
  "○": 273,
  "◘": 274,
  "☫": 275,
  "☺": 276,
  "♈": 277,
  "♒": 278,
  "♥": 279,
  "♦": 280,
  "⟶": 281,
  "⠀": 282,
  "⠁": 283,
  "⠋": 284,
  "⠙": 285,
  "⠟": 286,
  "⠻": 287,
  "⠿": 288,
  "⡈": 289,
  "⡟": 290,
  "⡷": 291,
  "⡿": 292,
  "⢀": 293,
  "⢁": 294,
  "⢻": 295,
  "⢿": 296,
  "⣉": 297,
  "⣌": 298,
  "⣠": 299,
  "⣦": 300,
  "⣧": 301,
  "⣴": 302,
  "⣶": 303,
  "⣷": 304,
  "⣼": 305,
  "⣾": 306,
  "⣿": 307,
  "。": 308,
  "・": 309,
  "︎": 310,
  "（": 311,
  "）": 312,
  "，": 313,
  "；": 314,
  "🇦": 315,
  "🇫": 316,
  "🇮": 317,
  "🇶": 318,
  "🇷": 319,
  "🇸": 320,
  "🇺": 321,
  "🇿": 322,
  "th": 323,
  "in": 324,
  "an": 325,
  "er": 326,
  "on": 327,
  "the": 328,
  "ed": 329,
  "at": 330,
  "en": 331,
  "or": 332,
  "es": 333,
  "ar": 334,
  "is": 335,
  "and": 336,
  "al": 337,
  "of": 338,
  "as": 339,
  "ou": 340,
  "it": 341,
  "ing": 342,
  "to": 343,
  "re": 344,
  "ic": 345,
  "le": 346,
  "he": 347,
  "st": 348,
  "om": 349,
  "ion": 350,
  "ent": 351,
  "ad": 352,
  "se": 353,
  "ac": 354,
  "il": 355,
  "be": 356,
  "\n\n": 357,
  "ro": 358,
  "ly": 359,
  "ch": 360,
  "for": 361,
  "id": 362,
  "am": 363,
  "im": 364,
  "ve": 365,
  "ol": 366,
  "ur": 367,
  "wh": 368,
  "was": 369,
  "ow": 370,
  "ter": 371,
  "ver": 372,
  "ir": 373,
  "ig": 374,
  "ith": 375,
  "us": 376,
  "that": 377,
  "el": 378,
  "ot": 379,
  "un": 380,
  "ay": 381,
  "ut": 382,
  "ct": 383,
  "ce": 384,
  "with": 385,
  "The": 386,
  "ation": 387,
  "his": 388,
  "de": 389,
  "ere": 390,
  "ag": 391,
  "19": 392,
  "con": 393,
  "ul": 394,
  "ab": 395,
  "et": 396,
  "ri": 397,
  "all": 398,
  "ap": 399,
  "em": 400,
  "lo": 401,
  "by": 402,
  "com": 403,
  "ess": 404,
  "li": 405,
  "ain": 406,
  "su": 407,
  "fr": 408,
  "ist": 409,
  "est": 410,
  "ther": 411,
  "ld": 412,
  "oun": 413,
  "od": 414,
  "op": 415,
  "ex": 416,
  "pro": 417,
  "are": 418,
  "pe": 419,
  "pr": 420,
  "ha": 421,
  "so": 422,
  "ht": 423,
  "um": 424,
  "ian": 425,
  "ers": 426,
  "tr": 427,
  "ne": 428,
  "pl": 429,
  "sh": 430,
  "our": 431,
  "ant": 432,
  "if": 433,
  "had": 434,
  "from": 435,
  "po": 436,
  "ke": 437,
  "not": 438,
  "ate": 439,
  "ill": 440,
  "ich": 441,
  "ish": 442,
  "qu": 443,
  "out": 444,
  "me": 445,
  "In": 446,
  "art": 447,
  "her": 448,
  "man": 449,
  "one": 450,
  "ould": 451,
  "ard": 452,
  "20": 453,
  "ity": 454,
  "ight": 455,
  "per": 456,
  "which": 457,
  "but": 458,
  "sa": 459,
  "ies": 460,
  "ive": 461,
  "were": 462,
  "fe": 463,
  "cl": 464,
  "oug": 465,
  "have": 466,
  "end": 467,
  "mo": 468,
  "ust": 469,
  "up": 470,
  "we": 471,
  "gr": 472,
  "ment": 473,
  "ell": 474,
  "my": 475,
  "ge": 476,
  "iv": 477,
  "mer": 478,
  "him": 479,
  "act": 480,
  "wor": 481,
  "ated": 482,
  "ber": 483,
  "ame": 484,
  "te": 485,
  "ound": 486,
  "An": 487,
  "ia": 488,
  "ort": 489,
  "ud": 490,
  "ong": 491,
  "ical": 492,
  "ome": 493,
  "ous": 494,
  "ine": 495,
  "ast": 496,
  "ci": 497,
  "over": 498,
  "ra": 499,
  "der": 500,
  "no": 501,
  "Ar": 502,
  "do": 503,
  "now": 504,
  "ind": 505,
  "ok": 506,
  "ear": 507,
  "au": 508,
  "ak": 509,
  "ass": 510,
  "ary": 511,
  "other": 512,
  "Al": 513,
  "this": 514,
  "res": 515,
  "pt": 516,
  "Th": 517,
  "ican": 518,
  "ure": 519,
  "ore": 520,
  "av": 521,
  "she": 522,
  "ack": 523,
  "ide": 524,
  "18": 525,
  "ough": 526,
  "ph": 527,
  "ence": 528,
  "rit": 529,
  "ev": 530,
  "bl": 531,
  "af": 532,
  "He": 533,
  "who": 534,
  "bo": 535,
  "ally": 536,
  "ions": 537,
  "its": 538,
  "ace": 539,
  "age": 540,
  "ang": 541,
  "said": 542,
  "Amer": 543,
  "ck": 544,
  "os": 545,
  "they": 546,
  "du": 547,
  "ans": 548,
  "str": 549,
  "ie": 550,
  "It": 551,
  "ple": 552,
  "their": 553,
  "ach": 554,
  "tim": 555,
  "been": 556,
  "pos": 557,
  "Ch": 558,
  "able": 559,
  "co": 560,
  "ire": 561,
  "can": 562,
  "ever": 563,
  "way": 564,
  "part": 565,
  "fir": 566,
  "American": 567,
  "sel": 568,
  "dis": 569,
  "ip": 570,
  "own": 571,
  "would": 572,
  "ree": 573,
  "some": 574,
  "them": 575,
  "ign": 576,
  "br": 577,
  "port": 578,
  "ite": 579,
  "form": 580,
  "iz": 581,
  "cent": 582,
  "fer": 583,
  "tw": 584,
  "gl": 585,
  "old": 586,
  "go": 587,
  "ult": 588,
  "cre": 589,
  "cont": 590,
  "ice": 591,
  "pre": 592,
  "00": 593,
  "int": 594,
  "mon": 595,
  "has": 596,
  "any": 597,
  "ib": 598,
  "more": 599,
  "ance": 600,
  "low": 601,
  "ry": 602,
  "also": 603,
  "know": 604,
  "there": 605,
  "first": 606,
  "when": 607,
  "ser": 608,
  "into": 609,
  "ial": 610,
  "thing": 611,
  "ction": 612,
  "og": 613,
  "ater": 614,
  "Wh": 615,
  "ma": 616,
  "ory": 617,
  "pol": 618,
  "ile": 619,
  "ord": 620,
  "than": 621,
  "att": 622,
  "ations": 623,
  "St": 624,
  "ade": 625,
  "time": 626,
  "ition": 627,
  "most": 628,
  "sp": 629,
  "comp": 630,
  "sy": 631,
  "des": 632,
  "used": 633,
  "such": 634,
  "then": 635,
  "spe": 636,
  "ates": 637,
  "la": 638,
  "dr": 639,
  "ep": 640,
  "Un": 641,
  "self": 642,
  "after": 643,
  "air": 644,
  "urn": 645,
  "ten": 646,
  "ful": 647,
  "you": 648,
  "ved": 649,
  "ty": 650,
  "two": 651,
  "fl": 652,
  "could": 653,
  "inter": 654,
  "cc": 655,
  "ced": 656,
  "gen": 657,
  "work": 658,
  "row": 659,
  "En": 660,
  "reat": 661,
  "land": 662,
  "ue": 663,
  "ll": 664,
  "about": 665,
  "itt": 666,
  "bet": 667,
  "like": 668,
  "Fr": 669,
  "ark": 670,
  "ob": 671,
  "off": 672,
  "day": 673,
  "ces": 674,
  "came": 675,
  "ick": 676,
  "ath": 677,
  "sc": 678,
  "ef": 679,
  "Jo": 680,
  "201": 681,
  "play": 682,
  "fore": 683,
  "ase": 684,
  "year": 685,
  "incl": 686,
  "iss": 687,
  "again": 688,
  "ict": 689,
  "pres": 690,
  "ious": 691,
  "ens": 692,
  "vers": 693,
  "min": 694,
  "very": 695,
  "col": 696,
  "ors": 697,
  "ents": 698,
  "coun": 699,
  "ug": 700,
  "ited": 701,
  "will": 702,
  "cons": 703,
  "new": 704,
  "under": 705,
  "ied": 706,
  "what": 707,
  "lect": 708,
  "uring": 709,
  "ward": 710,
  "thr": 711,
  "use": 712,
  "igh": 713,
  "reg": 714,
  "where": 715,
  "Engl": 716,
  "tain": 717,
  "rel": 718,
  "produ": 719,
  "199": 720,
  "ta": 721,
  "As": 722,
  "writ": 723,
  "found": 724,
  "may": 725,
  "ought": 726,
  "med": 727,
  "led": 728,
  "ave": 729,
  "ew": 730,
  "turn": 731,
  "This": 732,
  "ts": 733,
  "red": 734,
  "ons": 735,
  "ped": 736,
  "ular": 737,
  "fo": 738,
  "orn": 739,
  "arch": 740,
  "198": 741,
  "made": 742,
  "tern": 743,
  "comm": 744,
  "And": 745,
  "ings": 746,
  "rem": 747,
  "car": 748,
  "ury": 749,
  "par": 750,
  "well": 751,
  "hand": 752,
  "many": 753,
  "ft": 754,
  "17": 755,
  "II": 756,
  "ect": 757,
  "Mr": 758,
  "look": 759,
  "ism": 760,
  "ink": 761,
  "long": 762,
  "197": 763,
  "olog": 764,
  "gan": 765,
  "ational": 766,
  "ubl": 767,
  "ily": 768,
  "come": 769,
  "les": 770,
  "see": 771,
  "ins": 772,
  "arg": 773,
  "ys": 774,
  "ics": 775,
  "ual": 776,
  "through": 777,
  "ative": 778,
  "ween": 779,
  "your": 780,
  "uch": 781,
  "cer": 782,
  "fin": 783,
  "ased": 784,
  "down": 785,
  "ople": 786,
  "call": 787,
  "before": 788,
  "ble": 789,
  "cr": 790,
  "how": 791,
  "ered": 792,
  "ving": 793,
  "back": 794,
  "ext": 795,
  "ise": 796,
  "ters": 797,
  "set": 798,
  "cau": 799,
  "sub": 800,
  "between": 801,
  "cri": 802,
  "mod": 803,
  "196": 804,
  "men": 805,
  "sup": 806,
  "cy": 807,
  "did": 808,
  "ject": 809,
  "English": 810,
  "At": 811,
  "includ": 812,
  "though": 813,
  "cap": 814,
  "let": 815,
  "these": 816,
  "arm": 817,
  "ished": 818,
  "ese": 819,
  "als": 820,
  "eng": 821,
  "ars": 822,
  "clo": 823,
  "cond": 824,
  "ose": 825,
  "read": 826,
  "ted": 827,
  "ince": 828,
  "ann": 829,
  "upon": 830,
  "ond": 831,
  "sing": 832,
  "vis": 833,
  "cause": 834,
  "known": 835,
  "io": 836,
  "fect": 837,
  "being": 838,
  "sur": 839,
  "ating": 840,
  "dif": 841,
  "ask": 842,
  "fa": 843,
  "16": 844,
  "cess": 845,
  "hy": 846,
  "press": 847,
  "tri": 848,
  "fol": 849,
  "Con": 850,
  "litt": 851,
  "Aust": 852,
  "ral": 853,
  "stem": 854,
  "while": 855,
  "ank": 856,
  "little": 857,
  "sm": 858,
  "ific": 859,
  "cur": 860,
  "less": 861,
  "son": 862,
  "alk": 863,
  "ix": 864,
  "unt": 865,
  "head": 866,
  "century": 867,
  "ball": 868,
  "bu": 869,
  "Se": 870,
  "ild": 871,
  "Am": 872,
  "people": 873,
  "ible": 874,
  "But": 875,
  "No": 876,
  "dist": 877,
  "much": 878,
  "nor": 879,
  "gener": 880,
  "che": 881,
  "ities": 882,
  "amp": 883,
  "should": 884,
  "publ": 885,
  "Af": 886,
  "194": 887,
  "light": 888,
  "ho": 889,
  "ton": 890,
  "ident": 891,
  "ists": 892,
  "trans": 893,
  "ves": 894,
  "cle": 895,
  "velo": 896,
  "15": 897,
  "bro": 898,
  "For": 899,
  "outh": 900,
  "There": 901,
  "word": 902,
  "appe": 903,
  "present": 904,
  "oman": 905,
  "var": 906,
  "ium": 907,
  "years": 908,
  "cept": 909,
  "even": 910,
  "Ad": 911,
  "war": 912,
  "three": 913,
  "ness": 914,
  "num": 915,
  "ouse": 916,
  "ures": 917,
  "iet": 918,
  "put": 919,
  "during": 920,
  "right": 921,
  "follow": 922,
  "cho": 923,
  "On": 924,
  "De": 925,
  "She": 926,
  "great": 927,
  "ash": 928,
  "app": 929,
  "high": 930,
  "gh": 931,
  "soci": 932,
  "hist": 933,
  "Com": 934,
  "both": 935,
  "life": 936,
  "ven": 937,
  "get": 938,
  "val": 939,
  "inst": 940,
  "dire": 941,
  "rest": 942,
  "ship": 943,
  "ey": 944,
  "ician": 945,
  "polit": 946,
  "Ger": 947,
  "ared": 948,
  "ange": 949,
  "good": 950,
  "system": 951,
  "pers": 952,
  "point": 953,
  "same": 954,
  "pass": 955,
  "every": 956,
  "ss": 957,
  "stru": 958,
  "Pr": 959,
  "called": 960,
  "aw": 961,
  "sign": 962,
  "ier": 963,
  "oup": 964,
  "add": 965,
  "sto": 966,
  "cover": 967,
  "must": 968,
  "ning": 969,
  "cour": 970,
  "ments": 971,
  "inv": 972,
  "ah": 973,
  "195": 974,
  "10": 975,
  "They": 976,
  "arge": 977,
  "193": 978,
  "side": 979,
  "angu": 980,
  "stand": 981,
  "Joh": 982,
  "bed": 983,
  "ody": 984,
  "never": 985,
  "ized": 986,
  "leg": 987,
  "ub": 988,
  "sim": 989,
  "ern": 990,
  "So": 991,
  "say": 992,
  "ution": 993,
  "ivers": 994,
  "later": 995,
  "ude": 996,
  "lex": 997,
  "met": 998,
  "pop": 999,
  "mat": 1000,
  "only": 1001,
  "bre": 1002,
  "mar": 1003,
  "fam": 1004,
  "ually": 1005,
  "New": 1006,
  "develo": 1007,
  "Art": 1008,
  "vel": 1009,
  "went": 1010,
  "ened": 1011,
  "world": 1012,
  "just": 1013,
  "try": 1014,
  "serv": 1015,
  "ms": 1016,
  "differ": 1017,
  "Be": 1018,
  "cor": 1019,
  "against": 1020,
  "aking": 1021,
  "cal": 1022,
  "became": 1023,
  "ner": 1024,
  "iel": 1025,
  "face": 1026,
  "ants": 1027,
  "gy": 1028,
  "mem": 1029,
  "thor": 1030,
  "pect": 1031,
  "cord": 1032,
  "ural": 1033,
  "How": 1034,
  "contin": 1035,
  "near": 1036,
  "Ro": 1037,
  "stud": 1038,
  "Is": 1039,
  "nam": 1040,
  "because": 1041,
  "last": 1042,
  "thought": 1043,
  "12": 1044,
  "urch": 1045,
  "Re": 1046,
  "pow": 1047,
  "ically": 1048,
  "peri": 1049,
  "United": 1050,
  "took": 1051,
  "Sp": 1052,
  "still": 1053,
  "state": 1054,
  "place": 1055,
  "Brit": 1056,
  "foot": 1057,
  "vo": 1058,
  "oung": 1059,
  "poss": 1060,
  "beli": 1061,
  "Le": 1062,
  "ature": 1063,
  "agn": 1064,
  "langu": 1065,
  "got": 1066,
  "hel": 1067,
  "ages": 1068,
  "ae": 1069,
  "War": 1070,
  "direct": 1071,
  "city": 1072,
  "ench": 1073,
  "order": 1074,
  "Chr": 1075,
  "gu": 1076,
  "Alex": 1077,
  "192": 1078,
  "group": 1079,
  "sk": 1080,
  "uro": 1081,
  "including": 1082,
  "fil": 1083,
  "think": 1084,
  "ale": 1085,
  "requ": 1086,
  "king": 1087,
  "ently": 1088,
  "dep": 1089,
  "exam": 1090,
  "grap": 1091,
  "away": 1092,
  "bit": 1093,
  "ines": 1094,
  "ility": 1095,
  "make": 1096,
  "partic": 1097,
  "often": 1098,
  "Ab": 1099,
  "sever": 1100,
  "law": 1101,
  "ting": 1102,
  "hal": 1103,
  "ax": 1104,
  "himself": 1105,
  "consid": 1106,
  "ained": 1107,
  "We": 1108,
  "uss": 1109,
  "number": 1110,
  "night": 1111,
  "14": 1112,
  "seem": 1113,
  "fact": 1114,
  "prov": 1115,
  "fri": 1116,
  "por": 1117,
  "lead": 1118,
  "spec": 1119,
  "jo": 1120,
  "gover": 1121,
  "began": 1122,
  "ele": 1123,
  "miss": 1124,
  "turned": 1125,
  "Mar": 1126,
  "ley": 1127,
  "four": 1128,
  "those": 1129,
  "ca": 1130,
  "John": 1131,
  "large": 1132,
  "saw": 1133,
  "body": 1134,
  "den": 1135,
  "author": 1136,
  "elect": 1137,
  "don": 1138,
  "ians": 1139,
  "ways": 1140,
  "without": 1141,
  "house": 1142,
  "hum": 1143,
  "main": 1144,
  "char": 1145,
  "gre": 1146,
  "might": 1147,
  "fic": 1148,
  "giv": 1149,
  "ended": 1150,
  "Nor": 1151,
  "ung": 1152,
  "small": 1153,
  "young": 1154,
  "too": 1155,
  "dom": 1156,
  "ius": 1157,
  "vent": 1158,
  "sol": 1159,
  "death": 1160,
  "inal": 1161,
  "ield": 1162,
  "13": 1163,
  "ander": 1164,
  "bus": 1165,
  "ica": 1166,
  "iew": 1167,
  "Pro": 1168,
  "another": 1169,
  "Bo": 1170,
  "az": 1171,
  "ister": 1172,
  "und": 1173,
  "Gr": 1174,
  "ides": 1175,
  "Gree": 1176,
  "Austral": 1177,
  "take": 1178,
  "comple": 1179,
  "Col": 1180,
  "until": 1181,
  "player": 1182,
  "pri": 1183,
  "When": 1184,
  "ane": 1185,
  "plac": 1186,
  "ood": 1187,
  "States": 1188,
  "ired": 1189,
  "line": 1190,
  "French": 1191,
  "orig": 1192,
  "ron": 1193,
  "aim": 1194,
  "Can": 1195,
  "common": 1196,
  "book": 1197,
  "bers": 1198,
  "que": 1199,
  "cient": 1200,
  "ute": 1201,
  "enn": 1202,
  "oper": 1203,
  "000": 1204,
  "ived": 1205,
  "since": 1206,
  "allow": 1207,
  "show": 1208,
  "German": 1209,
  "ccess": 1210,
  "aster": 1211,
  "ik": 1212,
  "Or": 1213,
  "Christ": 1214,
  "Mo": 1215,
  "result": 1216,
  "effect": 1217,
  "ised": 1218,
  "ina": 1219,
  "occ": 1220,
  "pat": 1221,
  "mark": 1222,
  "design": 1223,
  "Tr": 1224,
  "ime": 1225,
  "dec": 1226,
  "person": 1227,
  "ene": 1228,
  "ross": 1229,
  "Ind": 1230,
  "appro": 1231,
  "His": 1232,
  "ology": 1233,
  "among": 1234,
  "ling": 1235,
  "view": 1236,
  "support": 1237,
  "cot": 1238,
  "iness": 1239,
  "friend": 1240,
  "Ph": 1241,
  "room": 1242,
  "iversity": 1243,
  "water": 1244,
  "based": 1245,
  "cial": 1246,
  "ided": 1247,
  "uc": 1248,
  "around": 1249,
  "several": 1250,
  "bert": 1251,
  "success": 1252,
  "mus": 1253,
  "govern": 1254,
  "mil": 1255,
  "second": 1256,
  "ason": 1257,
  "flu": 1258,
  "vi": 1259,
  "won": 1260,
  "Wor": 1261,
  "beg": 1262,
  "ail": 1263,
  "power": 1264,
  "Apol": 1265,
  "ched": 1266,
  "Euro": 1267,
  "ref": 1268,
  "Car": 1269,
  "posed": 1270,
  "BC": 1271,
  "200": 1272,
  "wards": 1273,
  "omet": 1274,
  "ional": 1275,
  "gram": 1276,
  "ery": 1277,
  "ital": 1278,
  "ator": 1279,
  "ried": 1280,
  "British": 1281,
  "ement": 1282,
  "tell": 1283,
  "ks": 1284,
  "run": 1285,
  "lim": 1286,
  "descri": 1287,
  "ately": 1288,
  "acter": 1289,
  "Apollo": 1290,
  "vol": 1291,
  "rep": 1292,
  "After": 1293,
  "aut": 1294,
  "augh": 1295,
  "incre": 1296,
  "chool": 1297,
  "ric": 1298,
  "Em": 1299,
  "continu": 1300,
  "jor": 1301,
  "prom": 1302,
  "sat": 1303,
  "born": 1304,
  "di": 1305,
  "dro": 1306,
  "football": 1307,
  "Her": 1308,
  "using": 1309,
  "Europe": 1310,
  "Roman": 1311,
  "half": 1312,
  "trad": 1313,
  "ady": 1314,
  "ird": 1315,
  "ined": 1316,
  "lied": 1317,
  "home": 1318,
  "rian": 1319,
  "equ": 1320,
  "raft": 1321,
  "ains": 1322,
  "By": 1323,
  "resp": 1324,
  "contro": 1325,
  "father": 1326,
  "190": 1327,
  "wn": 1328,
  "ham": 1329,
  "door": 1330,
  "eyes": 1331,
  "tem": 1332,
  "politician": 1333,
  "bur": 1334,
  "looked": 1335,
  "public": 1336,
  "ulation": 1337,
  "fort": 1338,
  "ices": 1339,
  "lay": 1340,
  "del": 1341,
  "non": 1342,
  "gent": 1343,
  "gg": 1344,
  "struct": 1345,
  "thern": 1346,
  "arr": 1347,
  "mean": 1348,
  "uck": 1349,
  "However": 1350,
  "ured": 1351,
  "ps": 1352,
  "Pe": 1353,
  "Aug": 1354,
  "class": 1355,
  "example": 1356,
  "import": 1357,
  "organ": 1358,
  "few": 1359,
  "commun": 1360,
  "ste": 1361,
  "Ap": 1362,
  "omen": 1363,
  "start": 1364,
  "What": 1365,
  "writer": 1366,
  "abl": 1367,
  "chn": 1368,
  "ener": 1369,
  "King": 1370,
  "far": 1371,
  "August": 1372,
  "ont": 1373,
  "grow": 1374,
  "Arab": 1375,
  "happ": 1376,
  "ster": 1377,
  "ember": 1378,
  "position": 1379,
  "illion": 1380,
  "language": 1381,
  "mother": 1382,
  "care": 1383,
  "sil": 1384,
  "claim": 1385,
  "empt": 1386,
  "Sh": 1387,
  "ret": 1388,
  "ush": 1389,
  "want": 1390,
  "pain": 1391,
  "pur": 1392,
  "nal": 1393,
  "11": 1394,
  "Wil": 1395,
  "rece": 1396,
  "within": 1397,
  "short": 1398,
  "stit": 1399,
  "kill": 1400,
  "major": 1401,
  "South": 1402,
  "University": 1403,
  "atic": 1404,
  "period": 1405,
  "La": 1406,
  "wind": 1407,
  "ames": 1408,
  "family": 1409,
  "government": 1410,
  "need": 1411,
  "Me": 1412,
  "rad": 1413,
  "top": 1414,
  "hard": 1415,
  "formed": 1416,
  "certain": 1417,
  "van": 1418,
  "ets": 1419,
  "My": 1420,
  "ense": 1421,
  "exp": 1422,
  "establ": 1423,
  "having": 1424,
  "field": 1425,
  "heart": 1426,
  "ather": 1427,
  "ison": 1428,
  "hold": 1429,
  "cult": 1430,
  "national": 1431,
  "ze": 1432,
  "mom": 1433,
  "ases": 1434,
  "ox": 1435,
  "imes": 1436,
  "ences": 1437,
  "sent": 1438,
  "fun": 1439,
  "ctor": 1440,
  "adem": 1441,
  "ged": 1442,
  "ids": 1443,
  "each": 1444,
  "ified": 1445,
  "nothing": 1446,
  "strong": 1447,
  "anim": 1448,
  "test": 1449,
  "cut": 1450,
  "real": 1451,
  "ban": 1452,
  "Ge": 1453,
  "Then": 1454,
  "emp": 1455,
  "liam": 1456,
  "Ear": 1457,
  "always": 1458,
  "find": 1459,
  "osop": 1460,
  "ru": 1461,
  "AS": 1462,
  "asked": 1463,
  "ran": 1464,
  "Afr": 1465,
  "cus": 1466,
  "ably": 1467,
  "however": 1468,
  "ope": 1469,
  "World": 1470,
  "case": 1471,
  "country": 1472,
  "That": 1473,
  "Russ": 1474,
  "particular": 1475,
  "God": 1476,
  "itary": 1477,
  "ilosop": 1478,
  "ety": 1479,
  "refer": 1480,
  "ilar": 1481,
  "uary": 1482,
  "sum": 1483,
  "ribut": 1484,
  "larg": 1485,
  "craft": 1486,
  "els": 1487,
  "round": 1488,
  "key": 1489,
  "song": 1490,
  "Par": 1491,
  "shall": 1492,
  "ife": 1493,
  "histor": 1494,
  "modern": 1495,
  "These": 1496,
  "To": 1497,
  "going": 1498,
  "Scot": 1499,
  "iter": 1500,
  "given": 1501,
  "iver": 1502,
  "process": 1503,
  "Artagn": 1504,
  "Artagnan": 1505,
  "give": 1506,
  "ize": 1507,
  "conom": 1508,
  "une": 1509,
  "phys": 1510,
  "elt": 1511,
  "Canad": 1512,
  "general": 1513,
  "held": 1514,
  "attle": 1515,
  "include": 1516,
  "mind": 1517,
  "Alexander": 1518,
  "does": 1519,
  "expl": 1520,
  "gether": 1521,
  "human": 1522,
  "influ": 1523,
  "fell": 1524,
  "irl": 1525,
  "rather": 1526,
  "gn": 1527,
  "itions": 1528,
  "cell": 1529,
  "hor": 1530,
  "ives": 1531,
  "nat": 1532,
  "189": 1533,
  "0s": 1534,
  "hol": 1535,
  "US": 1536,
  "ground": 1537,
  "times": 1538,
  "All": 1539,
  "aken": 1540,
  "film": 1541,
  "dri": 1542,
  "Ital": 1543,
  "ination": 1544,
  "Ag": 1545,
  "late": 1546,
  "blo": 1547,
  "ization": 1548,
  "due": 1549,
  "character": 1550,
  "aps": 1551,
  "thod": 1552,
  "seemed": 1553,
  "ready": 1554,
  "move": 1555,
  "fire": 1556,
  "bes": 1557,
  "kind": 1558,
  "moment": 1559,
  "Australian": 1560,
  "Man": 1561,
  "sequ": 1562,
  "ration": 1563,
  "Some": 1564,
  "words": 1565,
  "One": 1566,
  "atter": 1567,
  "considered": 1568,
  "ones": 1569,
  "rele": 1570,
  "wa": 1571,
  "things": 1572,
  "zer": 1573,
  "Po": 1574,
  "feat": 1575,
  "alth": 1576,
  "Sch": 1577,
  "open": 1578,
  "ger": 1579,
  "ai": 1580,
  "You": 1581,
  "Ex": 1582,
  "action": 1583,
  "sure": 1584,
  "anal": 1585,
  "Well": 1586,
  "div": 1587,
  "fac": 1588,
  "cum": 1589,
  "graph": 1590,
  "tom": 1591,
  "techn": 1592,
  "together": 1593,
  "186": 1594,
  "aged": 1595,
  "school": 1596,
  "yet": 1597,
  "build": 1598,
  "fur": 1599,
  "program": 1600,
  "Cl": 1601,
  "ither": 1602,
  "Miss": 1603,
  "astr": 1604,
  "Jew": 1605,
  "dra": 1606,
  "eder": 1607,
  "hour": 1608,
  "town": 1609,
  "covered": 1610,
  "ned": 1611,
  "Char": 1612,
  "ards": 1613,
  "fully": 1614,
  "stat": 1615,
  "aining": 1616,
  "quite": 1617,
  "told": 1618,
  "ping": 1619,
  "possible": 1620,
  "mission": 1621,
  "aid": 1622,
  "ris": 1623,
  "fall": 1624,
  "object": 1625,
  "yl": 1626,
  "love": 1627,
  "next": 1628,
  "clear": 1629,
  "wide": 1630,
  "something": 1631,
  "prof": 1632,
  "actor": 1633,
  "ches": 1634,
  "business": 1635,
  "heard": 1636,
  "sold": 1637,
  "area": 1638,
  "ff": 1639,
  "others": 1640,
  "quest": 1641,
  "Ne": 1642,
  "develop": 1643,
  "coming": 1644,
  "dress": 1645,
  "five": 1646,
  "heav": 1647,
  "camp": 1648,
  "days": 1649,
  "iled": 1650,
  "May": 1651,
  "ometimes": 1652,
  "chang": 1653,
  "ively": 1654,
  "dou": 1655,
  "similar": 1656,
  "cir": 1657,
  "loc": 1658,
  "record": 1659,
  "sal": 1660,
  "sw": 1661,
  "25": 1662,
  "21": 1663,
  "bel": 1664,
  "mber": 1665,
  "cried": 1666,
  "following": 1667,
  "spo": 1668,
  "idence": 1669,
  "proper": 1670,
  "ilt": 1671,
  "ove": 1672,
  "close": 1673,
  "spir": 1674,
  "thos": 1675,
  "band": 1676,
  "comb": 1677,
  "ths": 1678,
  "tot": 1679,
  "loy": 1680,
  "hands": 1681,
  "report": 1682,
  "vir": 1683,
  "become": 1684,
  "akes": 1685,
  "keep": 1686,
  "ability": 1687,
  "depend": 1688,
  "sl": 1689,
  "change": 1690,
  "mid": 1691,
  "term": 1692,
  "sou": 1693,
  "enough": 1694,
  "Coun": 1695,
  "ken": 1696,
  "ivil": 1697,
  "tre": 1698,
  "woman": 1699,
  "Tom": 1700,
  "history": 1701,
  "North": 1702,
  "cul": 1703,
  "ient": 1704,
  "occur": 1705,
  "series": 1706,
  "former": 1707,
  "crit": 1708,
  "acy": 1709,
  "express": 1710,
  "pose": 1711,
  "Mrs": 1712,
  "apan": 1713,
  "road": 1714,
  "win": 1715,
  "Ed": 1716,
  "Pl": 1717,
  "almost": 1718,
  "thus": 1719,
  "National": 1720,
  "Acc": 1721,
  "ues": 1722,
  "million": 1723,
  "jour": 1724,
  "philosop": 1725,
  "says": 1726,
  "Mil": 1727,
  "important": 1728,
  "exist": 1729,
  "Co": 1730,
  "once": 1731,
  "dest": 1732,
  "prote": 1733,
  "reach": 1734,
  "Pol": 1735,
  "felt": 1736,
  "works": 1737,
  "Sy": 1738,
  "ony": 1739,
  "lands": 1740,
  "rew": 1741,
  "dev": 1742,
  "rote": 1743,
  "Li": 1744,
  "least": 1745,
  "interest": 1746,
  "defin": 1747,
  "ially": 1748,
  "different": 1749,
  "offic": 1750,
  "whe": 1751,
  "Per": 1752,
  "dy": 1753,
  "name": 1754,
  "Min": 1755,
  "full": 1756,
  "sym": 1757,
  "space": 1758,
  "ov": 1759,
  "activ": 1760,
  "pract": 1761,
  "walk": 1762,
  "Japan": 1763,
  "ances": 1764,
  "appear": 1765,
  "best": 1766,
  "white": 1767,
  "Ac": 1768,
  "lack": 1769,
  "188": 1770,
  "30": 1771,
  "continued": 1772,
  "served": 1773,
  "ondon": 1774,
  "pped": 1775,
  "dren": 1776,
  "formation": 1777,
  "tradition": 1778,
  "Br": 1779,
  "eas": 1780,
  "London": 1781,
  "sle": 1782,
  "taken": 1783,
  "Church": 1784,
  "plic": 1785,
  "singer": 1786,
  "conf": 1787,
  "With": 1788,
  "22": 1789,
  "za": 1790,
  "answ": 1791,
  "wrote": 1792,
  "free": 1793,
  "ler": 1794,
  "estern": 1795,
  "ildren": 1796,
  "anc": 1797,
  "various": 1798,
  "list": 1799,
  "military": 1800,
  "black": 1801,
  "ama": 1802,
  "rodu": 1803,
  "boy": 1804,
  "eved": 1805,
  "wood": 1806,
  "gentle": 1807,
  "sof": 1808,
  "published": 1809,
  "ague": 1810,
  "myself": 1811,
  "six": 1812,
  "company": 1813,
  "roy": 1814,
  "def": 1815,
  "Cent": 1816,
  "footballer": 1817,
  "Bar": 1818,
  "ggest": 1819,
  "itch": 1820,
  "Sw": 1821,
  "ork": 1822,
  "suggest": 1823,
  "ality": 1824,
  "Geor": 1825,
  "represent": 1826,
  "talk": 1827,
  "women": 1828,
  "medi": 1829,
  "although": 1830,
  "making": 1831,
  "187": 1832,
  "istic": 1833,
  "Ma": 1834,
  "ali": 1835,
  "written": 1836,
  "atom": 1837,
  "placed": 1838,
  "sometimes": 1839,
  "atch": 1840,
  "gress": 1841,
  "whom": 1842,
  "product": 1843,
  "imp": 1844,
  "ples": 1845,
  "relig": 1846,
  "III": 1847,
  "bas": 1848,
  "soon": 1849,
  "Mary": 1850,
  "attack": 1851,
  "educ": 1852,
  "March": 1853,
  "rown": 1854,
  "suf": 1855,
  "eth": 1856,
  "girl": 1857,
  "named": 1858,
  "ats": 1859,
  "mot": 1860,
  "ney": 1861,
  "bar": 1862,
  "died": 1863,
  "bal": 1864,
  "attempt": 1865,
  "Mus": 1866,
  "states": 1867,
  "har": 1868,
  "oud": 1869,
  "bor": 1870,
  "rap": 1871,
  "ength": 1872,
  "knew": 1873,
  "hind": 1874,
  "Med": 1875,
  "appeared": 1876,
  "step": 1877,
  "Accord": 1878,
  "cted": 1879,
  "accoun": 1880,
  "William": 1881,
  "church": 1882,
  "brought": 1883,
  "mass": 1884,
  "introdu": 1885,
  "stor": 1886,
  "returned": 1887,
  "AC": 1888,
  "inste": 1889,
  "ival": 1890,
  "Ant": 1891,
  "addition": 1892,
  "vision": 1893,
  "Ste": 1894,
  "astron": 1895,
  "begin": 1896,
  "mor": 1897,
  "sem": 1898,
  "Christian": 1899,
  "compan": 1900,
  "sett": 1901,
  "looking": 1902,
  "pret": 1903,
  "Dav": 1904,
  "moved": 1905,
  "York": 1906,
  "replied": 1907,
  "fair": 1908,
  "mis": 1909,
  "gave": 1910,
  "aring": 1911,
  "According": 1912,
  "built": 1913,
  "ceed": 1914,
  "members": 1915,
  "population": 1916,
  "Hen": 1917,
  "Gu": 1918,
  "hun": 1919,
  "developed": 1920,
  "towards": 1921,
  "across": 1922,
  "cially": 1923,
  "oney": 1924,
  "Do": 1925,
  "During": 1926,
  "passed": 1927,
  "brother": 1928,
  "ites": 1929,
  "tro": 1930,
  "ological": 1931,
  "tele": 1932,
  "typ": 1933,
  "Ang": 1934,
  "sour": 1935,
  "cogn": 1936,
  "table": 1937,
  "followed": 1938,
  "eve": 1939,
  "sch": 1940,
  "children": 1941,
  "popular": 1942,
  "thes": 1943,
  "separ": 1944,
  "ering": 1945,
  "forms": 1946,
  "level": 1947,
  "dog": 1948,
  "study": 1949,
  "associ": 1950,
  "ending": 1951,
  "host": 1952,
  "Phil": 1953,
  "conne": 1954,
  "speak": 1955,
  "ata": 1956,
  "control": 1957,
  "third": 1958,
  "AP": 1959,
  "god": 1960,
  "stant": 1961,
  "tra": 1962,
  "accord": 1963,
  "curr": 1964,
  "prim": 1965,
  "usually": 1966,
  "course": 1967,
  "pot": 1968,
  "AD": 1969,
  "lost": 1970,
  "ford": 1971,
  "Har": 1972,
  "Pres": 1973,
  "event": 1974,
  "hon": 1975,
  "ivid": 1976,
  "termin": 1977,
  "invol": 1978,
  "rul": 1979,
  "single": 1980,
  "lam": 1981,
  "decl": 1982,
  "Lo": 1983,
  "here": 1984,
  "natural": 1985,
  "produced": 1986,
  "compu": 1987,
  "aud": 1988,
  "production": 1989,
  "dark": 1990,
  "scre": 1991,
  "asure": 1992,
  "development": 1993,
  "ising": 1994,
  "econom": 1995,
  "ief": 1996,
  "aves": 1997,
  "base": 1998,
  "local": 1999,
  "story": 2000,
  "aint": 2001,
  "Lord": 2002,
  "Ju": 2003,
  "anish": 2004,
  "ential": 2005,
  "pen": 2006,
  "tress": 2007,
  "selves": 2008,
  "Jan": 2009,
  "bi": 2010,
  "whose": 2011,
  "inci": 2012,
  "ino": 2013,
  "lear": 2014,
  "ille": 2015,
  "sty": 2016,
  "Athen": 2017,
  "behind": 2018,
  "academ": 2019,
  "Emp": 2020,
  "cast": 2021,
  "ots": 2022,
  "sho": 2023,
  "ston": 2024,
  "whole": 2025,
  "cu": 2026,
  "ption": 2027,
  "contr": 2028,
  "ari": 2029,
  "cret": 2030,
  "Hist": 2031,
  "flow": 2032,
  "stre": 2033,
  "anger": 2034,
  "species": 2035,
  "Russian": 2036,
  "espe": 2037,
  "dead": 2038,
  "Day": 2039,
  "xim": 2040,
  "ificant": 2041,
  "letter": 2042,
  "Lu": 2043,
  "itted": 2044,
  "subject": 2045,
  "evol": 2046,
  "force": 2047,
  "proble": 2048,
  "voice": 2049,
  "Canadian": 2050,
  "novel": 2051,
  "Yes": 2052,
  "comes": 2053,
  "mult": 2054,
  "established": 2055,
  "included": 2056,
  "received": 2057,
  "further": 2058,
  "haps": 2059,
  "cop": 2060,
  "sed": 2061,
  "24": 2062,
  "50": 2063,
  "scri": 2064,
  "post": 2065,
  "mist": 2066,
  "theory": 2067,
  "aul": 2068,
  "anti": 2069,
  "orning": 2070,
  "iety": 2071,
  "means": 2072,
  "Arch": 2073,
  "abor": 2074,
  "plan": 2075,
  "above": 2076,
  "sun": 2077,
  "spr": 2078,
  "Intern": 2079,
  "sor": 2080,
  "sound": 2081,
  "Other": 2082,
  "ek": 2083,
  "ision": 2084,
  "lock": 2085,
  "quar": 2086,
  "Apple": 2087,
  "iment": 2088,
  "Act": 2089,
  "iction": 2090,
  "sea": 2091,
  "Air": 2092,
  "Mon": 2093,
  "ales": 2094,
  "ops": 2095,
  "experi": 2096,
  "itude": 2097,
  "board": 2098,
  "significant": 2099,
  "expect": 2100,
  "anything": 2101,
  "alone": 2102,
  "respect": 2103,
  "ago": 2104,
  "cience": 2105,
  "ER": 2106,
  "Egy": 2107,
  "mater": 2108,
  "Empire": 2109,
  "herself": 2110,
  "wife": 2111,
  "method": 2112,
  "type": 2113,
  "adv": 2114,
  "olic": 2115,
  "bra": 2116,
  "themat": 2117,
  "morning": 2118,
  "original": 2119,
  "yer": 2120,
  "stood": 2121,
  "AM": 2122,
  "23": 2123,
  "Scott": 2124,
  "concer": 2125,
  "ividual": 2126,
  "ring": 2127,
  "ull": 2128,
  "ren": 2129,
  "prev": 2130,
  "Egypt": 2131,
  "thro": 2132,
  "udd": 2133,
  "Earth": 2134,
  "largest": 2135,
  "mad": 2136,
  "Apr": 2137,
  "ention": 2138,
  "mun": 2139,
  "tries": 2140,
  "big": 2141,
  "music": 2142,
  "cry": 2143,
  "iting": 2144,
  "ored": 2145,
  "window": 2146,
  "break": 2147,
  "west": 2148,
  "African": 2149,
  "Union": 2150,
  "engine": 2151,
  "itive": 2152,
  "Hol": 2153,
  "draw": 2154,
  "acc": 2155,
  "cto": 2156,
  "dam": 2157,
  "pha": 2158,
  "uel": 2159,
  "ency": 2160,
  "standing": 2161,
  "arian": 2162,
  "init": 2163,
  "described": 2164,
  "especially": 2165,
  "rock": 2166,
  "ria": 2167,
  "north": 2168,
  "dem": 2169,
  "White": 2170,
  "independ": 2171,
  "ancient": 2172,
  "groups": 2173,
  "itself": 2174,
  "Ber": 2175,
  "esh": 2176,
  "agre": 2177,
  "deed": 2178,
  "AT": 2179,
  "April": 2180,
  "academic": 2181,
  "court": 2182,
  "Sept": 2183,
  "indust": 2184,
  "service": 2185,
  "individual": 2186,
  "40": 2187,
  "Eli": 2188,
  "accept": 2189,
  "bey": 2190,
  "fav": 2191,
  "ories": 2192,
  "offer": 2193,
  "Italian": 2194,
  "except": 2195,
  "jud": 2196,
  "fast": 2197,
  "tic": 2198,
  "whether": 2199,
  "iously": 2200,
  "Ser": 2201,
  "cil": 2202,
  "vert": 2203,
  "bot": 2204,
  "recogn": 2205,
  "ming": 2206,
  "swe": 2207,
  "West": 2208,
  "Tur": 2209,
  "asing": 2210,
  "inc": 2211,
  "added": 2212,
  "bs": 2213,
  "cannot": 2214,
  "enced": 2215,
  "France": 2216,
  "While": 2217,
  "laun": 2218,
  "chan": 2219,
  "resear": 2220,
  "thy": 2221,
  "compos": 2222,
  "already": 2223,
  "flo": 2224,
  "believe": 2225,
  "command": 2226,
  "poet": 2227,
  "matter": 2228,
  "played": 2229,
  "complete": 2230,
  "European": 2231,
  "viol": 2232,
  "rich": 2233,
  "daugh": 2234,
  "net": 2235,
  "moun": 2236,
  "pie": 2237,
  "remained": 2238,
  "actress": 2239,
  "Mic": 2240,
  "ror": 2241,
  "mir": 2242,
  "trave": 2243,
  "Henry": 2244,
  "south": 2245,
  "September": 2246,
  "lection": 2247,
  "Indian": 2248,
  "related": 2249,
  "systems": 2250,
  "ape": 2251,
  "flight": 2252,
  "hear": 2253,
  "Dor": 2254,
  "bir": 2255,
  "child": 2256,
  "left": 2257,
  "scient": 2258,
  "capital": 2259,
  "founded": 2260,
  "front": 2261,
  "role": 2262,
  "Now": 2263,
  "princi": 2264,
  "Armen": 2265,
  "languages": 2266,
  "redu": 2267,
  "America": 2268,
  "idge": 2269,
  "research": 2270,
  "opened": 2271,
  "material": 2272,
  "dred": 2273,
  "quick": 2274,
  "utes": 2275,
  "Cath": 2276,
  "sex": 2277,
  "Although": 2278,
  "Mart": 2279,
  "2014": 2280,
  "antic": 2281,
  "game": 2282,
  "liter": 2283,
  "forces": 2284,
  "created": 2285,
  "istan": 2286,
  "function": 2287,
  "mit": 2288,
  "Don": 2289,
  "ote": 2290,
  "pap": 2291,
  "wall": 2292,
  "ald": 2293,
  "food": 2294,
  "hab": 2295,
  "idea": 2296,
  "carri": 2297,
  "apt": 2298,
  "ounced": 2299,
  "inct": 2300,
  "money": 2301,
  "mal": 2302,
  "treat": 2303,
  "syn": 2304,
  "liver": 2305,
  "2013": 2306,
  "joy": 2307,
  "ays": 2308,
  "beaut": 2309,
  "social": 2310,
  "beth": 2311,
  "countries": 2312,
  "necess": 2313,
  "David": 2314,
  "ishing": 2315,
  "mathemat": 2316,
  "July": 2317,
  "nature": 2318,
  "lin": 2319,
  "Oh": 2320,
  "2012": 2321,
  "ake": 2322,
  "pred": 2323,
  "hus": 2324,
  "past": 2325,
  "believed": 2326,
  "condu": 2327,
  "priv": 2328,
  "true": 2329,
  "Lat": 2330,
  "civil": 2331,
  "diffic": 2332,
  "Why": 2333,
  "ior": 2334,
  "ert": 2335,
  "fig": 2336,
  "jan": 2337,
  "Fe": 2338,
  "rate": 2339,
  "Cor": 2340,
  "difficult": 2341,
  "entire": 2342,
  "mach": 2343,
  "friends": 2344,
  "themselves": 2345,
  "lying": 2346,
  "manag": 2347,
  "lad": 2348,
  "Eliza": 2349,
  "schol": 2350,
  "sen": 2351,
  "bon": 2352,
  "uses": 2353,
  "lor": 2354,
  "June": 2355,
  "consist": 2356,
  "instead": 2357,
  "neg": 2358,
  "ify": 2359,
  "released": 2360,
  "Octo": 2361,
  "reme": 2362,
  "river": 2363,
  "October": 2364,
  "employ": 2365,
  "Mor": 2366,
  "evidence": 2367,
  "journal": 2368,
  "nu": 2369,
  "AN": 2370,
  "January": 2371,
  "Sov": 2372,
  "aircraft": 2373,
  "mag": 2374,
  "iers": 2375,
  "model": 2376,
  "26": 2377,
  "songwriter": 2378,
  "temper": 2379,
  "ental": 2380,
  "Nove": 2381,
  "Soviet": 2382,
  "kept": 2383,
  "itect": 2384,
  "meaning": 2385,
  "Mac": 2386,
  "anch": 2387,
  "approach": 2388,
  "party": 2389,
  "Athos": 2390,
  "minist": 2391,
  "November": 2392,
  "generally": 2393,
  "allowed": 2394,
  "fight": 2395,
  "Laur": 2396,
  "Spanish": 2397,
  "berg": 2398,
  "exper": 2399,
  "started": 2400,
  "Dece": 2401,
  "Port": 2402,
  "relation": 2403,
  "according": 2404,
  "tail": 2405,
  "December": 2406,
  "Thom": 2407,
  "cing": 2408,
  "territ": 2409,
  "Dut": 2410,
  "ux": 2411,
  "lie": 2412,
  "avail": 2413,
  "project": 2414,
  "respond": 2415,
  "Rep": 2416,
  "dden": 2417,
  "gun": 2418,
  "Su": 2419,
  "likely": 2420,
  "peror": 2421,
  "perhaps": 2422,
  "Arabic": 2423,
  "bell": 2424,
  "ously": 2425,
  "parts": 2426,
  "gar": 2427,
  "gentleman": 2428,
  "rot": 2429,
  "sleep": 2430,
  "Alban": 2431,
  "yn": 2432,
  "From": 2433,
  "killed": 2434,
  "prison": 2435,
  "producer": 2436,
  "sister": 2437,
  "hur": 2438,
  "dle": 2439,
  "leave": 2440,
  "Des": 2441,
  "hydro": 2442,
  "log": 2443,
  "pal": 2444,
  "aver": 2445,
  "prob": 2446,
  "resist": 2447,
  "sudden": 2448,
  "International": 2449,
  "screen": 2450,
  "George": 2451,
  "struction": 2452,
  "Elizabeth": 2453,
  "Qu": 2454,
  "arri": 2455,
  "appoint": 2456,
  "Afgh": 2457,
  "lun": 2458,
  "official": 2459,
  "range": 2460,
  "igher": 2461,
  "special": 2462,
  "computer": 2463,
  "active": 2464,
  "claimed": 2465,
  "omin": 2466,
  "hip": 2467,
  "acqu": 2468,
  "iding": 2469,
  "27": 2470,
  "James": 2471,
  "didn": 2472,
  "ios": 2473,
  "ixed": 2474,
  "Oliver": 2475,
  "Cam": 2476,
  "doub": 2477,
  "profess": 2478,
  "Bra": 2479,
  "ctions": 2480,
  "ded": 2481,
  "blood": 2482,
  "market": 2483,
  "Pat": 2484,
  "icle": 2485,
  "vict": 2486,
  "ben": 2487,
  "mouth": 2488,
  "grad": 2489,
  "useum": 2490,
  "wonder": 2491,
  "2007": 2492,
  "Dutch": 2493,
  "army": 2494,
  "oto": 2495,
  "spect": 2496,
  "ification": 2497,
  "President": 2498,
  "Australia": 2499,
  "feet": 2500,
  "orbit": 2501,
  "actions": 2502,
  "books": 2503,
  "ender": 2504,
  "tried": 2505,
  "energy": 2506,
  "longer": 2507,
  "India": 2508,
  "lected": 2509,
  "rup": 2510,
  "ams": 2511,
  "building": 2512,
  "chief": 2513,
  "master": 2514,
  "Great": 2515,
  "bow": 2516,
  "rain": 2517,
  "mur": 2518,
  "185": 2519,
  "arily": 2520,
  "data": 2521,
  "taking": 2522,
  "Paul": 2523,
  "ara": 2524,
  "Republ": 2525,
  "box": 2526,
  "pread": 2527,
  "aving": 2528,
  "bled": 2529,
  "frequ": 2530,
  "ties": 2531,
  "Japanese": 2532,
  "TH": 2533,
  "higher": 2534,
  "mes": 2535,
  "Of": 2536,
  "deep": 2537,
  "graphy": 2538,
  "broad": 2539,
  "sus": 2540,
  "ioned": 2541,
  "gard": 2542,
  "2010": 2543,
  "City": 2544,
  "cost": 2545,
  "San": 2546,
  "ends": 2547,
  "lies": 2548,
  "28": 2549,
  "final": 2550,
  "squ": 2551,
  "gas": 2552,
  "mic": 2553,
  "Afghan": 2554,
  "style": 2555,
  "surface": 2556,
  "Lou": 2557,
  "2015": 2558,
  "Battle": 2559,
  "pp": 2560,
  "2008": 2561,
  "Hung": 2562,
  "writing": 2563,
  "outside": 2564,
  "magn": 2565,
  "particularly": 2566,
  "colon": 2567,
  "ght": 2568,
  "gold": 2569,
  "hope": 2570,
  "length": 2571,
  "path": 2572,
  "Comp": 2573,
  "wo": 2574,
  "lines": 2575,
  "indic": 2576,
  "Gener": 2577,
  "Mc": 2578,
  "terms": 2579,
  "bour": 2580,
  "vill": 2581,
  "ye": 2582,
  "Not": 2583,
  "aries": 2584,
  "ators": 2585,
  "origin": 2586,
  "transl": 2587,
  "oid": 2588,
  "bol": 2589,
  "Catholic": 2590,
  "burn": 2591,
  "determin": 2592,
  "hours": 2593,
  "text": 2594,
  "crow": 2595,
  "ech": 2596,
  "fle": 2597,
  "Budd": 2598,
  "daughter": 2599,
  "resol": 2600,
  "yal": 2601,
  "ledge": 2602,
  "discovered": 2603,
  "capt": 2604,
  "era": 2605,
  "names": 2606,
  "hundred": 2607,
  "Many": 2608,
  "ands": 2609,
  "architect": 2610,
  "exe": 2611,
  "bad": 2612,
  "living": 2613,
  "Pri": 2614,
  "assist": 2615,
  "compet": 2616,
  "complex": 2617,
  "Latin": 2618,
  "Part": 2619,
  "areas": 2620,
  "health": 2621,
  "season": 2622,
  "wanted": 2623,
  "Charles": 2624,
  "hair": 2625,
  "sens": 2626,
  "ordin": 2627,
  "East": 2628,
  "married": 2629,
  "rights": 2630,
  "2011": 2631,
  "Jim": 2632,
  "beginning": 2633,
  "multi": 2634,
  "2005": 2635,
  "throughout": 2636,
  "lived": 2637,
  "wr": 2638,
  "State": 2639,
  "cit": 2640,
  "2009": 2641,
  "entered": 2642,
  "movement": 2643,
  "pet": 2644,
  "wise": 2645,
  "total": 2646,
  "Sun": 2647,
  "2000": 2648,
  "Pal": 2649,
  "coach": 2650,
  "2006": 2651,
  "bank": 2652,
  "183": 2653,
  "chair": 2654,
  "introduced": 2655,
  "designed": 2656,
  "thous": 2657,
  "deal": 2658,
  "earth": 2659,
  "ington": 2660,
  "tered": 2661,
  "tit": 2662,
  "pair": 2663,
  "saur": 2664,
  "Dr": 2665,
  "Atl": 2666,
  "available": 2667,
  "chem": 2668,
  "Bur": 2669,
  "ider": 2670,
  "manner": 2671,
  "nearly": 2672,
  "spirit": 2673,
  "ume": 2674,
  "usion": 2675,
  "CH": 2676,
  "na": 2677,
  "occup": 2678,
  "influence": 2679,
  "acid": 2680,
  "ique": 2681,
  "cross": 2682,
  "gor": 2683,
  "gone": 2684,
  "elements": 2685,
  "Gre": 2686,
  "therefore": 2687,
  "ented": 2688,
  "relative": 2689,
  "sky": 2690,
  "bai": 2691,
  "invest": 2692,
  "stone": 2693,
  "agon": 2694,
  "carried": 2695,
  "evolution": 2696,
  "iation": 2697,
  "prop": 2698,
  "ounds": 2699,
  "Azer": 2700,
  "constit": 2701,
  "television": 2702,
  "Jack": 2703,
  "60": 2704,
  "80": 2705,
  "IV": 2706,
  "Islam": 2707,
  "iot": 2708,
  "rac": 2709,
  "pic": 2710,
  "adop": 2711,
  "20th": 2712,
  "Ben": 2713,
  "lady": 2714,
  "AR": 2715,
  "Te": 2716,
  "distr": 2717,
  "sort": 2718,
  "ges": 2719,
  "hom": 2720,
  "itting": 2721,
  "script": 2722,
  "bring": 2723,
  "Ash": 2724,
  "ana": 2725,
  "Sm": 2726,
  "Por": 2727,
  "Western": 2728,
  "immedi": 2729,
  "Sou": 2730,
  "antib": 2731,
  "glo": 2732,
  "why": 2733,
  "address": 2734,
  "answered": 2735,
  "information": 2736,
  "remember": 2737,
  "surv": 2738,
  "Hel": 2739,
  "months": 2740,
  "satis": 2741,
  "astronom": 2742,
  "effects": 2743,
  "current": 2744,
  "minutes": 2745,
  "associated": 2746,
  "trou": 2747,
  "affect": 2748,
  "pite": 2749,
  "Azerbai": 2750,
  "Azerbaijan": 2751,
  "ardinal": 2752,
  "acted": 2753,
  "else": 2754,
  "estim": 2755,
  "fish": 2756,
  "star": 2757,
  "ibility": 2758,
  "tens": 2759,
  "prevent": 2760,
  "Meg": 2761,
  "caused": 2762,
  "concept": 2763,
  "secret": 2764,
  "standard": 2765,
  "sych": 2766,
  "Lin": 2767,
  "iles": 2768,
  "ships": 2769,
  "Paris": 2770,
  "fan": 2771,
  "reached": 2772,
  "regular": 2773,
  "watch": 2774,
  "cand": 2775,
  "club": 2776,
  "rough": 2777,
  "Du": 2778,
  "recent": 2779,
  "reported": 2780,
  "seven": 2781,
  "indeed": 2782,
  "lier": 2783,
  "live": 2784,
  "central": 2785,
  "contribut": 2786,
  "ram": 2787,
  "Ah": 2788,
  "size": 2789,
  "sn": 2790,
  "Book": 2791,
  "Most": 2792,
  "Res": 2793,
  "changed": 2794,
  "island": 2795,
  "Bel": 2796,
  "hop": 2797,
  "iful": 2798,
  "aff": 2799,
  "numer": 2800,
  "occas": 2801,
  "question": 2802,
  "sue": 2803,
  "prepar": 2804,
  "Amy": 2805,
  "Kingdom": 2806,
  "happy": 2807,
  "disc": 2808,
  "fem": 2809,
  "fund": 2810,
  "located": 2811,
  "atory": 2812,
  "impro": 2813,
  "features": 2814,
  "fellow": 2815,
  "paper": 2816,
  "Fir": 2817,
  "possess": 2818,
  "ging": 2819,
  "pay": 2820,
  "2017": 2821,
  "Sal": 2822,
  "ona": 2823,
  "cases": 2824,
  "composer": 2825,
  "critic": 2826,
  "ula": 2827,
  "Alexand": 2828,
  "coast": 2829,
  "Spe": 2830,
  "numbers": 2831,
  "Africa": 2832,
  "inte": 2833,
  "sense": 2834,
  "suffer": 2835,
  "tour": 2836,
  "29": 2837,
  "concl": 2838,
  "din": 2839,
  "Army": 2840,
  "Rich": 2841,
  "icles": 2842,
  "latter": 2843,
  "ieur": 2844,
  "lawyer": 2845,
  "osp": 2846,
  "Pers": 2847,
  "destroy": 2848,
  "stra": 2849,
  "Since": 2850,
  "communic": 2851,
  "journalist": 2852,
  "member": 2853,
  "crew": 2854,
  "viron": 2855,
  "19th": 2856,
  "Black": 2857,
  "Cour": 2858,
  "Ze": 2859,
  "enter": 2860,
  "tained": 2861,
  "lunar": 2862,
  "ument": 2863,
  "carry": 2864,
  "2001": 2865,
  "Im": 2866,
  "die": 2867,
  "access": 2868,
  "rom": 2869,
  "etic": 2870,
  "El": 2871,
  "coll": 2872,
  "increased": 2873,
  "international": 2874,
  "oil": 2875,
  "Sha": 2876,
  "anx": 2877,
  "amed": 2878,
  "referred": 2879,
  "strange": 2880,
  "fut": 2881,
  "gin": 2882,
  "Febr": 2883,
  "amoun": 2884,
  "office": 2885,
  "soul": 2886,
  "Aj": 2887,
  "economic": 2888,
  "reed": 2889,
  "roll": 2890,
  "February": 2891,
  "everything": 2892,
  "leading": 2893,
  "Chin": 2894,
  "Robert": 2895,
  "events": 2896,
  "Moon": 2897,
  "doubt": 2898,
  "polic": 2899,
  "corn": 2900,
  "greater": 2901,
  "ills": 2902,
  "Mid": 2903,
  "gian": 2904,
  "required": 2905,
  "birth": 2906,
  "sight": 2907,
  "astern": 2908,
  "heavy": 2909,
  "distance": 2910,
  "ilities": 2911,
  "Dem": 2912,
  "uth": 2913,
  "Ho": 2914,
  "ule": 2915,
  "Aber": 2916,
  "ference": 2917,
  "cat": 2918,
  "pan": 2919,
  "saying": 2920,
  "AI": 2921,
  "Ill": 2922,
  "alb": 2923,
  "glass": 2924,
  "eye": 2925,
  "cold": 2926,
  "speed": 2927,
  "title": 2928,
  "Hall": 2929,
  "remark": 2930,
  "specific": 2931,
  "aur": 2932,
  "approxim": 2933,
  "ayed": 2934,
  "dig": 2935,
  "itor": 2936,
  "hib": 2937,
  "General": 2938,
  "hot": 2939,
  "amber": 2940,
  "below": 2941,
  "compl": 2942,
  "ideo": 2943,
  "mechan": 2944,
  "177": 2945,
  "Thomas": 2946,
  "Press": 2947,
  "makes": 2948,
  "ysis": 2949,
  "Asia": 2950,
  "Atari": 2951,
  "Here": 2952,
  "ST": 2953,
  "burg": 2954,
  "Go": 2955,
  "olf": 2956,
  "spoke": 2957,
  "Germany": 2958,
  "ports": 2959,
  "soft": 2960,
  "closed": 2961,
  "hood": 2962,
  "nel": 2963,
  "traditional": 2964,
  "letters": 2965,
  "working": 2966,
  "really": 2967,
  "ued": 2968,
  "value": 2969,
  "phen": 2970,
  "revol": 2971,
  "Peter": 2972,
  "source": 2973,
  "ushed": 2974,
  "2016": 2975,
  "emer": 2976,
  "pi": 2977,
  "construction": 2978,
  "umin": 2979,
  "Fol": 2980,
  "Milady": 2981,
  "probably": 2982,
  "supp": 2983,
  "treatment": 2984,
  "History": 2985,
  "Minister": 2986,
  "River": 2987,
  "mn": 2988,
  "tax": 2989,
  "cro": 2990,
  "docum": 2991,
  "expected": 2992,
  "green": 2993,
  "stri": 2994,
  "provided": 2995,
  "Chinese": 2996,
  "lic": 2997,
  "Ach": 2998,
  "Fin": 2999,
  "murder": 3000,
  "super": 3001,
  "orders": 3002,
  "bly": 3003,
  "iling": 3004,
  "House": 3005,
  "acts": 3006,
  "culture": 3007,
  "rank": 3008,
  "stopped": 3009,
  "2004": 3010,
  "Philip": 3011,
  "ners": 3012,
  "cohol": 3013,
  "ses": 3014,
  "Americans": 3015,
  "veh": 3016,
  "Royal": 3017,
  "campa": 3018,
  "campaign": 3019,
  "produce": 3020,
  "2020": 3021,
  "escap": 3022,
  "quiet": 3023,
  "smo": 3024,
  "First": 3025,
  "Mod": 3026,
  "eling": 3027,
  "famil": 3028,
  "hous": 3029,
  "ises": 3030,
  "science": 3031,
  "trade": 3032,
  "uries": 3033,
  "Ama": 3034,
  "Mal": 3035,
  "aded": 3036,
  "announced": 3037,
  "inj": 3038,
  "Scottish": 3039,
  "Vol": 3040,
  "dim": 3041,
  "rid": 3042,
  "running": 3043,
  "han": 3044,
  "Sam": 3045,
  "structure": 3046,
  "vic": 3047,
  "vey": 3048,
  "Dar": 3049,
  "wish": 3050,
  "ishment": 3051,
  "observed": 3052,
  "utions": 3053,
  "Academ": 3054,
  "brary": 3055,
  "joined": 3056,
  "drew": 3057,
  "lege": 3058,
  "surpr": 3059,
  "future": 3060,
  "medic": 3061,
  "poly": 3062,
  "plant": 3063,
  "tware": 3064,
  "necessary": 3065,
  "remains": 3066,
  "stop": 3067,
  "worked": 3068,
  "administ": 3069,
  "forced": 3070,
  "grand": 3071,
  "aled": 3072,
  "applic": 3073,
  "lip": 3074,
  "private": 3075,
  "Let": 3076,
  "larger": 3077,
  "leader": 3078,
  "repe": 3079,
  "trees": 3080,
  "president": 3081,
  "sac": 3082,
  "ulated": 3083,
  "twent": 3084,
  "2018": 3085,
  "Aris": 3086,
  "Mer": 3087,
  "ico": 3088,
  "grew": 3089,
  "respons": 3090,
  "Ir": 3091,
  "Mass": 3092,
  "print": 3093,
  "increasing": 3094,
  "sole": 3095,
  "auto": 3096,
  "meant": 3097,
  "observ": 3098,
  "Old": 3099,
  "Smith": 3100,
  "western": 3101,
  "Ter": 3102,
  "ingu": 3103,
  "photo": 3104,
  "Gover": 3105,
  "cardinal": 3106,
  "pretty": 3107,
  "Conf": 3108,
  "Sim": 3109,
  "figure": 3110,
  "sis": 3111,
  "tou": 3112,
  "instr": 3113,
  "chemical": 3114,
  "teach": 3115,
  "ville": 3116,
  "Louis": 3117,
  "Sol": 3118,
  "neigh": 3119,
  "bul": 3120,
  "electron": 3121,
  "nation": 3122,
  "rated": 3123,
  "threat": 3124,
  "ening": 3125,
  "commer": 3126,
  "High": 3127,
  "Portug": 3128,
  "clim": 3129,
  "provide": 3130,
  "tains": 3131,
  "2003": 3132,
  "baseball": 3133,
  "directly": 3134,
  "drink": 3135,
  "forman": 3136,
  "Court": 3137,
  "Just": 3138,
  "Sea": 3139,
  "battle": 3140,
  "iron": 3141,
  "bound": 3142,
  "east": 3143,
  "iving": 3144,
  "places": 3145,
  "stair": 3146,
  "blue": 3147,
  "education": 3148,
  "ensive": 3149,
  "horse": 3150,
  "minute": 3151,
  "Jews": 3152,
  "peace": 3153,
  "dial": 3154,
  "eventually": 3155,
  "quant": 3156,
  "itation": 3157,
  "uation": 3158,
  "sit": 3159,
  "cab": 3160,
  "deb": 3161,
  "ete": 3162,
  "supported": 3163,
  "write": 3164,
  "Adrian": 3165,
  "bing": 3166,
  "rob": 3167,
  "rail": 3168,
  "cular": 3169,
  "convers": 3170,
  "loss": 3171,
  "Buck": 3172,
  "People": 3173,
  "distinct": 3174,
  "weight": 3175,
  "conditions": 3176,
  "evening": 3177,
  "stage": 3178,
  "Frank": 3179,
  "clock": 3180,
  "commonly": 3181,
  "husband": 3182,
  "mostly": 3183,
  "race": 3184,
  "society": 3185,
  "Que": 3186,
  "Rome": 3187,
  "anthro": 3188,
  "oph": 3189,
  "games": 3190,
  "1999": 3191,
  "Athens": 3192,
  "knowledge": 3193,
  "spread": 3194,
  "fif": 3195,
  "teen": 3196,
  "hes": 3197,
  "ias": 3198,
  "mig": 3199,
  "riage": 3200,
  "ulture": 3201,
  "Fang": 3202,
  "2019": 3203,
  "ibly": 3204,
  "appar": 3205,
  "lif": 3206,
  "pa": 3207,
  "purpose": 3208,
  "ked": 3209,
  "ologist": 3210,
  "THE": 3211,
  "community": 3212,
  "umble": 3213,
  "appears": 3214,
  "arrow": 3215,
  "perfect": 3216,
  "tin": 3217,
  "wild": 3218,
  "Val": 3219,
  "rael": 3220,
  "Amaz": 3221,
  "Soci": 3222,
  "alpha": 3223,
  "extreme": 3224,
  "increase": 3225,
  "includes": 3226,
  "physical": 3227,
  "showed": 3228,
  "zy": 3229,
  "nia": 3230,
  "Jewish": 3231,
  "Rom": 3232,
  "forward": 3233,
  "decided": 3234,
  "drug": 3235,
  "rat": 3236,
  "rial": 3237,
  "tion": 3238,
  "animals": 3239,
  "mut": 3240,
  "2002": 3241,
  "apter": 3242,
  "hat": 3243,
  "wit": 3244,
  "oll": 3245,
  "35": 3246,
  "speech": 3247,
  "ufact": 3248,
  "Another": 3249,
  "Cali": 3250,
  "analysis": 3251,
  "leaders": 3252,
  "monstr": 3253,
  "simp": 3254,
  "Israel": 3255,
  "appearance": 3256,
  "legal": 3257,
  "tha": 3258,
  "vironment": 3259,
  "Albert": 3260,
  "attention": 3261,
  "extens": 3262,
  "laid": 3263,
  "quickly": 3264,
  "controll": 3265,
  "Congress": 3266,
  "bright": 3267,
  "Cap": 3268,
  "direction": 3269,
  "experience": 3270,
  "2021": 3271,
  "Ly": 3272,
  "northern": 3273,
  "rule": 3274,
  "Kar": 3275,
  "ella": 3276,
  "Laurie": 3277,
  "concent": 3278,
  "enes": 3279,
  "imag": 3280,
  "ining": 3281,
  "limited": 3282,
  "piece": 3283,
  "dise": 3284,
  "marriage": 3285,
  "Instit": 3286,
  "ka": 3287,
  "shar": 3288,
  "performan": 3289,
  "safe": 3290,
  "bod": 3291,
  "plement": 3292,
  "amine": 3293,
  "cities": 3294,
  "pon": 3295,
  "reck": 3296,
  "spl": 3297,
  "Trans": 3298,
  "verse": 3299,
  "personal": 3300,
  "illed": 3301,
  "memory": 3302,
  "subsequ": 3303,
  "variety": 3304,
  "cious": 3305,
  "Ae": 3306,
  "School": 3307,
  "aker": 3308,
  "belief": 3309,
  "ceeded": 3310,
  "earlier": 3311,
  "fresh": 3312,
  "ij": 3313,
  "da": 3314,
  "link": 3315,
  "writers": 3316,
  "aj": 3317,
  "instant": 3318,
  "XX": 3319,
  "products": 3320,
  "Angl": 3321,
  "alcohol": 3322,
  "assem": 3323,
  "bridge": 3324,
  "charge": 3325,
  "covery": 3326,
  "defined": 3327,
  "hael": 3328,
  "het": 3329,
  "manager": 3330,
  "pression": 3331,
  "Britain": 3332,
  "Jer": 3333,
  "week": 3334,
  "Park": 3335,
  "beautiful": 3336,
  "charg": 3337,
  "doctor": 3338,
  "farm": 3339,
  "wat": 3340,
  "IS": 3341,
  "ift": 3342,
  "Its": 3343,
  "Lincol": 3344,
  "Lincoln": 3345,
  "atives": 3346,
  "altern": 3347,
  "habit": 3348,
  "ole": 3349,
  "pun": 3350,
  "color": 3351,
  "presence": 3352,
  "tree": 3353,
  "China": 3354,
  "ades": 3355,
  "Cr": 3356,
  "element": 3357,
  "mel": 3358,
  "proposed": 3359,
  "spoken": 3360,
  "1991": 3361,
  "eks": 3362,
  "tle": 3363,
  "Mex": 3364,
  "lot": 3365,
  "today": 3366,
  "types": 3367,
  "vin": 3368,
  "OL": 3369,
  "ola": 3370,
  "asp": 3371,
  "southern": 3372,
  "1992": 3373,
  "Nav": 3374,
  "bio": 3375,
  "iff": 3376,
  "problems": 3377,
  "rapid": 3378,
  "cele": 3379,
  "instit": 3380,
  "typically": 3381,
  "Austrian": 3382,
  "anda": 3383,
  "arded": 3384,
  "omb": 3385,
  "ederal": 3386,
  "IN": 3387,
  "TER": 3388,
  "doing": 3389,
  "izing": 3390,
  "itar": 3391,
  "ateg": 3392,
  "rible": 3393,
  "sla": 3394,
  "video": 3395,
  "1980": 3396,
  "1996": 3397,
  "agg": 3398,
  "ements": 3399,
  "arrang": 3400,
  "1988": 3401,
  "Russia": 3402,
  "comfort": 3403,
  "ience": 3404,
  "results": 3405,
  "surround": 3406,
  "troops": 3407,
  "usual": 3408,
  "Canada": 3409,
  "Swed": 3410,
  "pul": 3411,
  "manufact": 3412,
  "preser": 3413,
  "theor": 3414,
  "uments": 3415,
  "Sil": 3416,
  "industry": 3417,
  "porary": 3418,
  "rug": 3419,
  "uz": 3420,
  "umb": 3421,
  "1997": 3422,
  "eting": 3423,
  "uk": 3424,
  "If": 3425,
  "Ot": 3426,
  "Otto": 3427,
  "mitted": 3428,
  "machine": 3429,
  "pict": 3430,
  "rose": 3431,
  "yourself": 3432,
  "179": 3433,
  "beyond": 3434,
  "Italy": 3435,
  "Museum": 3436,
  "acters": 3437,
  "faith": 3438,
  "immediately": 3439,
  "1969": 3440,
  "Bill": 3441,
  "dre": 3442,
  "nest": 3443,
  "slight": 3444,
  "1986": 3445,
  "eness": 3446,
  "reason": 3447,
  "consider": 3448,
  "suit": 3449,
  "giving": 3450,
  "software": 3451,
  "alt": 3452,
  "electr": 3453,
  "sha": 3454,
  "45": 3455,
  "1972": 3456,
  "bird": 3457,
  "Eastern": 3458,
  "Mad": 3459,
  "correspond": 3460,
  "fred": 3461,
  "growth": 3462,
  "Republic": 3463,
  "Two": 3464,
  "inqu": 3465,
  "Bon": 3466,
  "Di": 3467,
  "Porthos": 3468,
  "bear": 3469,
  "lips": 3470,
  "metal": 3471,
  "suddenly": 3472,
  "Assy": 3473,
  "CO": 3474,
  "Cal": 3475,
  "ES": 3476,
  "appointed": 3477,
  "benef": 3478,
  "desc": 3479,
  "historical": 3480,
  "visible": 3481,
  "code": 3482,
  "eval": 3483,
  "1984": 3484,
  "Bas": 3485,
  "iqu": 3486,
  "1998": 3487,
  "alge": 3488,
  "exact": 3489,
  "highly": 3490,
  "rief": 3491,
  "stated": 3492,
  "struck": 3493,
  "tank": 3494,
  "contem": 3495,
  "vow": 3496,
  "Michael": 3497,
  "feeling": 3498,
  "issue": 3499,
  "measure": 3500,
  "ries": 3501,
  "Martin": 3502,
  "Str": 3503,
  "ato": 3504,
  "rod": 3505,
  "twenty": 3506,
  "via": 3507,
  "Academy": 3508,
  "anarch": 3509,
  "launch": 3510,
  "Bl": 3511,
  "Je": 3512,
  "circum": 3513,
  "counter": 3514,
  "scar": 3515,
  "meas": 3516,
  "performed": 3517,
  "review": 3518,
  "seems": 3519,
  "angle": 3520,
  "beha": 3521,
  "celebr": 3522,
  "historian": 3523,
  "mas": 3524,
  "minister": 3525,
  "ours": 3526,
  "practice": 3527,
  "radio": 3528,
  "shut": 3529,
  "sued": 3530,
  "suggested": 3531,
  "thesis": 3532,
  "48": 3533,
  "Alber": 3534,
  "Jose": 3535,
  "danger": 3536,
  "ky": 3537,
  "average": 3538,
  "distribut": 3539,
  "foreign": 3540,
  "symbol": 3541,
  "70": 3542,
  "Ham": 3543,
  "Society": 3544,
  "changes": 3545,
  "characters": 3546,
  "1985": 3547,
  "amis": 3548,
  "attr": 3549,
  "excl": 3550,
  "majority": 3551,
  "studies": 3552,
  "cultural": 3553,
  "primary": 3554,
  "scientific": 3555,
  "shown": 3556,
  "advert": 3557,
  "fraid": 3558,
  "involved": 3559,
  "objects": 3560,
  "saurus": 3561,
  "afraid": 3562,
  "carbon": 3563,
  "moving": 3564,
  "pack": 3565,
  "ump": 3566,
  "widely": 3567,
  "1989": 3568,
  "Del": 3569,
  "construct": 3570,
  "gorith": 3571,
  "ns": 3572,
  "1995": 3573,
  "Van": 3574,
  "ficient": 3575,
  "forest": 3576,
  "highest": 3577,
  "integr": 3578,
  "search": 3579,
  "ulf": 3580,
  "aces": 3581,
  "worth": 3582,
  "arms": 3583,
  "derived": 3584,
  "glad": 3585,
  "problem": 3586,
  "Ann": 3587,
  "Anglican": 3588,
  "Ark": 3589,
  "Party": 3590,
  "corre": 3591,
  "dogs": 3592,
  "territory": 3593,
  "1970": 3594,
  "1994": 3595,
  "Abd": 3596,
  "astronaut": 3597,
  "execut": 3598,
  "guitar": 3599,
  "1977": 3600,
  "OS": 3601,
  "deg": 3602,
  "nic": 3603,
  "whis": 3604,
  "APTER": 3605,
  "Arth": 3606,
  "CHAPTER": 3607,
  "Richard": 3608,
  "replaced": 3609,
  "separate": 3610,
  "walked": 3611,
  "Che": 3612,
  "particip": 3613,
  "Anton": 3614,
  "Civil": 3615,
  "anned": 3616,
  "convent": 3617,
  "independent": 3618,
  "experiment": 3619,
  "oting": 3620,
  "pil": 3621,
  "oted": 3622,
  "Sup": 3623,
  "corpor": 3624,
  "ker": 3625,
  "painter": 3626,
  "pressed": 3627,
  "Er": 3628,
  "ela": 3629,
  "Muslim": 3630,
  "belong": 3631,
  "fection": 3632,
  "uge": 3633,
  "discuss": 3634,
  "enjoy": 3635,
  "services": 3636,
  "smaller": 3637,
  "suc": 3638,
  "yes": 3639,
  "1976": 3640,
  "1987": 3641,
  "arrived": 3642,
  "imper": 3643,
  "leaving": 3644,
  "philosophy": 3645,
  "ables": 3646,
  "vari": 3647,
  "eat": 3648,
  "condition": 3649,
  "ASA": 3650,
  "advan": 3651,
  "asket": 3652,
  "hero": 3653,
  "lives": 3654,
  "targ": 3655,
  "Ca": 3656,
  "League": 3657,
  "31": 3658,
  "Hy": 3659,
  "ena": 3660,
  "illust": 3661,
  "ires": 3662,
  "none": 3663,
  "philosoph": 3664,
  "require": 3665,
  "ceived": 3666,
  "1993": 3667,
  "AF": 3668,
  "Arthur": 3669,
  "consequ": 3670,
  "ellig": 3671,
  "lowly": 3672,
  "raised": 3673,
  "intellig": 3674,
  "track": 3675,
  "1968": 3676,
  "1981": 3677,
  "Aud": 3678,
  "Alfred": 3679,
  "Spain": 3680,
  "degree": 3681,
  "demand": 3682,
  "property": 3683,
  "soldiers": 3684,
  "1920": 3685,
  "Johnson": 3686,
  "Red": 3687,
  "algebra": 3688,
  "antine": 3689,
  "fing": 3690,
  "Aristot": 3691,
  "Fran": 3692,
  "astro": 3693,
  "constant": 3694,
  "determined": 3695,
  "spent": 3696,
  "station": 3697,
  "1945": 3698,
  "39": 3699,
  "Afghanistan": 3700,
  "Beth": 3701,
  "Pre": 3702,
  "Turk": 3703,
  "advant": 3704,
  "isto": 3705,
  "offered": 3706,
  "pron": 3707,
  "wouldn": 3708,
  "Byz": 3709,
  "captain": 3710,
  "growing": 3711,
  "simply": 3712,
  "1979": 3713,
  "Because": 3714,
  "agric": 3715,
  "ba": 3716,
  "block": 3717,
  "isl": 3718,
  "atures": 3719,
  "stars": 3720,
  "ellow": 3721,
  "reign": 3722,
  "simple": 3723,
  "solute": 3724,
  "yr": 3725,
  "Their": 3726,
  "Wash": 3727,
  "alle": 3728,
  "explo": 3729,
  "spring": 3730,
  "Middle": 3731,
  "acting": 3732,
  "strug": 3733,
  "sam": 3734,
  "reli": 3735,
  "schools": 3736,
  "summer": 3737,
  "1974": 3738,
  "1975": 3739,
  "1983": 3740,
  "bles": 3741,
  "dut": 3742,
  "Council": 3743,
  "boat": 3744,
  "confl": 3745,
  "icted": 3746,
  "needed": 3747,
  "straight": 3748,
  "1982": 3749,
  "cock": 3750,
  "expression": 3751,
  "wave": 3752,
  "Confeder": 3753,
  "Mos": 3754,
  "activity": 3755,
  "affair": 3756,
  "create": 3757,
  "ordered": 3758,
  "slowly": 3759,
  "zen": 3760,
  "Mag": 3761,
  "nine": 3762,
  "resistance": 3763,
  "serve": 3764,
  "cip": 3765,
  "oc": 3766,
  "je": 3767,
  "settle": 3768,
  "sources": 3769,
  "uff": 3770,
  "Sat": 3771,
  "approximately": 3772,
  "grave": 3773,
  "lift": 3774,
  "originally": 3775,
  "Aramis": 3776,
  "Califor": 3777,
  "Washington": 3778,
  "compared": 3779,
  "couldn": 3780,
  "dialect": 3781,
  "display": 3782,
  "mond": 3783,
  "speaking": 3784,
  "units": 3785,
  "1971": 3786,
  "Commun": 3787,
  "Irish": 3788,
  "alleg": 3789,
  "ideas": 3790,
  "intended": 3791,
  "itors": 3792,
  "middle": 3793,
  "pock": 3794,
  "previous": 3795,
  "unders": 3796,
  "adopted": 3797,
  "emperor": 3798,
  "failed": 3799,
  "houses": 3800,
  "Armenia": 3801,
  "Good": 3802,
  "centuries": 3803,
  "icated": 3804,
  "uded": 3805,
  "Every": 3806,
  "equal": 3807,
  "occurred": 3808,
  "sweet": 3809,
  "Aar": 3810,
  "Dan": 3811,
  "chemist": 3812,
  "date": 3813,
  "iments": 3814,
  "ogy": 3815,
  "regions": 3816,
  "broken": 3817,
  "citiz": 3818,
  "onic": 3819,
  "Duke": 3820,
  "Institute": 3821,
  "2022": 3822,
  "ACL": 3823,
  "Illust": 3824,
  "38": 3825,
  "Andr": 3826,
  "California": 3827,
  "LM": 3828,
  "Revolution": 3829,
  "district": 3830,
  "happened": 3831,
  "Mark": 3832,
  "commiss": 3833,
  "Holmes": 3834,
  "abs": 3835,
  "cles": 3836,
  "election": 3837,
  "properties": 3838,
  "satisf": 3839,
  "technology": 3840,
  "1900": 3841,
  "ACLU": 3842,
  "enc": 3843,
  "getting": 3844,
  "month": 3845,
  "nav": 3846,
  "sharp": 3847,
  "stairs": 3848,
  "algorith": 3849,
  "dess": 3850,
  "existence": 3851,
  "itic": 3852,
  "mort": 3853,
  "vation": 3854,
  "Dick": 3855,
  "Fil": 3856,
  "Mur": 3857,
  "risk": 3858,
  "demonstr": 3859,
  "environment": 3860,
  "kes": 3861,
  "oned": 3862,
  "onom": 3863,
  "thousand": 3864,
  "Polish": 3865,
  "companies": 3866,
  "screenwriter": 3867,
  "strength": 3868,
  "bling": 3869,
  "corner": 3870,
  "Mons": 3871,
  "favor": 3872,
  "largely": 3873,
  "performance": 3874,
  "More": 3875,
  "System": 3876,
  "behavi": 3877,
  "icked": 3878,
  "liament": 3879,
  "mole": 3880,
  "motion": 3881,
  "sues": 3882,
  "Hungarian": 3883,
  "Reg": 3884,
  "amount": 3885,
  "center": 3886,
  "contrast": 3887,
  "easily": 3888,
  "respon": 3889,
  "response": 3890,
  "Associ": 3891,
  "UK": 3892,
  "alternative": 3893,
  "emph": 3894,
  "scholars": 3895,
  "stream": 3896,
  "AB": 3897,
  "AL": 3898,
  "Greece": 3899,
  "absolute": 3900,
  "agree": 3901,
  "boys": 3902,
  "extr": 3903,
  "floor": 3904,
  "league": 3905,
  "micro": 3906,
  "Elect": 3907,
  "NASA": 3908,
  "accepted": 3909,
  "cred": 3910,
  "elled": 3911,
  "occasion": 3912,
  "thinking": 3913,
  "travel": 3914,
  "victory": 3915,
  "Histor": 3916,
  "agreed": 3917,
  "potential": 3918,
  "tow": 3919,
  "Jud": 3920,
  "liest": 3921,
  "operations": 3922,
  "prior": 3923,
  "trouble": 3924,
  "1967": 3925,
  "1973": 3926,
  "1978": 3927,
  "44": 3928,
  "Jane": 3929,
  "alter": 3930,
  "ingly": 3931,
  "laugh": 3932,
  "match": 3933,
  "Fel": 3934,
  "Sir": 3935,
  "cel": 3936,
  "sets": 3937,
  "75": 3938,
  "IC": 3939,
  "becoming": 3940,
  "note": 3941,
  "portun": 3942,
  "seeing": 3943,
  "ti": 3944,
  "Bell": 3945,
  "Ak": 3946,
  "wealth": 3947,
  "36": 3948,
  "bond": 3949,
  "enna": 3950,
  "numerous": 3951,
  "snow": 3952,
  "training": 3953,
  "va": 3954,
  "poor": 3955,
  "weap": 3956,
  "Joseph": 3957,
  "Scotland": 3958,
  "dete": 3959,
  "inside": 3960,
  "kins": 3961,
  "ower": 3962,
  "relationship": 3963,
  "basket": 3964,
  "double": 3965,
  "enic": 3966,
  "influenced": 3967,
  "ivity": 3968,
  "collect": 3969,
  "reflect": 3970,
  "Bro": 3971,
  "Islamic": 3972,
  "Thus": 3973,
  "cos": 3974,
  "coat": 3975,
  "cript": 3976,
  "Bet": 3977,
  "deen": 3978,
  "forming": 3979,
  "neither": 3980,
  "soldier": 3981,
  "Aberdeen": 3982,
  "Artem": 3983,
  "Early": 3984,
  "Law": 3985,
  "multiple": 3986,
  "psych": 3987,
  "pleasure": 3988,
  "relatively": 3989,
  "shot": 3990,
  "Alice": 3991,
  "apart": 3992,
  "commercial": 3993,
  "expand": 3994,
  "forts": 3995,
  "gate": 3996,
  "honor": 3997,
  "investig": 3998,
  "mentioned": 3999,
  "share": 4000,
  "Austin": 4001,
  "Southern": 4002,
  "completed": 4003,
  "girls": 4004,
  "secur": 4005,
  "steps": 4006,
  "unit": 4007,
  "village": 4008,
  "chance": 4009,
  "ansas": 4010,
  "cas": 4011,
  "cean": 4012,
  "exts": 4013,
  "promin": 4014,
  "ager": 4015,
  "request": 4016,
  "tel": 4017,
  "Stud": 4018,
  "Vict": 4019,
  "liber": 4020,
  "native": 4021,
  "sterdam": 4022,
  "160": 4023,
  "Amsterdam": 4024,
  "Dis": 4025,
  "regard": 4026,
  "adow": 4027,
  "astic": 4028,
  "dread": 4029,
  "entirely": 4030,
  "favour": 4031,
  "Aph": 4032,
  "Egyptian": 4033,
  "collection": 4034,
  "marked": 4035,
  "Demo": 4036,
  "List": 4037,
  "animal": 4038,
  "compon": 4039,
  "directed": 4040,
  "economy": 4041,
  "iber": 4042,
  "1944": 4043,
  "Augustine": 4044,
  "frag": 4045,
  "temperature": 4046,
  "virt": 4047,
  "billion": 4048,
  "crim": 4049,
  "inated": 4050,
  "formal": 4051,
  "Artemis": 4052,
  "broke": 4053,
  "ita": 4054,
  "mons": 4055,
  "pleas": 4056,
  "stances": 4057,
  "Alexandra": 4058,
  "argued": 4059,
  "aught": 4060,
  "cture": 4061,
  "delight": 4062,
  "image": 4063,
  "isation": 4064,
  "signed": 4065,
  "Andrew": 4066,
  "Monsieur": 4067,
  "iner": 4068,
  "literature": 4069,
  "professional": 4070,
  "wid": 4071,
  "Benn": 4072,
  "anta": 4073,
  "career": 4074,
  "estival": 4075,
  "winter": 4076,
  "College": 4077,
  "attribut": 4078,
  "feated": 4079,
  "holding": 4080,
  "mos": 4081,
  "toms": 4082,
  "Armenian": 4083,
  "Nobel": 4084,
  "defeated": 4085,
  "drive": 4086,
  "grant": 4087,
  "thick": 4088,
  "1966": 4089,
  "opportun": 4090,
  "Grand": 4091,
  "Mem": 4092,
  "classical": 4093,
  "issues": 4094,
  "phere": 4095,
  "policy": 4096,
  "varian": 4097,
  "AA": 4098,
  "Cur": 4099,
  "ads": 4100,
  "pressure": 4101,
  "Both": 4102,
  "Franc": 4103,
  "cells": 4104,
  "distingu": 4105,
  "exhib": 4106,
  "films": 4107,
  "improve": 4108,
  "oxy": 4109,
  "rub": 4110,
  "bish": 4111,
  "bishop": 4112,
  "repeated": 4113,
  "ware": 4114,
  "firm": 4115,
  "Au": 4116,
  "actually": 4117,
  "cise": 4118,
  "composed": 4119,
  "divided": 4120,
  "greatest": 4121,
  "methods": 4122,
  "mob": 4123,
  "iar": 4124,
  "priest": 4125,
  "restr": 4126,
  "section": 4127,
  "settled": 4128,
  "Lady": 4129,
  "eless": 4130,
  "ores": 4131,
  "rum": 4132,
  "oured": 4133,
  "release": 4134,
  "til": 4135,
  "PC": 4136,
  "47": 4137,
  "Second": 4138,
  "Under": 4139,
  "aph": 4140,
  "authority": 4141,
  "expressed": 4142,
  "fat": 4143,
  "othy": 4144,
  "oppos": 4145,
  "orses": 4146,
  "reedom": 4147,
  "terror": 4148,
  "1962": 4149,
  "Aristotle": 4150,
  "faces": 4151,
  "hydrogen": 4152,
  "kingdom": 4153,
  "myth": 4154,
  "orial": 4155,
  "sell": 4156,
  "trying": 4157,
  "scholar": 4158,
  "teeth": 4159,
  "thin": 4160,
  "Are": 4161,
  "ano": 4162,
  "buildings": 4163,
  "estimated": 4164,
  "launched": 4165,
  "mainly": 4166,
  "quality": 4167,
  "street": 4168,
  "Atlantic": 4169,
  "detail": 4170,
  "possibly": 4171,
  "resulting": 4172,
  "silence": 4173,
  "stro": 4174,
  "1963": 4175,
  "Moun": 4176,
  "Sik": 4177,
  "neck": 4178,
  "Andal": 4179,
  "Library": 4180,
  "additional": 4181,
  "fash": 4182,
  "students": 4183,
  "uer": 4184,
  "wrong": 4185,
  "1964": 4186,
  "Later": 4187,
  "Wall": 4188,
  "100": 4189,
  "antis": 4190,
  "assa": 4191,
  "kn": 4192,
  "businessman": 4193,
  "cher": 4194,
  "erson": 4195,
  "lowing": 4196,
  "operation": 4197,
  "reve": 4198,
  "scale": 4199,
  "tone": 4200,
  "Sem": 4201,
  "anxiety": 4202,
  "effective": 4203,
  "isms": 4204,
  "mess": 4205,
  "noted": 4206,
  "represented": 4207,
  "Treat": 4208,
  "ancy": 4209,
  "account": 4210,
  "calcul": 4211,
  "mann": 4212,
  "tood": 4213,
  "ultural": 4214,
  "Even": 4215,
  "Gold": 4216,
  "Ottoman": 4217,
  "ached": 4218,
  "contains": 4219,
  "disput": 4220,
  "hall": 4221,
  "Mu": 4222,
  "task": 4223,
  "300": 4224,
  "Inter": 4225,
  "asc": 4226,
  "implement": 4227,
  "nom": 4228,
  "tur": 4229,
  "ils": 4230,
  "aging": 4231,
  "certainly": 4232,
  "decre": 4233,
  "initial": 4234,
  "royal": 4235,
  "serious": 4236,
  "shows": 4237,
  "understood": 4238,
  "Abu": 4239,
  "Prize": 4240,
  "ctic": 4241,
  "expans": 4242,
  "stable": 4243,
  "unknown": 4244,
  "Come": 4245,
  "basis": 4246,
  "declared": 4247,
  "elected": 4248,
  "equip": 4249,
  "choice": 4250,
  "inno": 4251,
  "media": 4252,
  "Alask": 4253,
  "brain": 4254,
  "easy": 4255,
  "independence": 4256,
  "recorded": 4257,
  "vice": 4258,
  "Jackson": 4259,
  "Mill": 4260,
  "abort": 4261,
  "fro": 4262,
  "female": 4263,
  "guard": 4264,
  "icians": 4265,
  "medicine": 4266,
  "suppose": 4267,
  "zo": 4268,
  "fon": 4269,
  "Byzantine": 4270,
  "Class": 4271,
  "Fer": 4272,
  "goddess": 4273,
  "identified": 4274,
  "preh": 4275,
  "1947": 4276,
  "buried": 4277,
  "effort": 4278,
  "iated": 4279,
  "philosopher": 4280,
  "raw": 4281,
  "refused": 4282,
  "Saint": 4283,
  "decision": 4284,
  "exas": 4285,
  "paid": 4286,
  "protect": 4287,
  "theless": 4288,
  "Central": 4289,
  "Democr": 4290,
  "Kore": 4291,
  "Where": 4292,
  "aly": 4293,
  "defeat": 4294,
  "killing": 4295,
  "zil": 4296,
  "1965": 4297,
  "Center": 4298,
  "Darcy": 4299,
  "Iran": 4300,
  "Prince": 4301,
  "ante": 4302,
  "armed": 4303,
  "finished": 4304,
  "istics": 4305,
  "thir": 4306,
  "becomes": 4307,
  "Brown": 4308,
  "Order": 4309,
  "bury": 4310,
  "engineer": 4311,
  "meeting": 4312,
  "ols": 4313,
  "takes": 4314,
  "Bab": 4315,
  "Dorian": 4316,
  "Emperor": 4317,
  "Never": 4318,
  "drawn": 4319,
  "ga": 4320,
  "nd": 4321,
  "32": 4322,
  "hang": 4323,
  "reduced": 4324,
  "Cy": 4325,
  "Rod": 4326,
  "idents": 4327,
  "mill": 4328,
  "Award": 4329,
  "Prof": 4330,
  "fighting": 4331,
  "ini": 4332,
  "iques": 4333,
  "artist": 4334,
  "relations": 4335,
  "Queen": 4336,
  "edge": 4337,
  "news": 4338,
  "oral": 4339,
  "sexual": 4340,
  "arrest": 4341,
  "primarily": 4342,
  "Chapter": 4343,
  "TV": 4344,
  "illery": 4345,
  "progress": 4346,
  "Bal": 4347,
  "Cast": 4348,
  "eda": 4349,
  "Met": 4350,
  "ampion": 4351,
  "ems": 4352,
  "guitarist": 4353,
  "Jean": 4354,
  "disease": 4355,
  "gro": 4356,
  "ordinary": 4357,
  "plants": 4358,
  "learned": 4359,
  "negative": 4360,
  "proved": 4361,
  "promise": 4362,
  "65": 4363,
  "Publ": 4364,
  "advantage": 4365,
  "finan": 4366,
  "ieve": 4367,
  "ograph": 4368,
  "pian": 4369,
  "ny": 4370,
  "Vir": 4371,
  "kin": 4372,
  "wel": 4373,
  "ding": 4374,
  "phon": 4375,
  "previously": 4376,
  "Northern": 4377,
  "illa": 4378,
  "weeks": 4379,
  "Alberta": 4380,
  "Carol": 4381,
  "iom": 4382,
  "mand": 4383,
  "regarded": 4384,
  "33": 4385,
  "180": 4386,
  "90": 4387,
  "46": 4388,
  "37": 4389,
  "500": 4390,
  "Francis": 4391,
  "dry": 4392,
  "points": 4393,
  "dropped": 4394,
  "eastern": 4395,
  "tend": 4396,
  "cere": 4397,
  "Ambro": 4398,
  "Brazil": 4399,
  "Herbert": 4400,
  "earliest": 4401,
  "fici": 4402,
  "lav": 4403,
  "lit": 4404,
  "Shah": 4405,
  "oids": 4406,
  "tor": 4407,
  "150": 4408,
  "1943": 4409,
  "Pope": 4410,
  "atoms": 4411,
  "ida": 4412,
  "ois": 4413,
  "Andalus": 4414,
  "combined": 4415,
  "deaths": 4416,
  "drop": 4417,
  "finally": 4418,
  "py": 4419,
  "eds": 4420,
  "plays": 4421,
  "powerful": 4422,
  "Prime": 4423,
  "Vi": 4424,
  "grav": 4425,
  "omer": 4426,
  "pine": 4427,
  "rine": 4428,
  "solution": 4429,
  "trem": 4430,
  "Arama": 4431,
  "Def": 4432,
  "Ke": 4433,
  "contain": 4434,
  "individuals": 4435,
  "removed": 4436,
  "1942": 4437,
  "Victor": 4438,
  "aling": 4439,
  "brew": 4440,
  "loved": 4441,
  "pale": 4442,
  "reaction": 4443,
  "49": 4444,
  "Aramaic": 4445,
  "Coll": 4446,
  "Sever": 4447,
  "dare": 4448,
  "emphas": 4449,
  "iform": 4450,
  "iso": 4451,
  "ieux": 4452,
  "province": 4453,
  "comed": 4454,
  "filled": 4455,
  "officer": 4456,
  "sought": 4457,
  "seat": 4458,
  "shadow": 4459,
  "stock": 4460,
  "bacter": 4461,
  "Camp": 4462,
  "encour": 4463,
  "religion": 4464,
  "shell": 4465,
  "stories": 4466,
  "UN": 4467,
  "custom": 4468,
  "driver": 4469,
  "thetic": 4470,
  "asy": 4471,
  "Achill": 4472,
  "Alger": 4473,
  "allowing": 4474,
  "humans": 4475,
  "nes": 4476,
  "reject": 4477,
  "square": 4478,
  "Buddha": 4479,
  "Illustration": 4480,
  "antibiot": 4481,
  "connected": 4482,
  "figures": 4483,
  "hill": 4484,
  "severe": 4485,
  "Angel": 4486,
  "Following": 4487,
  "Portugu": 4488,
  "anes": 4489,
  "Ari": 4490,
  "clothes": 4491,
  "forth": 4492,
  "helped": 4493,
  "ike": 4494,
  "Assyrian": 4495,
  "CE": 4496,
  "Ha": 4497,
  "Ali": 4498,
  "Portuguese": 4499,
  "Space": 4500,
  "agreement": 4501,
  "cru": 4502,
  "finite": 4503,
  "instance": 4504,
  "rev": 4505,
  "sport": 4506,
  "ulations": 4507,
  "Ox": 4508,
  "applied": 4509,
  "deliver": 4510,
  "difference": 4511,
  "gods": 4512,
  "internal": 4513,
  "joint": 4514,
  "kne": 4515,
  "nucle": 4516,
  "transfer": 4517,
  "Ajax": 4518,
  "Alab": 4519,
  "Austria": 4520,
  "Dorothy": 4521,
  "Fort": 4522,
  "continue": 4523,
  "trust": 4524,
  "Ashok": 4525,
  "hunt": 4526,
  "stick": 4527,
  "Life": 4528,
  "Profess": 4529,
  "SM": 4530,
  "Time": 4531,
  "aband": 4532,
  "accur": 4533,
  "fit": 4534,
  "families": 4535,
  "grapher": 4536,
  "mix": 4537,
  "Huck": 4538,
  "brief": 4539,
  "chain": 4540,
  "importance": 4541,
  "inary": 4542,
  "moral": 4543,
  "onto": 4544,
  "pit": 4545,
  "ching": 4546,
  "forgot": 4547,
  "fright": 4548,
  "gle": 4549,
  "obl": 4550,
  "qual": 4551,
  "sitting": 4552,
  "skin": 4553,
  "Alaska": 4554,
  "Constant": 4555,
  "Sur": 4556,
  "rend": 4557,
  "harm": 4558,
  "levels": 4559,
  "location": 4560,
  "terrible": 4561,
  "usal": 4562,
  "1961": 4563,
  "Alfon": 4564,
  "Despite": 4565,
  "Ros": 4566,
  "ya": 4567,
  "Ven": 4568,
  "beat": 4569,
  "cler": 4570,
  "escape": 4571,
  "shoulder": 4572,
  "Pak": 4573,
  "See": 4574,
  "aland": 4575,
  "allows": 4576,
  "aspect": 4577,
  "closely": 4578,
  "conduct": 4579,
  "functions": 4580,
  "igen": 4581,
  "opposed": 4582,
  "sey": 4583,
  "Bern": 4584,
  "BCE": 4585,
  "Long": 4586,
  "atomic": 4587,
  "estic": 4588,
  "opening": 4589,
  "ospital": 4590,
  "quarter": 4591,
  "ray": 4592,
  "receive": 4593,
  "unk": 4594,
  "walls": 4595,
  "Aphrod": 4596,
  "Bennet": 4597,
  "caught": 4598,
  "extended": 4599,
  "frequently": 4600,
  "principle": 4601,
  "silver": 4602,
  "uncle": 4603,
  "vary": 4604,
  "1940": 4605,
  "Alfonso": 4606,
  "Bumble": 4607,
  "assass": 4608,
  "izations": 4609,
  "eral": 4610,
  "nis": 4611,
  "fail": 4612,
  "pocket": 4613,
  "tons": 4614,
  "thodox": 4615,
  "42": 4616,
  "Swedish": 4617,
  "churches": 4618,
  "efforts": 4619,
  "fields": 4620,
  "mine": 4621,
  "horses": 4622,
  "materials": 4623,
  "pin": 4624,
  "shire": 4625,
  "situation": 4626,
  "target": 4627,
  "ulate": 4628,
  "Persian": 4629,
  "absor": 4630,
  "acher": 4631,
  "avoid": 4632,
  "imal": 4633,
  "paint": 4634,
  "Also": 4635,
  "Association": 4636,
  "Before": 4637,
  "chron": 4638,
  "completely": 4639,
  "electric": 4640,
  "feature": 4641,
  "gained": 4642,
  "neut": 4643,
  "scene": 4644,
  "Aphrodite": 4645,
  "Den": 4646,
  "ying": 4647,
  "rif": 4648,
  "Hum": 4649,
  "organization": 4650,
  "recognized": 4651,
  "spacecraft": 4652,
  "1901": 4653,
  "Colin": 4654,
  "cav": 4655,
  "chest": 4656,
  "expansion": 4657,
  "federal": 4658,
  "gives": 4659,
  "onian": 4660,
  "pattern": 4661,
  "Green": 4662,
  "astronauts": 4663,
  "journey": 4664,
  "stic": 4665,
  "Hav": 4666,
  "Texas": 4667,
  "acity": 4668,
  "azine": 4669,
  "Fl": 4670,
  "containing": 4671,
  "frame": 4672,
  "noble": 4673,
  "onia": 4674,
  "plane": 4675,
  "reser": 4676,
  "scarce": 4677,
  "theast": 4678,
  "1948": 4679,
  "Best": 4680,
  "Company": 4681,
  "Flor": 4682,
  "equival": 4683,
  "rules": 4684,
  "shape": 4685,
  "stance": 4686,
  "von": 4687,
  "Alabama": 4688,
  "achi": 4689,
  "dish": 4690,
  "positive": 4691,
  "Gl": 4692,
  "Navy": 4693,
  "Viet": 4694,
  "Zealand": 4695,
  "alphabet": 4696,
  "beauty": 4697,
  "claims": 4698,
  "hoc": 4699,
  "hypo": 4700,
  "remaining": 4701,
  "sumed": 4702,
  "reas": 4703,
  "tery": 4704,
  "whisper": 4705,
  "Ancient": 4706,
  "Bay": 4707,
  "analy": 4708,
  "conscious": 4709,
  "correct": 4710,
  "drawing": 4711,
  "extra": 4712,
  "magnitude": 4713,
  "regional": 4714,
  "spiritual": 4715,
  "Ale": 4716,
  "inu": 4717,
  "Ainu": 4718,
  "acids": 4719,
  "ada": 4720,
  "bass": 4721,
  "ec": 4722,
  "hung": 4723,
  "owned": 4724,
  "Modern": 4725,
  "basic": 4726,
  "comment": 4727,
  "ls": 4728,
  "cow": 4729,
  "occupied": 4730,
  "Pip": 4731,
  "Virgin": 4732,
  "breath": 4733,
  "conqu": 4734,
  "elaide": 4735,
  "erely": 4736,
  "oldest": 4737,
  "police": 4738,
  "views": 4739,
  "Gen": 4740,
  "Rob": 4741,
  "bodies": 4742,
  "candid": 4743,
  "doct": 4744,
  "moon": 4745,
  "rise": 4746,
  "ost": 4747,
  "odes": 4748,
  "physic": 4749,
  "plom": 4750,
  "rey": 4751,
  "train": 4752,
  "89": 4753,
  "Mel": 4754,
  "focus": 4755,
  "instein": 4756,
  "sche": 4757,
  "tru": 4758,
  "1939": 4759,
  "Adelaide": 4760,
  "Est": 4761,
  "Nether": 4762,
  "err": 4763,
  "meat": 4764,
  "oxygen": 4765,
  "resour": 4766,
  "twice": 4767,
  "understanding": 4768,
  "vest": 4769,
  "Edward": 4770,
  "Wood": 4771,
  "annual": 4772,
  "artists": 4773,
  "cott": 4774,
  "goes": 4775,
  "hid": 4776,
  "iga": 4777,
  "55": 4778,
  "Aster": 4779,
  "Athena": 4780,
  "governor": 4781,
  "legs": 4782,
  "programs": 4783,
  "1928": 4784,
  "Harry": 4785,
  "cited": 4786,
  "proport": 4787,
  "responsible": 4788,
  "taught": 4789,
  "temple": 4790,
  "Land": 4791,
  "Mat": 4792,
  "rang": 4793,
  "begun": 4794,
  "destroyed": 4795,
  "ictions": 4796,
  "laughed": 4797,
  "oh": 4798,
  "rd": 4799,
  "somewhat": 4800,
  "texts": 4801,
  "Cla": 4802,
  "compounds": 4803,
  "content": 4804,
  "exped": 4805,
  "normal": 4806,
  "refers": 4807,
  "silent": 4808,
  "smile": 4809,
  "Bak": 4810,
  "Nap": 4811,
  "Warhol": 4812,
  "admir": 4813,
  "interpret": 4814,
  "respectively": 4815,
  "shap": 4816,
  "translated": 4817,
  "urban": 4818,
  "Pakistan": 4819,
  "hardly": 4820,
  "icip": 4821,
  "itzer": 4822,
  "43": 4823,
  "Gra": 4824,
  "initially": 4825,
  "purch": 4826,
  "proof": 4827,
  "reference": 4828,
  "tee": 4829,
  "techniques": 4830,
  "uminium": 4831,
  "values": 4832,
  "assign": 4833,
  "propos": 4834,
  "vised": 4835,
  "despite": 4836,
  "fare": 4837,
  "izes": 4838,
  "legisl": 4839,
  "och": 4840,
  "abo": 4841,
  "oul": 4842,
  "Pan": 4843,
  "pure": 4844,
  "players": 4845,
  "EN": 4846,
  "VI": 4847,
  "breakfast": 4848,
  "discovery": 4849,
  "provides": 4850,
  "staff": 4851,
  "Hor": 4852,
  "ammon": 4853,
  "dinner": 4854,
  "fashion": 4855,
  "greatly": 4856,
  "incorpor": 4857,
  "monarch": 4858,
  "page": 4859,
  "uls": 4860,
  "ultim": 4861,
  "waiting": 4862,
  "yield": 4863,
  "conce": 4864,
  "engaged": 4865,
  "height": 4866,
  "heads": 4867,
  "icke": 4868,
  "save": 4869,
  "udes": 4870,
  "Abra": 4871,
  "Crow": 4872,
  "ceremon": 4873,
  "disci": 4874,
  "iverse": 4875,
  "prominent": 4876,
  "Argent": 4877,
  "Audi": 4878,
  "Bonac": 4879,
  "Bonacieux": 4880,
  "Each": 4881,
  "affected": 4882,
  "charged": 4883,
  "ciences": 4884,
  "constitution": 4885,
  "document": 4886,
  "ensity": 4887,
  "esty": 4888,
  "exer": 4889,
  "itz": 4890,
  "Alan": 4891,
  "narrow": 4892,
  "passage": 4893,
  "protection": 4894,
  "rates": 4895,
  "spot": 4896,
  "tes": 4897,
  "cou": 4898,
  "lym": 4899,
  "1914": 4900,
  "1958": 4901,
  "Litt": 4902,
  "Sel": 4903,
  "inus": 4904,
  "Swiss": 4905,
  "advent": 4906,
  "ancest": 4907,
  "attempted": 4908,
  "lan": 4909,
  "notes": 4910,
  "powers": 4911,
  "1941": 4912,
  "Shar": 4913,
  "Tri": 4914,
  "artillery": 4915,
  "cloud": 4916,
  "cook": 4917,
  "fortun": 4918,
  "ients": 4919,
  "provin": 4920,
  "spap": 4921,
  "1952": 4922,
  "Albanian": 4923,
  "Ashoka": 4924,
  "Four": 4925,
  "Philosop": 4926,
  "Vietnam": 4927,
  "acle": 4928,
  "archae": 4929,
  "attacks": 4930,
  "folk": 4931,
  "lab": 4932,
  "prepared": 4933,
  "stret": 4934,
  "sufficient": 4935,
  "1918": 4936,
  "Fres": 4937,
  "Only": 4938,
  "RO": 4939,
  "jur": 4940,
  "1938": 4941,
  "blind": 4942,
  "impossible": 4943,
  "1933": 4944,
  "hi": 4945,
  "module": 4946,
  "ni": 4947,
  "noon": 4948,
  "studied": 4949,
  "surprise": 4950,
  "tu": 4951,
  "whereas": 4952,
  "Albania": 4953,
  "Several": 4954,
  "basketball": 4955,
  "park": 4956,
  "succeeded": 4957,
  "tical": 4958,
  "1946": 4959,
  "Einstein": 4960,
  "advanced": 4961,
  "assault": 4962,
  "chamber": 4963,
  "contemporary": 4964,
  "cycl": 4965,
  "desire": 4966,
  "describe": 4967,
  "dram": 4968,
  "ende": 4969,
  "gment": 4970,
  "geomet": 4971,
  "industrial": 4972,
  "lat": 4973,
  "volume": 4974,
  "1929": 4975,
  "1960s": 4976,
  "Govern": 4977,
  "Turkish": 4978,
  "computers": 4979,
  "critical": 4980,
  "empty": 4981,
  "fool": 4982,
  "phe": 4983,
  "planned": 4984,
  "stress": 4985,
  "threw": 4986,
  "wore": 4987,
  "1937": 4988,
  "accident": 4989,
  "achieve": 4990,
  "captured": 4991,
  "comput": 4992,
  "diplom": 4993,
  "fiction": 4994,
  "nit": 4995,
  "phone": 4996,
  "resulted": 4997,
  "1926": 4998,
  "Resear": 4999,
  "Sikes": 5000,
  "abb": 5001,
  "climate": 5002,
  "definition": 5003,
  "nuclear": 5004,
  "rative": 5005,
  "supply": 5006,
  "Olym": 5007,
  "ancing": 5008,
  "companion": 5009,
  "division": 5010,
  "ero": 5011,
  "metals": 5012,
  "models": 5013,
  "presents": 5014,
  "reven": 5015,
  "twel": 5016,
  "1954": 5017,
  "Like": 5018,
  "Mah": 5019,
  "chip": 5020,
  "duke": 5021,
  "examples": 5022,
  "fee": 5023,
  "global": 5024,
  "iance": 5025,
  "islands": 5026,
  "recept": 5027,
  "ros": 5028,
  "wear": 5029,
  "1925": 5030,
  "Los": 5031,
  "NF": 5032,
  "Year": 5033,
  "antim": 5034,
  "card": 5035,
  "combination": 5036,
  "vehicle": 5037,
  "1959": 5038,
  "County": 5039,
  "Orthodox": 5040,
  "Right": 5041,
  "Research": 5042,
  "aure": 5043,
  "fortune": 5044,
  "rugby": 5045,
  "shook": 5046,
  "1924": 5047,
  "1955": 5048,
  "Depart": 5049,
  "Pas": 5050,
  "chall": 5051,
  "conversation": 5052,
  "rupt": 5053,
  "starting": 5054,
  "wine": 5055,
  "Naz": 5056,
  "abol": 5057,
  "iring": 5058,
  "tears": 5059,
  "urally": 5060,
  "wash": 5061,
  "SI": 5062,
  "Ty": 5063,
  "chos": 5064,
  "apped": 5065,
  "axiom": 5066,
  "generation": 5067,
  "leaves": 5068,
  "oblig": 5069,
  "planet": 5070,
  "pleasant": 5071,
  "rator": 5072,
  "yellow": 5073,
  "1956": 5074,
  "ashes": 5075,
  "merely": 5076,
  "newspap": 5077,
  "occurs": 5078,
  "picture": 5079,
  "sand": 5080,
  "talking": 5081,
  "tenance": 5082,
  "Sto": 5083,
  "Sub": 5084,
  "jun": 5085,
  "Tem": 5086,
  "communities": 5087,
  "educator": 5088,
  "knows": 5089,
  "las": 5090,
  "opportunity": 5091,
  "Ky": 5092,
  "Sar": 5093,
  "afterwards": 5094,
  "branch": 5095,
  "cked": 5096,
  "conserv": 5097,
  "elings": 5098,
  "empire": 5099,
  "setting": 5100,
  "structures": 5101,
  "170": 5102,
  "1936": 5103,
  "Test": 5104,
  "birds": 5105,
  "evident": 5106,
  "exactly": 5107,
  "flowers": 5108,
  "hen": 5109,
  "nose": 5110,
  "66": 5111,
  "88": 5112,
  "Augustus": 5113,
  "Secret": 5114,
  "cam": 5115,
  "considerable": 5116,
  "isham": 5117,
  "questions": 5118,
  "spired": 5119,
  "18th": 5120,
  "Techn": 5121,
  "council": 5122,
  "furn": 5123,
  "grown": 5124,
  "intel": 5125,
  "mixed": 5126,
  "playw": 5127,
  "suffered": 5128,
  "treated": 5129,
  "alive": 5130,
  "ament": 5131,
  "ethnic": 5132,
  "feelings": 5133,
  "liked": 5134,
  "shared": 5135,
  "wished": 5136,
  "1921": 5137,
  "Musk": 5138,
  "Nic": 5139,
  "aus": 5140,
  "ua": 5141,
  "bottom": 5142,
  "carriage": 5143,
  "neighbour": 5144,
  "opposite": 5145,
  "orph": 5146,
  "pard": 5147,
  "Over": 5148,
  "activities": 5149,
  "musical": 5150,
  "thoughts": 5151,
  "uter": 5152,
  "2023": 5153,
  "Holy": 5154,
  "Ver": 5155,
  "sec": 5156,
  "arc": 5157,
  "bread": 5158,
  "commit": 5159,
  "financial": 5160,
  "gest": 5161,
  "hockey": 5162,
  "isions": 5163,
  "operating": 5164,
  "perior": 5165,
  "throne": 5166,
  "utter": 5167,
  "Ev": 5168,
  "arts": 5169,
  "oration": 5170,
  "asion": 5171,
  "Found": 5172,
  "Hun": 5173,
  "gry": 5174,
  "OR": 5175,
  "NA": 5176,
  "Organ": 5177,
  "Supreme": 5178,
  "gency": 5179,
  "shop": 5180,
  "university": 5181,
  "Bor": 5182,
  "Young": 5183,
  "dia": 5184,
  "security": 5185,
  "signs": 5186,
  "ading": 5187,
  "apping": 5188,
  "intr": 5189,
  "keeping": 5190,
  "plat": 5191,
  "rane": 5192,
  "reasons": 5193,
  "satisfied": 5194,
  "stranger": 5195,
  "tar": 5196,
  "1957": 5197,
  "Tal": 5198,
  "consum": 5199,
  "duty": 5200,
  "employed": 5201,
  "enate": 5202,
  "gentlemen": 5203,
  "AOL": 5204,
  "Maced": 5205,
  "Muskete": 5206,
  "Oxford": 5207,
  "Professor": 5208,
  "Tor": 5209,
  "Three": 5210,
  "cricke": 5211,
  "inhib": 5212,
  "instruct": 5213,
  "noise": 5214,
  "producing": 5215,
  "serving": 5216,
  "1927": 5217,
  "Anne": 5218,
  "polar": 5219,
  "violence": 5220,
  "Among": 5221,
  "Collins": 5222,
  "Flight": 5223,
  "Liber": 5224,
  "consists": 5225,
  "gger": 5226,
  "guns": 5227,
  "blow": 5228,
  "perceived": 5229,
  "rising": 5230,
  "stell": 5231,
  "stitution": 5232,
  "travell": 5233,
  "1949": 5234,
  "Group": 5235,
  "Lucy": 5236,
  "Sum": 5237,
  "adapt": 5238,
  "cricketer": 5239,
  "ension": 5240,
  "bid": 5241,
  "slightly": 5242,
  "1922": 5243,
  "1990s": 5244,
  "Gal": 5245,
  "Mont": 5246,
  "Sax": 5247,
  "categ": 5248,
  "circumstances": 5249,
  "freedom": 5250,
  "kno": 5251,
  "maxim": 5252,
  "pieces": 5253,
  "spite": 5254,
  "Dire": 5255,
  "Hungary": 5256,
  "Once": 5257,
  "Spider": 5258,
  "ii": 5259,
  "Jul": 5260,
  "Georg": 5261,
  "san": 5262,
  "ifically": 5263,
  "judge": 5264,
  "mov": 5265,
  "otic": 5266,
  "phy": 5267,
  "therap": 5268,
  "Tro": 5269,
  "Ay": 5270,
  "Amiga": 5271,
  "Department": 5272,
  "Haw": 5273,
  "Labor": 5274,
  "Nat": 5275,
  "Ur": 5276,
  "controlled": 5277,
  "electrons": 5278,
  "fold": 5279,
  "eight": 5280,
  "hammad": 5281,
  "inher": 5282,
  "ress": 5283,
  "wait": 5284,
  "Arkansas": 5285,
  "Wel": 5286,
  "architecture": 5287,
  "commander": 5288,
  "conson": 5289,
  "intellect": 5290,
  "job": 5291,
  "justice": 5292,
  "vehicles": 5293,
  "Helsing": 5294,
  "Lake": 5295,
  "Lee": 5296,
  "connect": 5297,
  "dream": 5298,
  "eager": 5299,
  "notable": 5300,
  "subsequently": 5301,
  "1923": 5302,
  "Cat": 5303,
  "Cambridge": 5304,
  "administration": 5305,
  "arbit": 5306,
  "atever": 5307,
  "chosen": 5308,
  "foc": 5309,
  "miles": 5310,
  "negie": 5311,
  "pup": 5312,
  "proto": 5313,
  "revolution": 5314,
  "solid": 5315,
  "watched": 5316,
  "Pac": 5317,
  "bless": 5318,
  "carrier": 5319,
  "confess": 5320,
  "passion": 5321,
  "please": 5322,
  "statement": 5323,
  "1934": 5324,
  "Hon": 5325,
  "Havisham": 5326,
  "Khan": 5327,
  "Parliament": 5328,
  "broadcast": 5329,
  "causes": 5330,
  "eper": 5331,
  "gall": 5332,
  "opin": 5333,
  "opinion": 5334,
  "parties": 5335,
  "preced": 5336,
  "resolution": 5337,
  "unable": 5338,
  "vessel": 5339,
  "Carnegie": 5340,
  "anthropol": 5341,
  "cous": 5342,
  "conducted": 5343,
  "enger": 5344,
  "entially": 5345,
  "prefer": 5346,
  "firmed": 5347,
  "logy": 5348,
  "marry": 5349,
  "quarters": 5350,
  "1910": 5351,
  "1935": 5352,
  "Sult": 5353,
  "ifying": 5354,
  "learning": 5355,
  "nice": 5356,
  "ruled": 5357,
  "shore": 5358,
  "suggests": 5359,
  "Antar": 5360,
  "Tim": 5361,
  "Wales": 5362,
  "advertising": 5363,
  "ami": 5364,
  "ado": 5365,
  "voc": 5366,
  "decor": 5367,
  "grace": 5368,
  "icts": 5369,
  "oles": 5370,
  "particles": 5371,
  "physicist": 5372,
  "slavery": 5373,
  "theat": 5374,
  "younger": 5375,
  "Achilles": 5376,
  "BM": 5377,
  "Fresnel": 5378,
  "burst": 5379,
  "conv": 5380,
  "defense": 5381,
  "fill": 5382,
  "missions": 5383,
  "visited": 5384,
  "Alpha": 5385,
  "Cer": 5386,
  "Div": 5387,
  "Sing": 5388,
  "antly": 5389,
  "bud": 5390,
  "contained": 5391,
  "fought": 5392,
  "intelligence": 5393,
  "leep": 5394,
  "persons": 5395,
  "price": 5396,
  "significantly": 5397,
  "tennis": 5398,
  "twelve": 5399,
  "weather": 5400,
  "Hind": 5401,
  "Sultan": 5402,
  "abilities": 5403,
  "angular": 5404,
  "difficulty": 5405,
  "grass": 5406,
  "tall": 5407,
  "nut": 5408,
  "obtained": 5409,
  "papers": 5410,
  "tong": 5411,
  "Jona": 5412,
  "Jour": 5413,
  "Stand": 5414,
  "applications": 5415,
  "argument": 5416,
  "article": 5417,
  "inian": 5418,
  "notice": 5419,
  "otherwise": 5420,
  "ski": 5421,
  "versions": 5422,
  "1917": 5423,
  "1932": 5424,
  "1980s": 5425,
  "Bank": 5426,
  "Dickon": 5427,
  "Jonathan": 5428,
  "Little": 5429,
  "Silver": 5430,
  "cabin": 5431,
  "companied": 5432,
  "constructed": 5433,
  "device": 5434,
  "explained": 5435,
  "failure": 5436,
  "holds": 5437,
  "officers": 5438,
  "resem": 5439,
  "songs": 5440,
  "supposed": 5441,
  "winning": 5442,
  "Maria": 5443,
  "Mexico": 5444,
  "Wallace": 5445,
  "advance": 5446,
  "angel": 5447,
  "ceased": 5448,
  "connection": 5449,
  "description": 5450,
  "equivalent": 5451,
  "extremely": 5452,
  "hr": 5453,
  "Bu": 5454,
  "museum": 5455,
  "persu": 5456,
  "plans": 5457,
  "regarding": 5458,
  "warded": 5459,
  "Bes": 5460,
  "Rock": 5461,
  "abstr": 5462,
  "acknow": 5463,
  "dedicated": 5464,
  "hast": 5465,
  "narr": 5466,
  "officially": 5467,
  "paralle": 5468,
  "records": 5469,
  "Az": 5470,
  "Had": 5471,
  "Protest": 5472,
  "Rel": 5473,
  "Sk": 5474,
  "arose": 5475,
  "axim": 5476,
  "communication": 5477,
  "dust": 5478,
  "heavily": 5479,
  "imperial": 5480,
  "inspired": 5481,
  "interpre": 5482,
  "otes": 5483,
  "upun": 5484,
  "walking": 5485,
  "Hill": 5486,
  "brand": 5487,
  "workers": 5488,
  "1951": 5489,
  "Age": 5490,
  "Did": 5491,
  "aeus": 5492,
  "aluminium": 5493,
  "cuis": 5494,
  "finding": 5495,
  "happiness": 5496,
  "opposition": 5497,
  "plate": 5498,
  "prime": 5499,
  "unique": 5500,
  "unless": 5501,
  "1953": 5502,
  "Hitch": 5503,
  "Men": 5504,
  "nig": 5505,
  "reput": 5506,
  "suspect": 5507,
  "Governor": 5508,
  "Rand": 5509,
  "SE": 5510,
  "68": 5511,
  "ON": 5512,
  "79": 5513,
  "AMD": 5514,
  "64": 5515,
  "1st": 5516,
  "85": 5517,
  "accompanied": 5518,
  "affection": 5519,
  "begins": 5520,
  "experienced": 5521,
  "shel": 5522,
  "Abraham": 5523,
  "Auto": 5524,
  "Gi": 5525,
  "bran": 5526,
  "Islands": 5527,
  "Out": 5528,
  "laws": 5529,
  "Plan": 5530,
  "sides": 5531,
  "Ray": 5532,
  "apparent": 5533,
  "concluded": 5534,
  "creature": 5535,
  "explan": 5536,
  "fet": 5537,
  "literary": 5538,
  "nur": 5539,
  "pes": 5540,
  "promised": 5541,
  "writings": 5542,
  "Chris": 5543,
  "Government": 5544,
  "Hell": 5545,
  "Science": 5546,
  "aqu": 5547,
  "anning": 5548,
  "application": 5549,
  "couple": 5550,
  "ensus": 5551,
  "mick": 5552,
  "perfectly": 5553,
  "sad": 5554,
  "steel": 5555,
  "umes": 5556,
  "AG": 5557,
  "Agass": 5558,
  "Langu": 5559,
  "Sher": 5560,
  "Such": 5561,
  "bag": 5562,
  "cave": 5563,
  "feed": 5564,
  "kings": 5565,
  "kiss": 5566,
  "online": 5567,
  "stad": 5568,
  "older": 5569,
  "1970s": 5570,
  "Arm": 5571,
  "Danish": 5572,
  "Na": 5573,
  "Say": 5574,
  "Women": 5575,
  "ani": 5576,
  "Far": 5577,
  "attered": 5578,
  "bind": 5579,
  "capacity": 5580,
  "descent": 5581,
  "grat": 5582,
  "uit": 5583,
  "Jes": 5584,
  "neur": 5585,
  "Rad": 5586,
  "pse": 5587,
  "Christie": 5588,
  "Common": 5589,
  "Crowley": 5590,
  "Gard": 5591,
  "Republican": 5592,
  "causing": 5593,
  "calls": 5594,
  "destru": 5595,
  "drag": 5596,
  "locked": 5597,
  "nod": 5598,
  "nobody": 5599,
  "orus": 5600,
  "tas": 5601,
  "Lam": 5602,
  "usalem": 5603,
  "1931": 5604,
  "Felton": 5605,
  "Micro": 5606,
  "Qa": 5607,
  "Rem": 5608,
  "embr": 5609,
  "aced": 5610,
  "combat": 5611,
  "inem": 5612,
  "portr": 5613,
  "student": 5614,
  "Has": 5615,
  "fallen": 5616,
  "ography": 5617,
  "phase": 5618,
  "string": 5619,
  "uted": 5620,
  "wolf": 5621,
  "Ep": 5622,
  "Jerusalem": 5623,
  "Pen": 5624,
  "cup": 5625,
  "descend": 5626,
  "eler": 5627,
  "flat": 5628,
  "notably": 5629,
  "oke": 5630,
  "vous": 5631,
  "Agri": 5632,
  "Christians": 5633,
  "Rog": 5634,
  "Treaty": 5635,
  "aints": 5636,
  "granted": 5637,
  "sword": 5638,
  "Force": 5639,
  "Greg": 5640,
  "Oper": 5641,
  "abortion": 5642,
  "aceae": 5643,
  "agin": 5644,
  "Fagin": 5645,
  "aran": 5646,
  "asi": 5647,
  "alty": 5648,
  "devices": 5649,
  "inhabit": 5650,
  "managed": 5651,
  "nights": 5652,
  "reduce": 5653,
  "slaves": 5654,
  "sorry": 5655,
  "symp": 5656,
  "talked": 5657,
  "Hitchcock": 5658,
  "accompl": 5659,
  "algebraic": 5660,
  "attempts": 5661,
  "featured": 5662,
  "follows": 5663,
  "install": 5664,
  "mi": 5665,
  "oe": 5666,
  "ranean": 5667,
  "separated": 5668,
  "strongly": 5669,
  "survey": 5670,
  "zene": 5671,
  "Schwar": 5672,
  "ayer": 5673,
  "beside": 5674,
  "chet": 5675,
  "compreh": 5676,
  "cycle": 5677,
  "lord": 5678,
  "principal": 5679,
  "speakers": 5680,
  "subsequent": 5681,
  "1912": 5682,
  "Cau": 5683,
  "Hebrew": 5684,
  "absence": 5685,
  "akh": 5686,
  "branches": 5687,
  "dex": 5688,
  "decades": 5689,
  "iege": 5690,
  "nanda": 5691,
  "pill": 5692,
  "rooms": 5693,
  "technique": 5694,
  "thousands": 5695,
  "usage": 5696,
  "victim": 5697,
  "witness": 5698,
  "worn": 5699,
  "worse": 5700,
  "Aur": 5701,
  "Rose": 5702,
  "Virginia": 5703,
  "Wem": 5704,
  "Wind": 5705,
  "atol": 5706,
  "expanded": 5707,
  "gers": 5708,
  "rig": 5709,
  "mous": 5710,
  "management": 5711,
  "mathematical": 5712,
  "oy": 5713,
  "relief": 5714,
  "superior": 5715,
  "ushing": 5716,
  "zero": 5717,
  "Dist": 5718,
  "Netherlands": 5719,
  "Pho": 5720,
  "Sid": 5721,
  "Turing": 5722,
  "citizens": 5723,
  "currently": 5724,
  "electro": 5725,
  "existing": 5726,
  "fety": 5727,
  "fancy": 5728,
  "fleet": 5729,
  "hetamine": 5730,
  "pick": 5731,
  "resources": 5732,
  "safety": 5733,
  "tribes": 5734,
  "yard": 5735,
  "Anatol": 5736,
  "Asian": 5737,
  "CP": 5738,
  "Hal": 5739,
  "stead": 5740,
  "Tenn": 5741,
  "ache": 5742,
  "oth": 5743,
  "Fo": 5744,
  "algorithm": 5745,
  "encies": 5746,
  "issued": 5747,
  "stir": 5748,
  "umed": 5749,
  "vowel": 5750,
  "weapons": 5751,
  "Bid": 5752,
  "Cup": 5753,
  "Mot": 5754,
  "Maj": 5755,
  "Off": 5756,
  "activist": 5757,
  "administrative": 5758,
  "doll": 5759,
  "ighter": 5760,
  "immig": 5761,
  "instruments": 5762,
  "thed": 5763,
  "tox": 5764,
  "alkali": 5765,
  "fix": 5766,
  "faction": 5767,
  "rare": 5768,
  "physician": 5769,
  "remembered": 5770,
  "Lev": 5771,
  "Mir": 5772,
  "Newton": 5773,
  "Wemmick": 5774,
  "aven": 5775,
  "aware": 5776,
  "differences": 5777,
  "factors": 5778,
  "hism": 5779,
  "itism": 5780,
  "putting": 5781,
  "roof": 5782,
  "scarcely": 5783,
  "surrounding": 5784,
  "1913": 5785,
  "Agripp": 5786,
  "Arsen": 5787,
  "Mexican": 5788,
  "adult": 5789,
  "cules": 5790,
  "gam": 5791,
  "goal": 5792,
  "patient": 5793,
  "situ": 5794,
  "smoke": 5795,
  "jum": 5796,
  "1911": 5797,
  "Though": 5798,
  "accus": 5799,
  "colonies": 5800,
  "extent": 5801,
  "images": 5802,
  "scientists": 5803,
  "steam": 5804,
  "upuncture": 5805,
  "waited": 5806,
  "Mediter": 5807,
  "Through": 5808,
  "actual": 5809,
  "carrying": 5810,
  "comfortable": 5811,
  "march": 5812,
  "municip": 5813,
  "playwright": 5814,
  "rejected": 5815,
  "wrest": 5816,
  "175": 5817,
  "1916": 5818,
  "Love": 5819,
  "Senate": 5820,
  "Ul": 5821,
  "capture": 5822,
  "dated": 5823,
  "drugs": 5824,
  "laure": 5825,
  "medieval": 5826,
  "owners": 5827,
  "parents": 5828,
  "rapidly": 5829,
  "specifically": 5830,
  "Basil": 5831,
  "DNA": 5832,
  "Mes": 5833,
  "acquired": 5834,
  "coal": 5835,
  "demo": 5836,
  "gal": 5837,
  "faced": 5838,
  "ials": 5839,
  "institutions": 5840,
  "iversal": 5841,
  "phenomen": 5842,
  "quid": 5843,
  "secondary": 5844,
  "IT": 5845,
  "Mediterranean": 5846,
  "Os": 5847,
  "amental": 5848,
  "darkness": 5849,
  "orient": 5850,
  "territories": 5851,
  "wig": 5852,
  "Pap": 5853,
  "Qaeda": 5854,
  "Up": 5855,
  "aunt": 5856,
  "assumed": 5857,
  "shout": 5858,
  "translation": 5859,
  "uscript": 5860,
  "Ira": 5861,
  "agan": 5862,
  "arming": 5863,
  "chann": 5864,
  "compat": 5865,
  "covering": 5866,
  "cuisine": 5867,
  "daily": 5868,
  "edy": 5869,
  "evil": 5870,
  "everybody": 5871,
  "showing": 5872,
  "sounds": 5873,
  "specim": 5874,
  "struggl": 5875,
  "tal": 5876,
  "sir": 5877,
  "tum": 5878,
  "uous": 5879,
  "windows": 5880,
  "Project": 5881,
  "SS": 5882,
  "Theod": 5883,
  "ais": 5884,
  "fal": 5885,
  "appropri": 5886,
  "exchange": 5887,
  "photograph": 5888,
  "proced": 5889,
  "rants": 5890,
  "recently": 5891,
  "spirits": 5892,
  "syll": 5893,
  "throat": 5894,
  "Christianity": 5895,
  "Eth": 5896,
  "Miller": 5897,
  "Patri": 5898,
  "fault": 5899,
  "ieties": 5900,
  "introduction": 5901,
  "milit": 5902,
  "practices": 5903,
  "sector": 5904,
  "traditions": 5905,
  "users": 5906,
  "vote": 5907,
  "Berlin": 5908,
  "Writ": 5909,
  "awarded": 5910,
  "amph": 5911,
  "dition": 5912,
  "dialects": 5913,
  "extern": 5914,
  "fuel": 5915,
  "gradually": 5916,
  "mud": 5917,
  "negot": 5918,
  "suspic": 5919,
  "teaching": 5920,
  "Angola": 5921,
  "Charlot": 5922,
  "Health": 5923,
  "OF": 5924,
  "brow": 5925,
  "context": 5926,
  "details": 5927,
  "equipment": 5928,
  "headed": 5929,
  "hurt": 5930,
  "leadership": 5931,
  "ongside": 5932,
  "Mun": 5933,
  "Nations": 5934,
  "agricultural": 5935,
  "amin": 5936,
  "Ba": 5937,
  "aret": 5938,
  "assembly": 5939,
  "conquest": 5940,
  "concerned": 5941,
  "crime": 5942,
  "familiar": 5943,
  "huge": 5944,
  "hardware": 5945,
  "momentum": 5946,
  "monsieur": 5947,
  "Between": 5948,
  "Estella": 5949,
  "Les": 5950,
  "Pier": 5951,
  "affairs": 5952,
  "calling": 5953,
  "chlor": 5954,
  "interested": 5955,
  "ione": 5956,
  "conver": 5957,
  "looks": 5958,
  "matic": 5959,
  "posit": 5960,
  "providing": 5961,
  "resolved": 5962,
  "slave": 5963,
  "Dig": 5964,
  "Ire": 5965,
  "Ireland": 5966,
  "Kuro": 5967,
  "achieved": 5968,
  "lamp": 5969,
  "naturally": 5970,
  "settlement": 5971,
  "successfully": 5972,
  "universe": 5973,
  "Ken": 5974,
  "yah": 5975,
  "Rev": 5976,
  "actin": 5977,
  "brid": 5978,
  "catch": 5979,
  "gain": 5980,
  "income": 5981,
  "increasingly": 5982,
  "keys": 5983,
  "secut": 5984,
  "Aunt": 5985,
  "Confederate": 5986,
  "Pop": 5987,
  "abandoned": 5988,
  "advoc": 5989,
  "appeal": 5990,
  "asleep": 5991,
  "exec": 5992,
  "fant": 5993,
  "hunting": 5994,
  "improved": 5995,
  "itable": 5996,
  "sust": 5997,
  "substant": 5998,
  "tun": 5999,
  "user": 6000,
  "whatever": 6001,
  "Kemp": 6002,
  "Pet": 6003,
  "Pacific": 6004,
  "Tele": 6005,
  "uba": 6006,
  "Winter": 6007,
  "attributed": 6008,
  "circle": 6009,
  "developing": 6010,
  "extensive": 6011,
  "flag": 6012,
  "iod": 6013,
  "needs": 6014,
  "uten": 6015,
  "ASC": 6016,
  "Turkey": 6017,
  "afternoon": 6018,
  "discipl": 6019,
  "doors": 6020,
  "philosophers": 6021,
  "tender": 6022,
  "watching": 6023,
  "afford": 6024,
  "brothers": 6025,
  "collected": 6026,
  "iate": 6027,
  "incess": 6028,
  "intention": 6029,
  "los": 6030,
  "magazine": 6031,
  "sawa": 6032,
  "seized": 6033,
  "surprised": 6034,
  "trait": 6035,
  "zed": 6036,
  "cli": 6037,
  "Addition": 6038,
  "Agassi": 6039,
  "Archae": 6040,
  "Boston": 6041,
  "Charlotte": 6042,
  "Fried": 6043,
  "Lion": 6044,
  "Look": 6045,
  "Our": 6046,
  "Tod": 6047,
  "ambig": 6048,
  "ibn": 6049,
  "mathematics": 6050,
  "neighbor": 6051,
  "ora": 6052,
  "radiation": 6053,
  "seus": 6054,
  "swim": 6055,
  "Luther": 6056,
  "Ocean": 6057,
  "Schwarzene": 6058,
  "Schwarzenegger": 6059,
  "animation": 6060,
  "bore": 6061,
  "changing": 6062,
  "cryst": 6063,
  "describes": 6064,
  "driven": 6065,
  "marks": 6066,
  "pleased": 6067,
  "pover": 6068,
  "reply": 6069,
  "stan": 6070,
  "vac": 6071,
  "Net": 6072,
  "Ru": 6073,
  "iger": 6074,
  "Star": 6075,
  "Very": 6076,
  "actors": 6077,
  "agement": 6078,
  "anxious": 6079,
  "cars": 6080,
  "chemistry": 6081,
  "confirmed": 6082,
  "digital": 6083,
  "inction": 6084,
  "patients": 6085,
  "retired": 6086,
  "seconds": 6087,
  "tics": 6088,
  "typical": 6089,
  "Airl": 6090,
  "Aarhus": 6091,
  "Bre": 6092,
  "ET": 6093,
  "PS": 6094,
  "Jones": 6095,
  "Kurosawa": 6096,
  "Ob": 6097,
  "taining": 6098,
  "servant": 6099,
  "Public": 6100,
  "Valley": 6101,
  "Zeus": 6102,
  "arrival": 6103,
  "arsenic": 6104,
  "compass": 6105,
  "dys": 6106,
  "seas": 6107,
  "essential": 6108,
  "flew": 6109,
  "illi": 6110,
  "rance": 6111,
  "valley": 6112,
  "worldwide": 6113,
  "Iraq": 6114,
  "Slo": 6115,
  "Tra": 6116,
  "core": 6117,
  "alongside": 6118,
  "competition": 6119,
  "endeav": 6120,
  "expedition": 6121,
  "ki": 6122,
  "Ko": 6123,
  "medium": 6124,
  "newly": 6125,
  "ova": 6126,
  "select": 6127,
  "uct": 6128,
  "Besides": 6129,
  "Father": 6130,
  "Native": 6131,
  "attached": 6132,
  "attended": 6133,
  "besides": 6134,
  "compr": 6135,
  "crossed": 6136,
  "detect": 6137,
  "distribution": 6138,
  "domestic": 6139,
  "false": 6140,
  "influential": 6141,
  "itchen": 6142,
  "mobile": 6143,
  "publication": 6144,
  "reports": 6145,
  "sales": 6146,
  "symptoms": 6147,
  "umen": 6148,
  "Ages": 6149,
  "Fle": 6150,
  "Wat": 6151,
  "acles": 6152,
  "aned": 6153,
  "components": 6154,
  "converted": 6155,
  "enny": 6156,
  "hearing": 6157,
  "movements": 6158,
  "nie": 6159,
  "oples": 6160,
  "oring": 6161,
  "sail": 6162,
  "organic": 6163,
  "practical": 6164,
  "projects": 6165,
  "rations": 6166,
  "Bol": 6167,
  "Develo": 6168,
  "Independ": 6169,
  "Muhammad": 6170,
  "Ve": 6171,
  "attacked": 6172,
  "brown": 6173,
  "instrument": 6174,
  "ladies": 6175,
  "phr": 6176,
  "poison": 6177,
  "protest": 6178,
  "shortly": 6179,
  "successor": 6180,
  "uzz": 6181,
  "1908": 6182,
  "Airlines": 6183,
  "Caes": 6184,
  "Colon": 6185,
  "Death": 6186,
  "Film": 6187,
  "Korean": 6188,
  "ammonia": 6189,
  "authorities": 6190,
  "cuit": 6191,
  "damage": 6192,
  "dressed": 6193,
  "icit": 6194,
  "inople": 6195,
  "Constantinople": 6196,
  "ja": 6197,
  "iced": 6198,
  "igan": 6199,
  "placing": 6200,
  "programming": 6201,
  "touched": 6202,
  "wed": 6203,
  "Eston": 6204,
  "Stephen": 6205,
  "advice": 6206,
  "ares": 6207,
  "cen": 6208,
  "excell": 6209,
  "invasion": 6210,
  "particle": 6211,
  "prove": 6212,
  "streets": 6213,
  "veget": 6214,
  "17th": 6215,
  "Isa": 6216,
  "Rah": 6217,
  "anybody": 6218,
  "bic": 6219,
  "breast": 6220,
  "igenous": 6221,
  "infect": 6222,
  "preserved": 6223,
  "rowing": 6224,
  "ture": 6225,
  "violent": 6226,
  "About": 6227,
  "Have": 6228,
  "Hay": 6229,
  "Journal": 6230,
  "Massoud": 6231,
  "acre": 6232,
  "aggers": 6233,
  "aman": 6234,
  "composition": 6235,
  "dio": 6236,
  "drove": 6237,
  "emerged": 6238,
  "heaven": 6239,
  "invent": 6240,
  "issance": 6241,
  "manufactur": 6242,
  "resign": 6243,
  "teams": 6244,
  "tongue": 6245,
  "varieties": 6246,
  "Ald": 6247,
  "Buddhist": 6248,
  "Cross": 6249,
  "Schopen": 6250,
  "bare": 6251,
  "bent": 6252,
  "logical": 6253,
  "possibility": 6254,
  "prisoners": 6255,
  "thrown": 6256,
  "uan": 6257,
  "vention": 6258,
  "voy": 6259,
  "1915": 6260,
  "Major": 6261,
  "Perhaps": 6262,
  "Schopenha": 6263,
  "Super": 6264,
  "fine": 6265,
  "male": 6266,
  "Welsh": 6267,
  "brea": 6268,
  "commission": 6269,
  "creating": 6270,
  "excess": 6271,
  "exception": 6272,
  "intellectual": 6273,
  "isher": 6274,
  "pride": 6275,
  "rolled": 6276,
  "stones": 6277,
  "Human": 6278,
  "Romanian": 6279,
  "agriculture": 6280,
  "cort": 6281,
  "isol": 6282,
  "clin": 6283,
  "colum": 6284,
  "dreadful": 6285,
  "external": 6286,
  "hed": 6287,
  "krain": 6288,
  "Ukrain": 6289,
  "listened": 6290,
  "mally": 6291,
  "matters": 6292,
  "pled": 6293,
  "refr": 6294,
  "semi": 6295,
  "supporting": 6296,
  "uniform": 6297,
  "urg": 6298,
  "itated": 6299,
  "Ele": 6300,
  "Secretary": 6301,
  "ateur": 6302,
  "audience": 6303,
  "bishops": 6304,
  "committed": 6305,
  "explos": 6306,
  "inations": 6307,
  "elim": 6308,
  "upper": 6309,
  "mounted": 6310,
  "novels": 6311,
  "sake": 6312,
  "theories": 6313,
  "Edu": 6314,
  "cation": 6315,
  "Gins": 6316,
  "Portugal": 6317,
  "apted": 6318,
  "arranged": 6319,
  "cub": 6320,
  "celebrated": 6321,
  "classified": 6322,
  "deck": 6323,
  "depending": 6324,
  "experiments": 6325,
  "inth": 6326,
  "mart": 6327,
  "opera": 6328,
  "pus": 6329,
  "rick": 6330,
  "Fred": 6331,
  "irk": 6332,
  "Hop": 6333,
  "struggle": 6334,
  "worst": 6335,
  "Constitution": 6336,
  "Kent": 6337,
  "Music": 6338,
  "Schopenhauer": 6339,
  "assistance": 6340,
  "batt": 6341,
  "background": 6342,
  "colonial": 6343,
  "consult": 6344,
  "consisting": 6345,
  "designated": 6346,
  "formerly": 6347,
  "insula": 6348,
  "jection": 6349,
  "kitchen": 6350,
  "ko": 6351,
  "loud": 6352,
  "luck": 6353,
  "mosphere": 6354,
  "presently": 6355,
  "printed": 6356,
  "strike": 6357,
  "telling": 6358,
  "Algeria": 6359,
  "Bible": 6360,
  "Cre": 6361,
  "95": 6362,
  "Greeks": 6363,
  "Vis": 6364,
  "Aal": 6365,
  "count": 6366,
  "accounts": 6367,
  "acknowled": 6368,
  "anyone": 6369,
  "dan": 6370,
  "falling": 6371,
  "hide": 6372,
  "hole": 6373,
  "pig": 6374,
  "mental": 6375,
  "depart": 6376,
  "mountains": 6377,
  "provinces": 6378,
  "requires": 6379,
  "secure": 6380,
  "variable": 6381,
  "wan": 6382,
  "waves": 6383,
  "Ada": 6384,
  "Ginsberg": 6385,
  "Sud": 6386,
  "Tha": 6387,
  "Theat": 6388,
  "concentration": 6389,
  "fier": 6390,
  "historians": 6391,
  "miser": 6392,
  "missed": 6393,
  "patron": 6394,
  "Agr": 6395,
  "Cop": 6396,
  "Der": 6397,
  "Napole": 6398,
  "gradu": 6399,
  "increases": 6400,
  "ingham": 6401,
  "Will": 6402,
  "inhabitants": 6403,
  "rushed": 6404,
  "revealed": 6405,
  "ultimately": 6406,
  "wonderful": 6407,
  "Andor": 6408,
  "Classical": 6409,
  "MP": 6410,
  "Serb": 6411,
  "accused": 6412,
  "amino": 6413,
  "antisem": 6414,
  "conven": 6415,
  "dates": 6416,
  "destruction": 6417,
  "fel": 6418,
  "gel": 6419,
  "identity": 6420,
  "lyn": 6421,
  "ounce": 6422,
  "split": 6423,
  "toler": 6424,
  "tribut": 6425,
  "umph": 6426,
  "ums": 6427,
  "enth": 6428,
  "vas": 6429,
  "odd": 6430,
  "Centaur": 6431,
  "Electron": 6432,
  "Jaggers": 6433,
  "adapted": 6434,
  "amond": 6435,
  "Gar": 6436,
  "bac": 6437,
  "carefully": 6438,
  "invented": 6439,
  "listed": 6440,
  "manuscript": 6441,
  "posure": 6442,
  "poverty": 6443,
  "principles": 6444,
  "ruler": 6445,
  "tomb": 6446,
  "16th": 6447,
  "BBC": 6448,
  "CD": 6449,
  "Mina": 6450,
  "amphetamine": 6451,
  "asser": 6452,
  "atherine": 6453,
  "ciation": 6454,
  "clearly": 6455,
  "convin": 6456,
  "consistent": 6457,
  "eman": 6458,
  "grees": 6459,
  "itim": 6460,
  "Leg": 6461,
  "ossil": 6462,
  "partly": 6463,
  "pianist": 6464,
  "pronounced": 6465,
  "rendered": 6466,
  "vard": 6467,
  "Bus": 6468,
  "Gulf": 6469,
  "Golden": 6470,
  "Marg": 6471,
  "Open": 6472,
  "MS": 6473,
  "99": 6474,
  "Sunday": 6475,
  "Walter": 6476,
  "Yet": 6477,
  "approved": 6478,
  "axis": 6479,
  "bits": 6480,
  "confidence": 6481,
  "flying": 6482,
  "heim": 6483,
  "myst": 6484,
  "nearby": 6485,
  "roughly": 6486,
  "sigh": 6487,
  "sod": 6488,
  "waters": 6489,
  "Top": 6490,
  "acupuncture": 6491,
  "burning": 6492,
  "courts": 6493,
  "egg": 6494,
  "genetic": 6495,
  "lers": 6496,
  "lake": 6497,
  "oxid": 6498,
  "pical": 6499,
  "physics": 6500,
  "rebell": 6501,
  "stim": 6502,
  "store": 6503,
  "therapy": 6504,
  "Arts": 6505,
  "Bul": 6506,
  "Post": 6507,
  "Tennes": 6508,
  "Territ": 6509,
  "births": 6510,
  "burgh": 6511,
  "conductor": 6512,
  "exclaimed": 6513,
  "fingers": 6514,
  "elling": 6515,
  "ideal": 6516,
  "ilty": 6517,
  "inate": 6518,
  "liquid": 6519,
  "politics": 6520,
  "processes": 6521,
  "suppor": 6522,
  "traditionally": 6523,
  "woods": 6524,
  "1950s": 6525,
  "Aston": 6526,
  "Angeles": 6527,
  "Fal": 6528,
  "cousin": 6529,
  "degrees": 6530,
  "demanded": 6531,
  "infinite": 6532,
  "organized": 6533,
  "phil": 6534,
  "sect": 6535,
  "proud": 6536,
  "thrust": 6537,
  "Freder": 6538,
  "Gall": 6539,
  "Imper": 6540,
  "Master": 6541,
  "Matt": 6542,
  "RE": 6543,
  "amongst": 6544,
  "convinced": 6545,
  "formally": 6546,
  "insist": 6547,
  "itage": 6548,
  "possession": 6549,
  "racing": 6550,
  "termine": 6551,
  "wil": 6552,
  "yan": 6553,
  "1903": 6554,
  "Av": 6555,
  "Afon": 6556,
  "Afonso": 6557,
  "Cze": 6558,
  "Dou": 6559,
  "Service": 6560,
  "angry": 6561,
  "brevi": 6562,
  "osph": 6563,
  "railway": 6564,
  "reality": 6565,
  "velocity": 6566,
  "worthy": 6567,
  "pra": 6568,
  "ASCII": 6569,
  "Aurang": 6570,
  "Hug": 6571,
  "Jac": 6572,
  "Johann": 6573,
  "Kyi": 6574,
  "Prov": 6575,
  "Similar": 6576,
  "Tennessee": 6577,
  "Upon": 6578,
  "adel": 6579,
  "assigned": 6580,
  "awa": 6581,
  "determine": 6582,
  "devoted": 6583,
  "leads": 6584,
  "osis": 6585,
  "preferred": 6586,
  "remarked": 6587,
  "tight": 6588,
  "yards": 6589,
  "Dun": 6590,
  "sin": 6591,
  "Lydia": 6592,
  "Si": 6593,
  "antip": 6594,
  "conventional": 6595,
  "cris": 6596,
  "faint": 6597,
  "fifth": 6598,
  "hospital": 6599,
  "icago": 6600,
  "Chicago": 6601,
  "incident": 6602,
  "mac": 6603,
  "measured": 6604,
  "neuro": 6605,
  "ologies": 6606,
  "paintings": 6607,
  "patri": 6608,
  "recovered": 6609,
  "rogen": 6610,
  "standards": 6611,
  "strict": 6612,
  "Bob": 6613,
  "Grant": 6614,
  "Han": 6615,
  "Jesus": 6616,
  "Oct": 6617,
  "Scare": 6618,
  "Theatre": 6619,
  "VII": 6620,
  "apse": 6621,
  "countenance": 6622,
  "graphics": 6623,
  "ishes": 6624,
  "aston": 6625,
  "mers": 6626,
  "sequence": 6627,
  "tos": 6628,
  "emen": 6629,
  "uset": 6630,
  "Adam": 6631,
  "Ambrose": 6632,
  "Develop": 6633,
  "Festival": 6634,
  "Fore": 6635,
  "warn": 6636,
  "Hu": 6637,
  "Mme": 6638,
  "Play": 6639,
  "Rahman": 6640,
  "Suu": 6641,
  "agent": 6642,
  "ala": 6643,
  "Ga": 6644,
  "crown": 6645,
  "divine": 6646,
  "fever": 6647,
  "geometry": 6648,
  "idepress": 6649,
  "idespread": 6650,
  "ili": 6651,
  "legitim": 6652,
  "maintained": 6653,
  "orbital": 6654,
  "parallel": 6655,
  "placement": 6656,
  "prompt": 6657,
  "quet": 6658,
  "Cro": 6659,
  "oked": 6660,
  "quietly": 6661,
  "reputation": 6662,
  "rika": 6663,
  "synthesis": 6664,
  "temporary": 6665,
  "Aege": 6666,
  "Bach": 6667,
  "Biddy": 6668,
  "Doug": 6669,
  "Palace": 6670,
  "Rus": 6671,
  "Sa": 6672,
  "_I": 6673,
  "arrested": 6674,
  "drinking": 6675,
  "knife": 6676,
  "pent": 6677,
  "rence": 6678,
  "root": 6679,
  "selected": 6680,
  "server": 6681,
  "1905": 6682,
  "72": 6683,
  "Anglo": 6684,
  "Commission": 6685,
  "Military": 6686,
  "Protestant": 6687,
  "Sciences": 6688,
  "Stan": 6689,
  "antibiotics": 6690,
  "astronomy": 6691,
  "elections": 6692,
  "establishment": 6693,
  "hence": 6694,
  "historic": 6695,
  "km": 6696,
  "laureate": 6697,
  "library": 6698,
  "maid": 6699,
  "manent": 6700,
  "matches": 6701,
  "nick": 6702,
  "peoples": 6703,
  "pole": 6704,
  "pulled": 6705,
  "reflected": 6706,
  "saved": 6707,
  "Columb": 6708,
  "Dam": 6709,
  "Due": 6710,
  "Lun": 6711,
  "Scarecrow": 6712,
  "armies": 6713,
  "cart": 6714,
  "delivered": 6715,
  "goods": 6716,
  "graphic": 6717,
  "horiz": 6718,
  "illin": 6719,
  "indicate": 6720,
  "laughing": 6721,
  "loose": 6722,
  "ows": 6723,
  "render": 6724,
  "represents": 6725,
  "statue": 6726,
  "tied": 6727,
  "Bron": 6728,
  "CSM": 6729,
  "Daniel": 6730,
  "Foot": 6731,
  "Massach": 6732,
  "Massachuset": 6733,
  "bill": 6734,
  "breaking": 6735,
  "finger": 6736,
  "guilty": 6737,
  "hurry": 6738,
  "isters": 6739,
  "listen": 6740,
  "organizations": 6741,
  "roads": 6742,
  "shoulders": 6743,
  "wret": 6744,
  "zeb": 6745,
  "69": 6746,
  "67": 6747,
  "81": 6748,
  "AFL": 6749,
  "Massachusetts": 6750,
  "Phys": 6751,
  "abled": 6752,
  "audio": 6753,
  "bark": 6754,
  "benefit": 6755,
  "chess": 6756,
  "contributed": 6757,
  "explanation": 6758,
  "festival": 6759,
  "leap": 6760,
  "lingu": 6761,
  "noticed": 6762,
  "spher": 6763,
  "thirty": 6764,
  "Aung": 6765,
  "Contin": 6766,
  "Kh": 6767,
  "bn": 6768,
  "Nothing": 6769,
  "Var": 6770,
  "approached": 6771,
  "delic": 6772,
  "disappeared": 6773,
  "exists": 6774,
  "imed": 6775,
  "manif": 6776,
  "ested": 6777,
  "maximum": 6778,
  "pushed": 6779,
  "painting": 6780,
  "raise": 6781,
  "1909": 6782,
  "Catherine": 6783,
  "Chief": 6784,
  "Contro": 6785,
  "aphas": 6786,
  "array": 6787,
  "ati": 6788,
  "adm": 6789,
  "atmosphere": 6790,
  "bacteria": 6791,
  "carriers": 6792,
  "classes": 6793,
  "closer": 6794,
  "exclus": 6795,
  "hov": 6796,
  "inity": 6797,
  "merch": 6798,
  "olis": 6799,
  "Rh": 6800,
  "orous": 6801,
  "quantum": 6802,
  "Mars": 6803,
  "Polit": 6804,
  "Social": 6805,
  "Therefore": 6806,
  "aliyah": 6807,
  "ees": 6808,
  "gene": 6809,
  "Eu": 6810,
  "alog": 6811,
  "iana": 6812,
  "outer": 6813,
  "pir": 6814,
  "som": 6815,
  "sisters": 6816,
  "widespread": 6817,
  "Aaliyah": 6818,
  "Austro": 6819,
  "Big": 6820,
  "Christmas": 6821,
  "Development": 6822,
  "Son": 6823,
  "bone": 6824,
  "cad": 6825,
  "uce": 6826,
  "illy": 6827,
  "shr": 6828,
  "illness": 6829,
  "continent": 6830,
  "minim": 6831,
  "modified": 6832,
  "odies": 6833,
  "stein": 6834,
  "ulous": 6835,
  "utenant": 6836,
  "Computer": 6837,
  "Dur": 6838,
  "Georgia": 6839,
  "Hand": 6840,
  "Martha": 6841,
  "Times": 6842,
  "busy": 6843,
  "crack": 6844,
  "deeply": 6845,
  "forgotten": 6846,
  "frequency": 6847,
  "gs": 6848,
  "hurried": 6849,
  "operated": 6850,
  "sprang": 6851,
  "Indeed": 6852,
  "Jef": 6853,
  "Kab": 6854,
  "Luc": 6855,
  "Planchet": 6856,
  "Romans": 6857,
  "Semitic": 6858,
  "Wal": 6859,
  "balance": 6860,
  "calm": 6861,
  "chose": 6862,
  "citizen": 6863,
  "condem": 6864,
  "concerning": 6865,
  "density": 6866,
  "earnest": 6867,
  "enjoyed": 6868,
  "grey": 6869,
  "iest": 6870,
  "cheer": 6871,
  "wart": 6872,
  "ificial": 6873,
  "popularity": 6874,
  "powder": 6875,
  "pregn": 6876,
  "refuge": 6877,
  "scription": 6878,
  "sover": 6879,
  "eign": 6880,
  "solar": 6881,
  "Aus": 6882,
  "Assem": 6883,
  "Aurangzeb": 6884,
  "Poi": 6885,
  "Seven": 6886,
  "Saturn": 6887,
  "aric": 6888,
  "atus": 6889,
  "ceremony": 6890,
  "debate": 6891,
  "ieri": 6892,
  "involves": 6893,
  "nations": 6894,
  "rein": 6895,
  "org": 6896,
  "platform": 6897,
  "poetry": 6898,
  "roots": 6899,
  "sentence": 6900,
  "smiled": 6901,
  "tolic": 6902,
  "1904": 6903,
  "82": 6904,
  "Aalen": 6905,
  "Alexios": 6906,
  "Pto": 6907,
  "Poirot": 6908,
  "Rail": 6909,
  "Ren": 6910,
  "Rodin": 6911,
  "Speer": 6912,
  "avian": 6913,
  "commended": 6914,
  "criminal": 6915,
  "executed": 6916,
  "hem": 6917,
  "isd": 6918,
  "lah": 6919,
  "moder": 6920,
  "renew": 6921,
  "resumed": 6922,
  "unusual": 6923,
  "wet": 6924,
  "wick": 6925,
  "1907": 6926,
  "Astr": 6927,
  "icon": 6928,
  "ABB": 6929,
  "Babyl": 6930,
  "Brazilian": 6931,
  "apparently": 6932,
  "dozen": 6933,
  "entrance": 6934,
  "fifty": 6935,
  "happen": 6936,
  "hoped": 6937,
  "indicated": 6938,
  "kelet": 6939,
  "linked": 6940,
  "polis": 6941,
  "protected": 6942,
  "purpos": 6943,
  "reaching": 6944,
  "subjects": 6945,
  "1906": 6946,
  "APL": 6947,
  "Ibn": 6948,
  "Instead": 6949,
  "Marvel": 6950,
  "Nazi": 6951,
  "Ptole": 6952,
  "adding": 6953,
  "addressed": 6954,
  "bought": 6955,
  "convict": 6956,
  "designer": 6957,
  "disk": 6958,
  "ette": 6959,
  "focused": 6960,
  "infr": 6961,
  "lifted": 6962,
  "officials": 6963,
  "possessed": 6964,
  "solemn": 6965,
  "surrounded": 6966,
  "wheel": 6967,
  "fly": 6968,
  "Agrippina": 6969,
  "Ammon": 6970,
  "Centauri": 6971,
  "Champion": 6972,
  "Estonian": 6973,
  "Imperial": 6974,
  "Lew": 6975,
  "Near": 6976,
  "NFL": 6977,
  "Program": 6978,
  "acceler": 6979,
  "aspects": 6980,
  "bringing": 6981,
  "collabor": 6982,
  "component": 6983,
  "crete": 6984,
  "crying": 6985,
  "facilities": 6986,
  "horn": 6987,
  "interpretation": 6988,
  "involve": 6989,
  "massive": 6990,
  "poll": 6991,
  "proportion": 6992,
  "reactions": 6993,
  "rip": 6994,
  "sports": 6995,
  "solved": 6996,
  "someone": 6997,
  "Grim": 6998,
  "Poland": 6999,
  "aga": 7000,
  "banks": 7001,
  "castle": 7002,
  "daughters": 7003,
  "documents": 7004,
  "expensive": 7005,
  "feared": 7006,
  "labour": 7007,
  "mate": 7008,
  "help": 7009,
  "team": 7010,
  "check": 7011,
  "treaty": 7012,
  "Anatolia": 7013,
  "Mich": 7014,
  "Rights": 7015,
  "Wo": 7016,
  "cancer": 7017,
  "consisted": 7018,
  "greg": 7019,
  "heir": 7020,
  "itan": 7021,
  "nervous": 7022,
  "ocean": 7023,
  "painted": 7024,
  "precise": 7025,
  "prisoner": 7026,
  "purposes": 7027,
  "rupted": 7028,
  "siege": 7029,
  "selection": 7030,
  "strateg": 7031,
  "vania": 7032,
  "visual": 7033,
  "witz": 7034,
  "ause": 7035,
  "Was": 7036,
  "withdraw": 7037,
  "writes": 7038,
  "1600": 7039,
  "ED": 7040,
  "IA": 7041,
  "Fair": 7042,
  "Glo": 7043,
  "Tell": 7044,
  "aria": 7045,
  "athered": 7046,
  "boards": 7047,
  "dat": 7048,
  "environmental": 7049,
  "fundamental": 7050,
  "genus": 7051,
  "iban": 7052,
  "ila": 7053,
  "informed": 7054,
  "involving": 7055,
  "nomin": 7056,
  "produces": 7057,
  "tles": 7058,
  "temperatures": 7059,
  "21st": 7060,
  "Atlas": 7061,
  "Cas": 7062,
  "uran": 7063,
  "Digital": 7064,
  "Foundation": 7065,
  "Sharon": 7066,
  "agreeable": 7067,
  "antidepress": 7068,
  "behavior": 7069,
  "concern": 7070,
  "cratic": 7071,
  "factory": 7072,
  "geograph": 7073,
  "horror": 7074,
  "lasted": 7075,
  "philosophical": 7076,
  "processing": 7077,
  "restaur": 7078,
  "survived": 7079,
  "13th": 7080,
  "ABBA": 7081,
  "Democratic": 7082,
  "Free": 7083,
  "Hans": 7084,
  "Homer": 7085,
  "Peace": 7086,
  "aes": 7087,
  "awn": 7088,
  "cultiv": 7089,
  "despair": 7090,
  "execution": 7091,
  "existed": 7092,
  "glance": 7093,
  "interface": 7094,
  "mechanical": 7095,
  "observations": 7096,
  "occasionally": 7097,
  "ota": 7098,
  "powered": 7099,
  "precip": 7100,
  "sched": 7101,
  "shaped": 7102,
  "singular": 7103,
  "technical": 7104,
  "1902": 7105,
  "52": 7106,
  "Commit": 7107,
  "Muslims": 7108,
  "Nevertheless": 7109,
  "Ram": 7110,
  "Roger": 7111,
  "cod": 7112,
  "dance": 7113,
  "designs": 7114,
  "fossil": 7115,
  "harmon": 7116,
  "ickham": 7117,
  "jurisd": 7118,
  "knees": 7119,
  "measures": 7120,
  "molecules": 7121,
  "myster": 7122,
  "nucleus": 7123,
  "reduc": 7124,
  "tools": 7125,
  "uf": 7126,
  "fled": 7127,
  "tea": 7128,
  "Additionally": 7129,
  "Archimed": 7130,
  "Cha": 7131,
  "Federal": 7132,
  "IBM": 7133,
  "Pel": 7134,
  "Penn": 7135,
  "Rous": 7136,
  "Spart": 7137,
  "escaped": 7138,
  "handed": 7139,
  "illustrator": 7140,
  "oir": 7141,
  "ongo": 7142,
  "plus": 7143,
  "rand": 7144,
  "teacher": 7145,
  "Again": 7146,
  "Andre": 7147,
  "Kel": 7148,
  "MA": 7149,
  "VIII": 7150,
  "Wickham": 7151,
  "association": 7152,
  "biography": 7153,
  "bron": 7154,
  "champion": 7155,
  "deploy": 7156,
  "engers": 7157,
  "Pass": 7158,
  "handsome": 7159,
  "load": 7160,
  "moments": 7161,
  "nik": 7162,
  "normally": 7163,
  "protein": 7164,
  "reducing": 7165,
  "stronger": 7166,
  "thedr": 7167,
  "Domin": 7168,
  "Es": 7169,
  "Poly": 7170,
  "characterized": 7171,
  "coordin": 7172,
  "dangerous": 7173,
  "diag": 7174,
  "dying": 7175,
  "effectively": 7176,
  "incorporated": 7177,
  "lovely": 7178,
  "machines": 7179,
  "murdered": 7180,
  "newspaper": 7181,
  "olas": 7182,
  "recognition": 7183,
  "retreat": 7184,
  "shif": 7185,
  "uced": 7186,
  "ura": 7187,
  "Kit": 7188,
  "Kitty": 7189,
  "vowels": 7190,
  "Avic": 7191,
  "Bapt": 7192,
  "Denmark": 7193,
  "Harvard": 7194,
  "Israeli": 7195,
  "Jeff": 7196,
  "ROM": 7197,
  "alleged": 7198,
  "appropriate": 7199,
  "artistic": 7200,
  "ategy": 7201,
  "exposed": 7202,
  "fired": 7203,
  "golden": 7204,
  "guess": 7205,
  "ifications": 7206,
  "itate": 7207,
  "losing": 7208,
  "monaster": 7209,
  "rag": 7210,
  "rer": 7211,
  "titles": 7212,
  "toxic": 7213,
  "whispered": 7214,
  "Arsenal": 7215,
  "Foreign": 7216,
  "Hann": 7217,
  "Magn": 7218,
  "Online": 7219,
  "Syria": 7220,
  "Thank": 7221,
  "Those": 7222,
  "argues": 7223,
  "bom": 7224,
  "candidate": 7225,
  "category": 7226,
  "conquered": 7227,
  "dating": 7228,
  "friendly": 7229,
  "istry": 7230,
  "neutral": 7231,
  "obey": 7232,
  "phosph": 7233,
  "propag": 7234,
  "scriptions": 7235,
  "stands": 7236,
  "umber": 7237,
  "1861": 7238,
  "Aeg": 7239,
  "Aragon": 7240,
  "Azerbaijani": 7241,
  "Cave": 7242,
  "Cons": 7243,
  "Club": 7244,
  "Hot": 7245,
  "SC": 7246,
  "Taliban": 7247,
  "aboard": 7248,
  "bomb": 7249,
  "cruel": 7250,
  "desired": 7251,
  "displayed": 7252,
  "distinction": 7253,
  "emiss": 7254,
  "esch": 7255,
  "lean": 7256,
  "exceed": 7257,
  "faster": 7258,
  "founding": 7259,
  "ovsky": 7260,
  "Bos": 7261,
  "irin": 7262,
  "cha": 7263,
  "pity": 7264,
  "remind": 7265,
  "sample": 7266,
  "selling": 7267,
  "servants": 7268,
  "ules": 7269,
  "webs": 7270,
  "Beck": 7271,
  "Call": 7272,
  "Campbell": 7273,
  "Econom": 7274,
  "Mi": 7275,
  "Majesty": 7276,
  "Sus": 7277,
  "Stat": 7278,
  "asiatic": 7279,
  "colony": 7280,
  "creatures": 7281,
  "dir": 7282,
  "ett": 7283,
  "lod": 7284,
  "mixture": 7285,
  "namic": 7286,
  "aer": 7287,
  "Bi": 7288,
  "obliged": 7289,
  "pictures": 7290,
  "punishment": 7291,
  "rical": 7292,
  "receiving": 7293,
  "sid": 7294,
  "suffering": 7295,
  "triumph": 7296,
  "universal": 7297,
  "1930s": 7298,
  "57": 7299,
  "Hip": 7300,
  "Mas": 7301,
  "RI": 7302,
  "LA": 7303,
  "Sometimes": 7304,
  "acing": 7305,
  "altogether": 7306,
  "arter": 7307,
  "aspirin": 7308,
  "bottle": 7309,
  "colors": 7310,
  "critics": 7311,
  "curs": 7312,
  "desert": 7313,
  "employment": 7314,
  "etime": 7315,
  "fruit": 7316,
  "interior": 7317,
  "irt": 7318,
  "isode": 7319,
  "lest": 7320,
  "icks": 7321,
  "Cle": 7322,
  "periods": 7323,
  "rons": 7324,
  "rarely": 7325,
  "renamed": 7326,
  "smiling": 7327,
  "Andalusia": 7328,
  "Bish": 7329,
  "Committee": 7330,
  "Lab": 7331,
  "aden": 7332,
  "Musketeers": 7333,
  "Stad": 7334,
  "Vienna": 7335,
  "anime": 7336,
  "canon": 7337,
  "engineering": 7338,
  "experiences": 7339,
  "ijack": 7340,
  "immediate": 7341,
  "morrow": 7342,
  "portation": 7343,
  "ratio": 7344,
  "recommended": 7345,
  "sacred": 7346,
  "sovereign": 7347,
  "syl": 7348,
  "1894": 7349,
  "Allen": 7350,
  "Antig": 7351,
  "Mit": 7352,
  "igation": 7353,
  "Napoleon": 7354,
  "Roma": 7355,
  "abbrevi": 7356,
  "characteristics": 7357,
  "encouraged": 7358,
  "executive": 7359,
  "extraordinary": 7360,
  "generated": 7361,
  "inquired": 7362,
  "laying": 7363,
  "mates": 7364,
  "mighty": 7365,
  "oty": 7366,
  "owner": 7367,
  "ranked": 7368,
  "slept": 7369,
  "substance": 7370,
  "terday": 7371,
  "Arbor": 7372,
  "Assembly": 7373,
  "Braves": 7374,
  "Medic": 7375,
  "Spr": 7376,
  "VA": 7377,
  "abund": 7378,
  "cope": 7379,
  "characteristic": 7380,
  "choose": 7381,
  "concerns": 7382,
  "consequence": 7383,
  "culiar": 7384,
  "dependent": 7385,
  "marsh": 7386,
  "novelist": 7387,
  "pipe": 7388,
  "spin": 7389,
  "transition": 7390,
  "weapon": 7391,
  "Arn": 7392,
  "bitter": 7393,
  "Ausch": 7394,
  "Auschwitz": 7395,
  "Card": 7396,
  "Duch": 7397,
  "Hindu": 7398,
  "Lyn": 7399,
  "Perseus": 7400,
  "Victoria": 7401,
  "Win": 7402,
  "ador": 7403,
  "barr": 7404,
  "cultures": 7405,
  "doctrine": 7406,
  "editor": 7407,
  "ests": 7408,
  "explicit": 7409,
  "fox": 7410,
  "iversities": 7411,
  "lon": 7412,
  "logic": 7413,
  "map": 7414,
  "ourselves": 7415,
  "personnel": 7416,
  "representing": 7417,
  "rier": 7418,
  "stack": 7419,
  "suitable": 7420,
  "ulating": 7421,
  "vak": 7422,
  "Buckingham": 7423,
  "Columbia": 7424,
  "Jacob": 7425,
  "Kash": 7426,
  "amateur": 7427,
  "apo": 7428,
  "approval": 7429,
  "articles": 7430,
  "astronomer": 7431,
  "cracy": 7432,
  "distinguished": 7433,
  "evolved": 7434,
  "gathered": 7435,
  "observation": 7436,
  "pione": 7437,
  "pardon": 7438,
  "plex": 7439,
  "plication": 7440,
  "rics": 7441,
  "satisfaction": 7442,
  "surviving": 7443,
  "trail": 7444,
  "trip": 7445,
  "ods": 7446,
  "Aqu": 7447,
  "Caesar": 7448,
  "Corpor": 7449,
  "Football": 7450,
  "Hark": 7451,
  "Karl": 7452,
  "Ol": 7453,
  "Orange": 7454,
  "Studies": 7455,
  "Vo": 7456,
  "iture": 7457,
  "administer": 7458,
  "algorithms": 7459,
  "autonom": 7460,
  "bearing": 7461,
  "decline": 7462,
  "depicted": 7463,
  "eving": 7464,
  "gri": 7465,
  "eves": 7466,
  "excited": 7467,
  "format": 7468,
  "offering": 7469,
  "operate": 7470,
  "ruption": 7471,
  "seats": 7472,
  "storage": 7473,
  "towns": 7474,
  "Admir": 7475,
  "Eng": 7476,
  "Kenn": 7477,
  "Neo": 7478,
  "Pierre": 7479,
  "Sic": 7480,
  "apop": 7481,
  "appointment": 7482,
  "cards": 7483,
  "flash": 7484,
  "chrom": 7485,
  "declined": 7486,
  "exposure": 7487,
  "fragments": 7488,
  "furniture": 7489,
  "iat": 7490,
  "inquir": 7491,
  "invited": 7492,
  "ishments": 7493,
  "naval": 7494,
  "proteins": 7495,
  "reduction": 7496,
  "rocks": 7497,
  "shor": 7498,
  "storm": 7499,
  "susp": 7500,
  "zona": 7501,
  "Avicenna": 7502,
  "Direct": 7503,
  "Ker": 7504,
  "Proto": 7505,
  "Water": 7506,
  "Williams": 7507,
  "aber": 7508,
  "hag": 7509,
  "aneous": 7510,
  "aphasia": 7511,
  "assured": 7512,
  "bin": 7513,
  "behaviour": 7514,
  "college": 7515,
  "dos": 7516,
  "frightened": 7517,
  "hundreds": 7518,
  "icillin": 7519,
  "lights": 7520,
  "pines": 7521,
  "peculiar": 7522,
  "penet": 7523,
  "stayed": 7524,
  "stern": 7525,
  "symbols": 7526,
  "tanks": 7527,
  "trig": 7528,
  "Allo": 7529,
  "Arabs": 7530,
  "Czech": 7531,
  "Lewis": 7532,
  "Norwe": 7533,
  "Six": 7534,
  "TO": 7535,
  "Temple": 7536,
  "affil": 7537,
  "driving": 7538,
  "enses": 7539,
  "episode": 7540,
  "hidden": 7541,
  "interpreted": 7542,
  "lowest": 7543,
  "rotation": 7544,
  "asty": 7545,
  "dyn": 7546,
  "dynasty": 7547,
  "serves": 7548,
  "stations": 7549,
  "stuff": 7550,
  "tailed": 7551,
  "traf": 7552,
  "visions": 7553,
  "Brand": 7554,
  "DE": 7555,
  "Justice": 7556,
  "Take": 7557,
  "Watson": 7558,
  "astrology": 7559,
  "bun": 7560,
  "companions": 7561,
  "cyclo": 7562,
  "demonstrated": 7563,
  "doesn": 7564,
  "dominated": 7565,
  "hijack": 7566,
  "phal": 7567,
  "predomin": 7568,
  "proceeded": 7569,
  "rix": 7570,
  "Cra": 7571,
  "rope": 7572,
  "solutions": 7573,
  "theme": 7574,
  "theatre": 7575,
  "thedral": 7576,
  "titled": 7577,
  "variant": 7578,
  "ym": 7579,
  "1862": 7580,
  "Aegean": 7581,
  "Hux": 7582,
  "Mach": 7583,
  "Norwegian": 7584,
  "Sand": 7585,
  "Sweden": 7586,
  "autom": 7587,
  "aws": 7588,
  "cents": 7589,
  "circuit": 7590,
  "excellent": 7591,
  "icial": 7592,
  "imprison": 7593,
  "message": 7594,
  "mistress": 7595,
  "rict": 7596,
  "sympath": 7597,
  "volcan": 7598,
  "warning": 7599,
  "Aach": 7600,
  "Anti": 7601,
  "Bakr": 7602,
  "Jr": 7603,
  "Last": 7604,
  "Leon": 7605,
  "Prim": 7606,
  "Steve": 7607,
  "Work": 7608,
  "adi": 7609,
  "animated": 7610,
  "assium": 7611,
  "beliefs": 7612,
  "claiming": 7613,
  "controvers": 7614,
  "domain": 7615,
  "flam": 7616,
  "miserable": 7617,
  "nostic": 7618,
  "permanent": 7619,
  "rays": 7620,
  "representation": 7621,
  "senior": 7622,
  "separation": 7623,
  "singing": 7624,
  "vant": 7625,
  "ju": 7626,
  "wrestler": 7627,
  "Adri": 7628,
  "Ban": 7629,
  "Control": 7630,
  "Office": 7631,
  "Technology": 7632,
  "Web": 7633,
  "cket": 7634,
  "agh": 7635,
  "amphib": 7636,
  "artificial": 7637,
  "cra": 7638,
  "candle": 7639,
  "commanded": 7640,
  "compatible": 7641,
  "confusion": 7642,
  "continuous": 7643,
  "eleven": 7644,
  "exha": 7645,
  "usted": 7646,
  "interesting": 7647,
  "lets": 7648,
  "phrase": 7649,
  "pseud": 7650,
  "scop": 7651,
  "succeed": 7652,
  "wooden": 7653,
  "Awards": 7654,
  "ASU": 7655,
  "CS": 7656,
  "Crit": 7657,
  "Canter": 7658,
  "Captain": 7659,
  "Grey": 7660,
  "Jag": 7661,
  "Much": 7662,
  "Switzer": 7663,
  "Wes": 7664,
  "bitumen": 7665,
  "contrary": 7666,
  "definite": 7667,
  "diver": 7668,
  "gence": 7669,
  "flower": 7670,
  "hanging": 7671,
  "marine": 7672,
  "nitrogen": 7673,
  "partner": 7674,
  "register": 7675,
  "strategy": 7676,
  "suff": 7677,
  "threatened": 7678,
  "trials": 7679,
  "vain": 7680,
  "verb": 7681,
  "Afrika": 7682,
  "Corn": 7683,
  "Canterbury": 7684,
  "Switzerland": 7685,
  "Today": 7686,
  "alg": 7687,
  "astronomical": 7688,
  "cartr": 7689,
  "commend": 7690,
  "copies": 7691,
  "gang": 7692,
  "ikos": 7693,
  "rout": 7694,
  "route": 7695,
  "onal": 7696,
  "originated": 7697,
  "ropolit": 7698,
  "scape": 7699,
  "swift": 7700,
  "thyl": 7701,
  "weigh": 7702,
  "yon": 7703,
  "1601": 7704,
  "Dev": 7705,
  "otion": 7706,
  "Die": 7707,
  "Earl": 7708,
  "Kashmir": 7709,
  "Language": 7710,
  "Song": 7711,
  "Short": 7712,
  "Talk": 7713,
  "Woodman": 7714,
  "alkal": 7715,
  "azz": 7716,
  "clubs": 7717,
  "coastal": 7718,
  "eating": 7719,
  "fierce": 7720,
  "hills": 7721,
  "hydr": 7722,
  "metall": 7723,
  "movie": 7724,
  "noun": 7725,
  "optim": 7726,
  "pitch": 7727,
  "prince": 7728,
  "reflection": 7729,
  "scientist": 7730,
  "tip": 7731,
  "wing": 7732,
  "taste": 7733,
  "traffic": 7734,
  "transferred": 7735,
  "vell": 7736,
  "waste": 7737,
  "Animal": 7738,
  "Belgian": 7739,
  "GB": 7740,
  "Salieri": 7741,
  "Territory": 7742,
  "anthropology": 7743,
  "binding": 7744,
  "charges": 7745,
  "constell": 7746,
  "continental": 7747,
  "continues": 7748,
  "electrical": 7749,
  "enz": 7750,
  "eneath": 7751,
  "femin": 7752,
  "iro": 7753,
  "hit": 7754,
  "isolated": 7755,
  "locations": 7756,
  "partners": 7757,
  "persist": 7758,
  "remarkable": 7759,
  "responded": 7760,
  "tosis": 7761,
  "1898": 7762,
  "AND": 7763,
  "Lie": 7764,
  "Mean": 7765,
  "Nich": 7766,
  "Unlike": 7767,
  "_I_": 7768,
  "agents": 7769,
  "akened": 7770,
  "asteroids": 7771,
  "aved": 7772,
  "azed": 7773,
  "bund": 7774,
  "bean": 7775,
  "clergy": 7776,
  "det": 7777,
  "dispute": 7778,
  "effici": 7779,
  "epis": 7780,
  "exercise": 7781,
  "experimental": 7782,
  "fest": 7783,
  "fishing": 7784,
  "Bow": 7785,
  "inspir": 7786,
  "mology": 7787,
  "enzy": 7788,
  "offices": 7789,
  "raising": 7790,
  "retained": 7791,
  "samples": 7792,
  "scenes": 7793,
  "skull": 7794,
  "splend": 7795,
  "stup": 7796,
  "switch": 7797,
  "tale": 7798,
  "Bed": 7799,
  "Carolina": 7800,
  "Croat": 7801,
  "Hou": 7802,
  "Internet": 7803,
  "Rena": 7804,
  "Record": 7805,
  "Samuel": 7806,
  "Seward": 7807,
  "abstract": 7808,
  "alliance": 7809,
  "argue": 7810,
  "aug": 7811,
  "uration": 7812,
  "config": 7813,
  "conversion": 7814,
  "evidently": 7815,
  "handker": 7816,
  "iary": 7817,
  "Inc": 7818,
  "injury": 7819,
  "institution": 7820,
  "iosity": 7821,
  "jac": 7822,
  "random": 7823,
  "researchers": 7824,
  "rik": 7825,
  "seeking": 7826,
  "softly": 7827,
  "suic": 7828,
  "uled": 7829,
  "valu": 7830,
  "1899": 7831,
  "Aachen": 7832,
  "Anab": 7833,
  "Feder": 7834,
  "Francisco": 7835,
  "Lor": 7836,
  "boots": 7837,
  "clar": 7838,
  "crisis": 7839,
  "indigenous": 7840,
  "interests": 7841,
  "stepped": 7842,
  "tells": 7843,
  "yours": 7844,
  "ATA": 7845,
  "Afrikaans": 7846,
  "Anth": 7847,
  "Andorra": 7848,
  "Claud": 7849,
  "Corporation": 7850,
  "District": 7851,
  "Friedrich": 7852,
  "KB": 7853,
  "Series": 7854,
  "ahead": 7855,
  "attracted": 7856,
  "cattle": 7857,
  "copper": 7858,
  "fond": 7859,
  "featuring": 7860,
  "hell": 7861,
  "ithe": 7862,
  "jew": 7863,
  "kara": 7864,
  "radical": 7865,
  "ropolitan": 7866,
  "spons": 7867,
  "12th": 7868,
  "1896": 7869,
  "Administ": 7870,
  "Ahmed": 7871,
  "Anaxim": 7872,
  "DA": 7873,
  "Fam": 7874,
  "Folio": 7875,
  "Gord": 7876,
  "Harr": 7877,
  "Johnston": 7878,
  "Tel": 7879,
  "esp": 7880,
  "adjust": 7881,
  "admitted": 7882,
  "anni": 7883,
  "antibiotic": 7884,
  "arrangement": 7885,
  "asteroid": 7886,
  "betr": 7887,
  "aying": 7888,
  "commissioned": 7889,
  "communications": 7890,
  "dign": 7891,
  "entering": 7892,
  "handkerchief": 7893,
  "impression": 7894,
  "itis": 7895,
  "nearer": 7896,
  "parliament": 7897,
  "restored": 7898,
  "slip": 7899,
  "styles": 7900,
  "Arg": 7901,
  "Florida": 7902,
  "Gregory": 7903,
  "Hopkins": 7904,
  "Main": 7905,
  "Mess": 7906,
  "Py": 7907,
  "Plato": 7908,
  "Squ": 7909,
  "Us": 7910,
  "acious": 7911,
  "ainted": 7912,
  "ameter": 7913,
  "amounts": 7914,
  "arguments": 7915,
  "classification": 7916,
  "diverse": 7917,
  "diseases": 7918,
  "fairly": 7919,
  "farther": 7920,
  "forty": 7921,
  "formula": 7922,
  "horrible": 7923,
  "icy": 7924,
  "ictional": 7925,
  "identical": 7926,
  "inking": 7927,
  "pause": 7928,
  "prayer": 7929,
  "scheme": 7930,
  "sodium": 7931,
  "vig": 7932,
  "runs": 7933,
  "rin": 7934,
  "inn": 7935,
  "whist": 7936,
  "Alexandria": 7937,
  "Anim": 7938,
  "Ares": 7939,
  "Independence": 7940,
  "Kennedy": 7941,
  "Simon": 7942,
  "ao": 7943,
  "cert": 7944,
  "denied": 7945,
  "describing": 7946,
  "fifteen": 7947,
  "hopes": 7948,
  "imagine": 7949,
  "intense": 7950,
  "kinds": 7951,
  "obv": 7952,
  "owed": 7953,
  "prohib": 7954,
  "pursued": 7955,
  "queer": 7956,
  "thunder": 7957,
  "vector": 7958,
  "1869": 7959,
  "Amal": 7960,
  "Anabapt": 7961,
  "Deco": 7962,
  "Fre": 7963,
  "Indust": 7964,
  "Lim": 7965,
  "Moscow": 7966,
  "Mount": 7967,
  "Night": 7968,
  "Ple": 7969,
  "Pennsyl": 7970,
  "Whit": 7971,
  "armour": 7972,
  "asts": 7973,
  "atically": 7974,
  "atha": 7975,
  "beneath": 7976,
  "borne": 7977,
  "concentrated": 7978,
  "descended": 7979,
  "dollars": 7980,
  "extension": 7981,
  "grim": 7982,
  "headquarters": 7983,
  "len": 7984,
  "milk": 7985,
  "morph": 7986,
  "tact": 7987,
  "ologists": 7988,
  "oppon": 7989,
  "otam": 7990,
  "palace": 7991,
  "simult": 7992,
  "supper": 7993,
  "ureau": 7994,
  "varies": 7995,
  "1865": 7996,
  "Base": 7997,
  "Iranian": 7998,
  "LE": 7999,
  "RAM": 8000,
  "FA": 8001,
  "Pennsylvania": 8002,
  "Roussim": 8003,
  "Roussimoff": 8004,
  "Still": 8005,
  "Tark": 8006,
  "Town": 8007,
  "send": 8008,
  "Wars": 8009,
  "abroad": 8010,
  "alo": 8011,
  "campus": 8012,
  "clinical": 8013,
  "covers": 8014,
  "criticized": 8015,
  "eaten": 8016,
  "engthen": 8017,
  "facts": 8018,
  "fortunate": 8019,
  "franch": 8020,
  "inson": 8021,
  "investigation": 8022,
  "itudes": 8023,
  "landed": 8024,
  "likewise": 8025,
  "mail": 8026,
  "nigger": 8027,
  "regularly": 8028,
  "ropolis": 8029,
  "stared": 8030,
  "supporters": 8031,
  "tap": 8032,
  "vy": 8033,
  "sav": 8034,
  "yesterday": 8035,
  "zone": 8036,
  "1891": 8037,
  "1895": 8038,
  "Arizona": 8039,
  "Christop": 8040,
  "Get": 8041,
  "Mug": 8042,
  "Madame": 8043,
  "Michigan": 8044,
  "atine": 8045,
  "atively": 8046,
  "compar": 8047,
  "awful": 8048,
  "discussed": 8049,
  "duties": 8050,
  "hypothesis": 8051,
  "icing": 8052,
  "inscriptions": 8053,
  "instantly": 8054,
  "keyboard": 8055,
  "liberal": 8056,
  "orp": 8057,
  "planets": 8058,
  "rent": 8059,
  "aka": 8060,
  "saint": 8061,
  "stiff": 8062,
  "studio": 8063,
  "traged": 8064,
  "15th": 8065,
  "Aruba": 8066,
  "Douglas": 8067,
  "Germanic": 8068,
  "Jacqu": 8069,
  "NS": 8070,
  "Natural": 8071,
  "Schwe": 8072,
  "bold": 8073,
  "berry": 8074,
  "elder": 8075,
  "elabor": 8076,
  "etings": 8077,
  "farming": 8078,
  "intim": 8079,
  "lone": 8080,
  "passengers": 8081,
  "policies": 8082,
  "pture": 8083,
  "scul": 8084,
  "sculpt": 8085,
  "sculptor": 8086,
  "recovery": 8087,
  "recognize": 8088,
  "volumes": 8089,
  "wishes": 8090,
  "1890": 8091,
  "Alps": 8092,
  "Antarctic": 8093,
  "Forces": 8094,
  "Kabul": 8095,
  "Members": 8096,
  "Poor": 8097,
  "Standard": 8098,
  "agues": 8099,
  "ativity": 8100,
  "brave": 8101,
  "consumption": 8102,
  "deriv": 8103,
  "disorders": 8104,
  "discussion": 8105,
  "educational": 8106,
  "elsewhere": 8107,
  "fantry": 8108,
  "ifies": 8109,
  "instructions": 8110,
  "issip": 8111,
  "oust": 8112,
  "populations": 8113,
  "stroke": 8114,
  "umental": 8115,
  "ABC": 8116,
  "Asterix": 8117,
  "Brownlow": 8118,
  "Christopher": 8119,
  "End": 8120,
  "urance": 8121,
  "Hard": 8122,
  "Nin": 8123,
  "Prem": 8124,
  "Renaissance": 8125,
  "Sak": 8126,
  "Turn": 8127,
  "Witch": 8128,
  "Wilson": 8129,
  "accurate": 8130,
  "adelph": 8131,
  "commem": 8132,
  "connections": 8133,
  "consonant": 8134,
  "cribed": 8135,
  "defence": 8136,
  "enthus": 8137,
  "ensional": 8138,
  "examined": 8139,
  "fts": 8140,
  "libert": 8141,
  "murm": 8142,
  "permitted": 8143,
  "pool": 8144,
  "rog": 8145,
  "seless": 8146,
  "substit": 8147,
  "varying": 8148,
  "visitors": 8149,
  "wars": 8150,
  "92": 8151,
  "mm": 8152,
  "62": 8153,
  "77": 8154,
  "Baron": 8155,
  "Education": 8156,
  "Jord": 8157,
  "Line": 8158,
  "Saf": 8159,
  "Tay": 8160,
  "acquaint": 8161,
  "advertis": 8162,
  "amples": 8163,
  "Examples": 8164,
  "beings": 8165,
  "comedian": 8166,
  "crops": 8167,
  "deliber": 8168,
  "desper": 8169,
  "drunk": 8170,
  "electronic": 8171,
  "este": 8172,
  "emed": 8173,
  "hymn": 8174,
  "limits": 8175,
  "mild": 8176,
  "properly": 8177,
  "rie": 8178,
  "stages": 8179,
  "tet": 8180,
  "thanks": 8181,
  "Aaron": 8182,
  "Archimedes": 8183,
  "Ass": 8184,
  "Cu": 8185,
  "Conference": 8186,
  "Having": 8187,
  "Mississip": 8188,
  "Third": 8189,
  "airline": 8190,
  "antisemitism": 8191,
  "aux": 8192,
  "otro": 8193,
  "Ron": 8194,
  "draft": 8195,
  "diff": 8196,
  "easier": 8197,
  "lux": 8198,
  "missile": 8199,
  "organisms": 8200,
  "perpet": 8201,
  "pointing": 8202,
  "potassium": 8203,
  "seated": 8204,
  "signals": 8205,
  "survive": 8206,
  "thel": 8207,
  "uding": 8208,
  "urs": 8209,
  "128": 8210,
  "Armin": 8211,
  "Emin": 8212,
  "Grace": 8213,
  "Lav": 8214,
  "Low": 8215,
  "Morris": 8216,
  "Patrick": 8217,
  "Peters": 8218,
  "Philadelph": 8219,
  "Phoen": 8220,
  "Tarkovsky": 8221,
  "akers": 8222,
  "concepts": 8223,
  "costs": 8224,
  "crewed": 8225,
  "depends": 8226,
  "economist": 8227,
  "eline": 8228,
  "eric": 8229,
  "gloom": 8230,
  "judged": 8231,
  "knock": 8232,
  "lu": 8233,
  "warm": 8234,
  "membership": 8235,
  "municipal": 8236,
  "mystery": 8237,
  "narrative": 8238,
  "ometer": 8239,
  "kil": 8240,
  "oton": 8241,
  "pounds": 8242,
  "satell": 8243,
  "shock": 8244,
  "sixth": 8245,
  "statist": 8246,
  "striking": 8247,
  "ucture": 8248,
  "unciation": 8249,
  "Ambros": 8250,
  "Bah": 8251,
  "Cir": 8252,
  "Dom": 8253,
  "HO": 8254,
  "Honor": 8255,
  "Korea": 8256,
  "Lunar": 8257,
  "Mission": 8258,
  "Noah": 8259,
  "Organization": 8260,
  "absolutely": 8261,
  "allies": 8262,
  "aphys": 8263,
  "attitude": 8264,
  "aya": 8265,
  "chook": 8266,
  "dobe": 8267,
  "Adobe": 8268,
  "emphasis": 8269,
  "forests": 8270,
  "haw": 8271,
  "interrupted": 8272,
  "ithium": 8273,
  "listening": 8274,
  "promote": 8275,
  "skelet": 8276,
  "tent": 8277,
  "variation": 8278,
  "web": 8279,
  "Abbey": 8280,
  "Advent": 8281,
  "Certain": 8282,
  "Command": 8283,
  "Defense": 8284,
  "Mississippi": 8285,
  "Philippines": 8286,
  "Sign": 8287,
  "angles": 8288,
  "cue": 8289,
  "clam": 8290,
  "confin": 8291,
  "constitutional": 8292,
  "decade": 8293,
  "fasc": 8294,
  "honey": 8295,
  "iac": 8296,
  "mam": 8297,
  "rush": 8298,
  "rebellion": 8299,
  "rific": 8300,
  "secution": 8301,
  "suspected": 8302,
  "teles": 8303,
  "Agric": 8304,
  "Coast": 8305,
  "Dep": 8306,
  "endant": 8307,
  "Donald": 8308,
  "Gun": 8309,
  "Kur": 8310,
  "Mesop": 8311,
  "Mesopotam": 8312,
  "Pumble": 8313,
  "Pumblechook": 8314,
  "Sav": 8315,
  "isa": 8316,
  "Scient": 8317,
  "akness": 8318,
  "bonds": 8319,
  "chemy": 8320,
  "conclusion": 8321,
  "contributions": 8322,
  "depression": 8323,
  "descendants": 8324,
  "educated": 8325,
  "flour": 8326,
  "icken": 8327,
  "iders": 8328,
  "instinct": 8329,
  "iveness": 8330,
  "impress": 8331,
  "khov": 8332,
  "recru": 8333,
  "referring": 8334,
  "repair": 8335,
  "sleeping": 8336,
  "stored": 8337,
  "travelled": 8338,
  "valuable": 8339,
  "wants": 8340,
  "warri": 8341,
  "Cape": 8342,
  "Gordon": 8343,
  "Ther": 8344,
  "amid": 8345,
  "anatom": 8346,
  "apartment": 8347,
  "bis": 8348,
  "contrad": 8349,
  "convention": 8350,
  "curiosity": 8351,
  "edited": 8352,
  "equally": 8353,
  "generate": 8354,
  "hydrox": 8355,
  "inois": 8356,
  "mono": 8357,
  "rural": 8358,
  "ruling": 8359,
  "sar": 8360,
  "sees": 8361,
  "solve": 8362,
  "surg": 8363,
  "wol": 8364,
  "whenever": 8365,
  "Arian": 8366,
  "Arabian": 8367,
  "Carib": 8368,
  "Games": 8369,
  "Intel": 8370,
  "Ptolemy": 8371,
  "Sri": 8372,
  "vast": 8373,
  "antipsych": 8374,
  "assassination": 8375,
  "certainty": 8376,
  "engines": 8377,
  "gif": 8378,
  "icular": 8379,
  "itsyn": 8380,
  "zhen": 8381,
  "kindness": 8382,
  "marble": 8383,
  "osaurus": 8384,
  "origins": 8385,
  "oxide": 8386,
  "prey": 8387,
  "profession": 8388,
  "publicly": 8389,
  "situated": 8390,
  "theoret": 8391,
  "universities": 8392,
  "vre": 8393,
  "1897": 8394,
  "1920s": 8395,
  "Archbishop": 8396,
  "BS": 8397,
  "Home": 8398,
  "Hospital": 8399,
  "Light": 8400,
  "Liter": 8401,
  "Lud": 8402,
  "Martians": 8403,
  "None": 8404,
  "Whe": 8405,
  "absorbed": 8406,
  "almond": 8407,
  "bapt": 8408,
  "cence": 8409,
  "exc": 8410,
  "chapter": 8411,
  "cht": 8412,
  "countered": 8413,
  "earthqu": 8414,
  "flesh": 8415,
  "followers": 8416,
  "grade": 8417,
  "icance": 8418,
  "ificance": 8419,
  "inf": 8420,
  "usions": 8421,
  "itarian": 8422,
  "items": 8423,
  "jer": 8424,
  "metic": 8425,
  "oft": 8426,
  "prospect": 8427,
  "proton": 8428,
  "promoted": 8429,
  "sportsc": 8430,
  "torn": 8431,
  "weakness": 8432,
  "1889": 8433,
  "1893": 8434,
  "Akk": 8435,
  "Chekhov": 8436,
  "Philadelphia": 8437,
  "Solzhen": 8438,
  "Solzhenitsyn": 8439,
  "Ted": 8440,
  "aders": 8441,
  "aneously": 8442,
  "antibodies": 8443,
  "avia": 8444,
  "belonged": 8445,
  "census": 8446,
  "chim": 8447,
  "cheerful": 8448,
  "fate": 8449,
  "functional": 8450,
  "giant": 8451,
  "grandfather": 8452,
  "icting": 8453,
  "inals": 8454,
  "Orig": 8455,
  "infl": 8456,
  "iser": 8457,
  "abil": 8458,
  "jack": 8459,
  "links": 8460,
  "magic": 8461,
  "obsc": 8462,
  "occupation": 8463,
  "omed": 8464,
  "pip": 8465,
  "ras": 8466,
  "residents": 8467,
  "smooth": 8468,
  "sportscaster": 8469,
  "thermore": 8470,
  "Fur": 8471,
  "Further": 8472,
  "topes": 8473,
  "ATP": 8474,
  "Alb": 8475,
  "Bishop": 8476,
  "Harker": 8477,
  "Illinois": 8478,
  "Mother": 8479,
  "Pocket": 8480,
  "Rud": 8481,
  "Spir": 8482,
  "armoured": 8483,
  "craw": 8484,
  "continuing": 8485,
  "copal": 8486,
  "geon": 8487,
  "historically": 8488,
  "ictionary": 8489,
  "immigrants": 8490,
  "leagues": 8491,
  "longest": 8492,
  "manufacturing": 8493,
  "proposal": 8494,
  "publisher": 8495,
  "rifice": 8496,
  "sculpture": 8497,
  "staring": 8498,
  "stretched": 8499,
  "td": 8500,
  "transmission": 8501,
  "upstairs": 8502,
  "villages": 8503,
  "1860": 8504,
  "1863": 8505,
  "Akkad": 8506,
  "Amway": 8507,
  "Ball": 8508,
  "chy": 8509,
  "oon": 8510,
  "Brun": 8511,
  "Hit": 8512,
  "Medal": 8513,
  "Pruss": 8514,
  "Produ": 8515,
  "attery": 8516,
  "cable": 8517,
  "cinem": 8518,
  "convey": 8519,
  "desk": 8520,
  "establishing": 8521,
  "idity": 8522,
  "ilation": 8523,
  "indicates": 8524,
  "lia": 8525,
  "maybe": 8526,
  "observe": 8527,
  "oused": 8528,
  "prevail": 8529,
  "reasoning": 8530,
  "renal": 8531,
  "romantic": 8532,
  "scattered": 8533,
  "tempt": 8534,
  "theology": 8535,
  "traces": 8536,
  "veter": 8537,
  "whip": 8538,
  "zz": 8539,
  "Pa": 8540,
  "avo": 8541,
  "1876": 8542,
  "Aene": 8543,
  "Antonio": 8544,
  "Brad": 8545,
  "dock": 8546,
  "Caribbean": 8547,
  "Mong": 8548,
  "Margaret": 8549,
  "Ministry": 8550,
  "Power": 8551,
  "Saxon": 8552,
  "Wild": 8553,
  "adhes": 8554,
  "audi": 8555,
  "bourn": 8556,
  "cof": 8557,
  "clay": 8558,
  "console": 8559,
  "distributed": 8560,
  "dual": 8561,
  "haven": 8562,
  "icrob": 8563,
  "idal": 8564,
  "portrait": 8565,
  "rice": 8566,
  "reasonable": 8567,
  "regret": 8568,
  "score": 8569,
  "throwing": 8570,
  "1867": 8571,
  "A300": 8572,
  "AmE": 8573,
  "Conserv": 8574,
  "Ell": 8575,
  "mere": 8576,
  "ott": 8577,
  "Engine": 8578,
  "Franco": 8579,
  "Furthermore": 8580,
  "Hes": 8581,
  "chel": 8582,
  "Houston": 8583,
  "Liv": 8584,
  "Sev": 8585,
  "antibody": 8586,
  "borders": 8587,
  "backs": 8588,
  "throw": 8589,
  "biological": 8590,
  "campaigns": 8591,
  "complexity": 8592,
  "crop": 8593,
  "dimensional": 8594,
  "employees": 8595,
  "enged": 8596,
  "flood": 8597,
  "plain": 8598,
  "household": 8599,
  "inscription": 8600,
  "patience": 8601,
  "plicated": 8602,
  "prede": 8603,
  "rating": 8604,
  "Tit": 8605,
  "remove": 8606,
  "remote": 8607,
  "residence": 8608,
  "resistant": 8609,
  "responsibility": 8610,
  "somebody": 8611,
  "tort": 8612,
  "Allosaurus": 8613,
  "Bachchan": 8614,
  "Bernard": 8615,
  "Blue": 8616,
  "Colonel": 8617,
  "Finally": 8618,
  "Huxley": 8619,
  "LI": 8620,
  "Maur": 8621,
  "Meanwhile": 8622,
  "Op": 8623,
  "posing": 8624,
  "Pra": 8625,
  "Secur": 8626,
  "Within": 8627,
  "adverse": 8628,
  "anarcho": 8629,
  "boats": 8630,
  "motor": 8631,
  "burned": 8632,
  "chains": 8633,
  "conference": 8634,
  "county": 8635,
  "detailed": 8636,
  "directions": 8637,
  "enforce": 8638,
  "excit": 8639,
  "mation": 8640,
  "meetings": 8641,
  "purchased": 8642,
  "sanct": 8643,
  "shipped": 8644,
  "statements": 8645,
  "sume": 8646,
  "suffici": 8647,
  "symmet": 8648,
  "traits": 8649,
  "Alaric": 8650,
  "Crown": 8651,
  "Field": 8652,
  "Indon": 8653,
  "Indones": 8654,
  "Julius": 8655,
  "Norman": 8656,
  "Peninsula": 8657,
  "Roy": 8658,
  "Sayy": 8659,
  "acknowledged": 8660,
  "aean": 8661,
  "bris": 8662,
  "cree": 8663,
  "comparison": 8664,
  "departure": 8665,
  "echo": 8666,
  "ensions": 8667,
  "gets": 8668,
  "hu": 8669,
  "keeper": 8670,
  "marg": 8671,
  "mense": 8672,
  "partially": 8673,
  "prices": 8674,
  "rab": 8675,
  "shift": 8676,
  "shaking": 8677,
  "skill": 8678,
  "stum": 8679,
  "studying": 8680,
  "130": 8681,
  "97": 8682,
  "74": 8683,
  "1881": 8684,
  "93": 8685,
  "Acts": 8686,
  "Albanians": 8687,
  "CC": 8688,
  "XIII": 8689,
  "Castle": 8690,
  "Eminence": 8691,
  "Fall": 8692,
  "Ka": 8693,
  "Kansas": 8694,
  "Ku": 8695,
  "Lutheran": 8696,
  "Palest": 8697,
  "Tun": 8698,
  "agle": 8699,
  "anticip": 8700,
  "appre": 8701,
  "arbitration": 8702,
  "astronomers": 8703,
  "constitu": 8704,
  "departed": 8705,
  "diamond": 8706,
  "difficulties": 8707,
  "eme": 8708,
  "Alg": 8709,
  "eu": 8710,
  "enor": 8711,
  "everyone": 8712,
  "falls": 8713,
  "funeral": 8714,
  "handle": 8715,
  "hyper": 8716,
  "rational": 8717,
  "imm": 8718,
  "inch": 8719,
  "instruction": 8720,
  "legacy": 8721,
  "merged": 8722,
  "mistaken": 8723,
  "murmured": 8724,
  "obst": 8725,
  "ranging": 8726,
  "references": 8727,
  "shine": 8728,
  "vertical": 8729,
  "ASL": 8730,
  "Chile": 8731,
  "Lank": 8732,
  "Liz": 8733,
  "Mike": 8734,
  "Medical": 8735,
  "Nancy": 8736,
  "Raj": 8737,
  "achment": 8738,
  "blank": 8739,
  "bronze": 8740,
  "cate": 8741,
  "capitalism": 8742,
  "channel": 8743,
  "chester": 8744,
  "cros": 8745,
  "distress": 8746,
  "feld": 8747,
  "flights": 8748,
  "ghost": 8749,
  "graphical": 8750,
  "legitimate": 8751,
  "maker": 8752,
  "manners": 8753,
  "mortal": 8754,
  "nurse": 8755,
  "optery": 8756,
  "prize": 8757,
  "purchase": 8758,
  "quantities": 8759,
  "rage": 8760,
  "recommend": 8761,
  "shooting": 8762,
  "substantial": 8763,
  "suicide": 8764,
  "tainment": 8765,
  "united": 8766,
  "Agam": 8767,
  "Bates": 8768,
  "Fern": 8769,
  "Hom": 8770,
  "Laurence": 8771,
  "Offic": 8772,
  "Soon": 8773,
  "Special": 8774,
  "Troy": 8775,
  "bage": 8776,
  "barrel": 8777,
  "culation": 8778,
  "cession": 8779,
  "charming": 8780,
  "cheeks": 8781,
  "cloth": 8782,
  "eleg": 8783,
  "fron": 8784,
  "harsh": 8785,
  "holid": 8786,
  "horizont": 8787,
  "humanity": 8788,
  "ji": 8789,
  "liberty": 8790,
  "madame": 8791,
  "picked": 8792,
  "participated": 8793,
  "refin": 8794,
  "readily": 8795,
  "stating": 8796,
  "tick": 8797,
  "wider": 8798,
  "yo": 8799,
  "11th": 8800,
  "14th": 8801,
  "1875": 8802,
  "1892": 8803,
  "Abbas": 8804,
  "Absal": 8805,
  "Andron": 8806,
  "Att": 8807,
  "Blo": 8808,
  "garden": 8809,
  "Food": 8810,
  "Guard": 8811,
  "Hannah": 8812,
  "Il": 8813,
  "haz": 8814,
  "rians": 8815,
  "Jos": 8816,
  "Jacques": 8817,
  "Non": 8818,
  "Princess": 8819,
  "Ukrainian": 8820,
  "Way": 8821,
  "accompany": 8822,
  "blical": 8823,
  "clouds": 8824,
  "consonants": 8825,
  "crimes": 8826,
  "dispers": 8827,
  "eing": 8828,
  "hier": 8829,
  "helm": 8830,
  "idel": 8831,
  "immense": 8832,
  "jug": 8833,
  "lywood": 8834,
  "mediate": 8835,
  "oric": 8836,
  "ouring": 8837,
  "probable": 8838,
  "restricted": 8839,
  "retire": 8840,
  "scope": 8841,
  "shame": 8842,
  "sheet": 8843,
  "spark": 8844,
  "voices": 8845,
  "Agent": 8846,
  "Affair": 8847,
  "Around": 8848,
  "Armstrong": 8849,
  "Beaut": 8850,
  "Gam": 8851,
  "Hur": 8852,
  "Ret": 8853,
  "Windows": 8854,
  "algae": 8855,
  "apple": 8856,
  "arth": 8857,
  "briefly": 8858,
  "debut": 8859,
  "dreams": 8860,
  "earned": 8861,
  "encing": 8862,
  "encountered": 8863,
  "facil": 8864,
  "finity": 8865,
  "funding": 8866,
  "crowd": 8867,
  "influences": 8868,
  "jacent": 8869,
  "lax": 8870,
  "limbs": 8871,
  "motiv": 8872,
  "planning": 8873,
  "plates": 8874,
  "plent": 8875,
  "processor": 8876,
  "profound": 8877,
  "sack": 8878,
  "shoes": 8879,
  "tz": 8880,
  "truly": 8881,
  "1868": 8882,
  "Ankara": 8883,
  "BAS": 8884,
  "Bru": 8885,
  "BrE": 8886,
  "Cathol": 8887,
  "Darwin": 8888,
  "ING": 8889,
  "SP": 8890,
  "IP": 8891,
  "ANC": 8892,
  "Know": 8893,
  "Pent": 8894,
  "Pot": 8895,
  "accomm": 8896,
  "accum": 8897,
  "accommod": 8898,
  "alternate": 8899,
  "button": 8900,
  "considering": 8901,
  "drama": 8902,
  "eggs": 8903,
  "exile": 8904,
  "filed": 8905,
  "icas": 8906,
  "implementation": 8907,
  "installed": 8908,
  "mythology": 8909,
  "permission": 8910,
  "prud": 8911,
  "routes": 8912,
  "shield": 8913,
  "tide": 8914,
  "thorough": 8915,
  "uranium": 8916,
  "varied": 8917,
  "vet": 8918,
  "wire": 8919,
  "Afro": 8920,
  "Algiers": 8921,
  "Bav": 8922,
  "Continental": 8923,
  "Marie": 8924,
  "Mountains": 8925,
  "Nev": 8926,
  "Province": 8927,
  "Ri": 8928,
  "Similarly": 8929,
  "archbishop": 8930,
  "bull": 8931,
  "blame": 8932,
  "committee": 8933,
  "consciousness": 8934,
  "consequences": 8935,
  "emig": 8936,
  "rant": 8937,
  "equation": 8938,
  "esium": 8939,
  "excav": 8940,
  "governments": 8941,
  "heavier": 8942,
  "homes": 8943,
  "hungry": 8944,
  "implemented": 8945,
  "induced": 8946,
  "iversary": 8947,
  "markets": 8948,
  "pages": 8949,
  "sli": 8950,
  "stopping": 8951,
  "strang": 8952,
  "util": 8953,
  "variations": 8954,
  "virtue": 8955,
  "Andronikos": 8956,
  "Arabia": 8957,
  "Bened": 8958,
  "tus": 8959,
  "Capital": 8960,
  "Philosophy": 8961,
  "Sc": 8962,
  "Station": 8963,
  "argu": 8964,
  "assistant": 8965,
  "battles": 8966,
  "cers": 8967,
  "clust": 8968,
  "consideration": 8969,
  "controversial": 8970,
  "decisions": 8971,
  "defended": 8972,
  "index": 8973,
  "monitor": 8974,
  "namics": 8975,
  "necessarily": 8976,
  "panic": 8977,
  "patterns": 8978,
  "predecess": 8979,
  "preparation": 8980,
  "recording": 8981,
  "seed": 8982,
  "suing": 8983,
  "sustain": 8984,
  "tasks": 8985,
  "thal": 8986,
  "thew": 8987,
  "wake": 8988,
  "1874": 8989,
  "Bud": 8990,
  "DC": 8991,
  "Det": 8992,
  "Division": 8993,
  "Doctor": 8994,
  "Lind": 8995,
  "Microsoft": 8996,
  "Nik": 8997,
  "Princi": 8998,
  "Review": 8999,
  "Santa": 9000,
  "Stadium": 9001,
  "aculture": 9002,
  "assembled": 9003,
  "bars": 9004,
  "brilli": 9005,
  "cheap": 9006,
  "chronic": 9007,
  "credited": 9008,
  "diet": 9009,
  "enabled": 9010,
  "forcing": 9011,
  "guide": 9012,
  "hearts": 9013,
  "infections": 9014,
  "integrated": 9015,
  "isotopes": 9016,
  "missing": 9017,
  "pharm": 9018,
  "quantity": 9019,
  "rist": 9020,
  "Gil": 9021,
  "remo": 9022,
  "replace": 9023,
  "resid": 9024,
  "significance": 9025,
  "spelling": 9026,
  "umni": 9027,
  "width": 9028,
  "Aby": 9029,
  "Agamem": 9030,
  "Agamemnon": 9031,
  "Anderson": 9032,
  "Andy": 9033,
  "Atlantis": 9034,
  "Bio": 9035,
  "Guards": 9036,
  "Hellen": 9037,
  "Isaac": 9038,
  "Log": 9039,
  "Moses": 9040,
  "Nag": 9041,
  "Sym": 9042,
  "TR": 9043,
  "UR": 9044,
  "acquaintance": 9045,
  "airlines": 9046,
  "borough": 9047,
  "circular": 9048,
  "collapse": 9049,
  "fi": 9050,
  "fatal": 9051,
  "53": 9052,
  "invisible": 9053,
  "jamin": 9054,
  "Benjamin": 9055,
  "judgment": 9056,
  "meal": 9057,
  "nevertheless": 9058,
  "ophy": 9059,
  "sper": 9060,
  "prosper": 9061,
  "otional": 9062,
  "prec": 9063,
  "recognised": 9064,
  "settlers": 9065,
  "spar": 9066,
  "wander": 9067,
  "1866": 9068,
  "Apat": 9069,
  "Anna": 9070,
  "Bey": 9071,
  "CR": 9072,
  "Chap": 9073,
  "Clar": 9074,
  "ME": 9075,
  "Odys": 9076,
  "Ped": 9077,
  "ogical": 9078,
  "Run": 9079,
  "Southeast": 9080,
  "Word": 9081,
  "adjacent": 9082,
  "astatine": 9083,
  "beam": 9084,
  "calend": 9085,
  "conservation": 9086,
  "dense": 9087,
  "faithful": 9088,
  "flame": 9089,
  "hex": 9090,
  "41": 9091,
  "injured": 9092,
  "intend": 9093,
  "loaded": 9094,
  "males": 9095,
  "mentions": 9096,
  "metallic": 9097,
  "performing": 9098,
  "precious": 9099,
  "priests": 9100,
  "rejoined": 9101,
  "sections": 9102,
  "sentiment": 9103,
  "slipped": 9104,
  "somewhere": 9105,
  "tool": 9106,
  "transmit": 9107,
  "transportation": 9108,
  "wretched": 9109,
  "1877": 9110,
  "Abdul": 9111,
  "Catholics": 9112,
  "Children": 9113,
  "Finland": 9114,
  "Hugh": 9115,
  "Judge": 9116,
  "Method": 9117,
  "Pos": 9118,
  "sess": 9119,
  "Radio": 9120,
  "Thorn": 9121,
  "aberration": 9122,
  "accordion": 9123,
  "argon": 9124,
  "assisted": 9125,
  "belt": 9126,
  "bye": 9127,
  "camera": 9128,
  "candidates": 9129,
  "cium": 9130,
  "coffee": 9131,
  "confer": 9132,
  "confused": 9133,
  "decrease": 9134,
  "efficient": 9135,
  "grief": 9136,
  "holy": 9137,
  "iations": 9138,
  "recon": 9139,
  "lifetime": 9140,
  "mysterious": 9141,
  "ostolic": 9142,
  "apostolic": 9143,
  "puzz": 9144,
  "paused": 9145,
  "patent": 9146,
  "personality": 9147,
  "requiring": 9148,
  "rulers": 9149,
  "shorter": 9150,
  "ulsion": 9151,
  "weed": 9152,
  "Advan": 9153,
  "Area": 9154,
  "Emer": 9155,
  "Global": 9156,
  "Kom": 9157,
  "Motor": 9158,
  "alan": 9159,
  "astructure": 9160,
  "cali": 9161,
  "classic": 9162,
  "directors": 9163,
  "equipped": 9164,
  "infantry": 9165,
  "jumped": 9166,
  "lane": 9167,
  "lar": 9168,
  "ordination": 9169,
  "parad": 9170,
  "portrayed": 9171,
  "processors": 9172,
  "representative": 9173,
  "revolt": 9174,
  "ritual": 9175,
  "strengthen": 9176,
  "swear": 9177,
  "telephone": 9178,
  "tempor": 9179,
  "unexpected": 9180,
  "variants": 9181,
  "violin": 9182,
  "vocal": 9183,
  "website": 9184,
  "ACE": 9185,
  "Alcott": 9186,
  "Altern": 9187,
  "Anthony": 9188,
  "Astronom": 9189,
  "Crus": 9190,
  "Five": 9191,
  "Ford": 9192,
  "Heaven": 9193,
  "Hitler": 9194,
  "Kal": 9195,
  "iny": 9196,
  "Leban": 9197,
  "Mack": 9198,
  "Pad": 9199,
  "Phillip": 9200,
  "Premier": 9201,
  "Taylor": 9202,
  "accounting": 9203,
  "aches": 9204,
  "adults": 9205,
  "butter": 9206,
  "districts": 9207,
  "etary": 9208,
  "fewer": 9209,
  "firing": 9210,
  "gift": 9211,
  "indire": 9212,
  "inger": 9213,
  "inton": 9214,
  "itals": 9215,
  "molecular": 9216,
  "namely": 9217,
  "olar": 9218,
  "prem": 9219,
  "privile": 9220,
  "requirements": 9221,
  "sacrifice": 9222,
  "spaces": 9223,
  "specimen": 9224,
  "splendid": 9225,
  "urbed": 9226,
  "vague": 9227,
  "vessels": 9228,
  "warfare": 9229,
  "1888": 9230,
  "Ahmad": 9231,
  "Build": 9232,
  "Ess": 9233,
  "Jordan": 9234,
  "Ross": 9235,
  "Sac": 9236,
  "Sah": 9237,
  "Spirit": 9238,
  "Stone": 9239,
  "Woman": 9240,
  "aching": 9241,
  "altar": 9242,
  "appearing": 9243,
  "approaches": 9244,
  "azing": 9245,
  "bases": 9246,
  "bels": 9247,
  "bestow": 9248,
  "compens": 9249,
  "cottage": 9250,
  "discipline": 9251,
  "ennium": 9252,
  "fictional": 9253,
  "hastily": 9254,
  "iant": 9255,
  "imagination": 9256,
  "ito": 9257,
  "leaf": 9258,
  "Broad": 9259,
  "loop": 9260,
  "magnetic": 9261,
  "mentary": 9262,
  "midst": 9263,
  "occasions": 9264,
  "ologian": 9265,
  "orbitals": 9266,
  "pless": 9267,
  "proxim": 9268,
  "revenue": 9269,
  "rode": 9270,
  "supplies": 9271,
  "swept": 9272,
  "temples": 9273,
  "1879": 9274,
  "1880": 9275,
  "1885": 9276,
  "Arctic": 9277,
  "Back": 9278,
  "Chron": 9279,
  "Democrats": 9280,
  "Fire": 9281,
  "Lomb": 9282,
  "Mob": 9283,
  "Moreover": 9284,
  "Pil": 9285,
  "Pur": 9286,
  "ported": 9287,
  "Peru": 9288,
  "Revolutionary": 9289,
  "Security": 9290,
  "Venus": 9291,
  "Which": 9292,
  "accomplished": 9293,
  "alchemy": 9294,
  "antidepressants": 9295,
  "caves": 9296,
  "closing": 9297,
  "commemor": 9298,
  "computing": 9299,
  "diameter": 9300,
  "estimates": 9301,
  "freely": 9302,
  "gently": 9303,
  "hired": 9304,
  "iler": 9305,
  "indirect": 9306,
  "knowed": 9307,
  "legislation": 9308,
  "lob": 9309,
  "mol": 9310,
  "ido": 9311,
  "mu": 9312,
  "mineral": 9313,
  "moderate": 9314,
  "passes": 9315,
  "polynom": 9316,
  "predicted": 9317,
  "procedures": 9318,
  "rhy": 9319,
  "realized": 9320,
  "seeds": 9321,
  "sooner": 9322,
  "steady": 9323,
  "themes": 9324,
  "treasure": 9325,
  "verses": 9326,
  "wolves": 9327,
  "1886": 9328,
  "AGP": 9329,
  "Business": 9330,
  "Cab": 9331,
  "allo": 9332,
  "Nar": 9333,
  "Octavian": 9334,
  "Vill": 9335,
  "aggress": 9336,
  "alph": 9337,
  "umer": 9338,
  "cataly": 9339,
  "define": 9340,
  "disturbed": 9341,
  "drift": 9342,
  "earthquake": 9343,
  "fed": 9344,
  "een": 9345,
  "farmers": 9346,
  "flung": 9347,
  "genes": 9348,
  "Gy": 9349,
  "insect": 9350,
  "insisted": 9351,
  "invention": 9352,
  "mant": 9353,
  "misery": 9354,
  "networks": 9355,
  "ogen": 9356,
  "olan": 9357,
  "persuaded": 9358,
  "rol": 9359,
  "straw": 9360,
  "theastern": 9361,
  "topic": 9362,
  "ucci": 9363,
  "Carl": 9364,
  "vibr": 9365,
  "wicked": 9366,
  "wedding": 9367,
  "wilder": 9368,
  "winners": 9369,
  "yne": 9370,
  "Brook": 9371,
  "Color": 9372,
  "Dion": 9373,
  "Filip": 9374,
  "Front": 9375,
  "Kon": 9376,
  "Murray": 9377,
  "Without": 9378,
  "Years": 9379,
  "absorption": 9380,
  "annually": 9381,
  "aristo": 9382,
  "assess": 9383,
  "assembl": 9384,
  "athers": 9385,
  "backup": 9386,
  "challen": 9387,
  "challenge": 9388,
  "comic": 9389,
  "ders": 9390,
  "remain": 9391,
  "deemed": 9392,
  "dramatic": 9393,
  "exclusively": 9394,
  "fears": 9395,
  "gender": 9396,
  "infection": 9397,
  "keen": 9398,
  "muscle": 9399,
  "mutual": 9400,
  "newspapers": 9401,
  "pull": 9402,
  "presidential": 9403,
  "probability": 9404,
  "rings": 9405,
  "roles": 9406,
  "salts": 9407,
  "spectrum": 9408,
  "sumer": 9409,
  "tut": 9410,
  "thee": 9411,
  "troubles": 9412,
  "victims": 9413,
  "voyage": 9414,
  "1000": 9415,
  "700": 9416,
  "1864": 9417,
  "App": 9418,
  "Buddhism": 9419,
  "Eld": 9420,
  "Falcons": 9421,
  "H2": 9422,
  "Jun": 9423,
  "Monks": 9424,
  "Represent": 9425,
  "Syd": 9426,
  "Venice": 9427,
  "Works": 9428,
  "awards": 9429,
  "acquainted": 9430,
  "adaptation": 9431,
  "allied": 9432,
  "ambit": 9433,
  "amorph": 9434,
  "andal": 9435,
  "beating": 9436,
  "cury": 9437,
  "childhood": 9438,
  "conviction": 9439,
  "dose": 9440,
  "documentary": 9441,
  "essentially": 9442,
  "facility": 9443,
  "immun": 9444,
  "inspiration": 9445,
  "mortality": 9446,
  "nephe": 9447,
  "nephew": 9448,
  "nodded": 9449,
  "push": 9450,
  "posits": 9451,
  "puts": 9452,
  "qualities": 9453,
  "revenge": 9454,
  "scrap": 9455,
  "sheep": 9456,
  "specimens": 9457,
  "structural": 9458,
  "sugar": 9459,
  "surrender": 9460,
  "taxes": 9461,
  "theologian": 9462,
  "tropical": 9463,
  "udder": 9464,
  "urged": 9465,
  "vices": 9466,
  "versed": 9467,
  "ylus": 9468,
  "140": 9469,
  "1878": 9470,
  "Amph": 9471,
  "Apatosaurus": 9472,
  "Arcad": 9473,
  "iop": 9474,
  "Balk": 9475,
  "Bang": 9476,
  "BASIC": 9477,
  "Baptist": 9478,
  "Commonwealth": 9479,
  "HE": 9480,
  "98": 9481,
  "71": 9482,
  "76": 9483,
  "73": 9484,
  "96": 9485,
  "94": 9486,
  "Mathemat": 9487,
  "Moroc": 9488,
  "Next": 9489,
  "Nicholas": 9490,
  "Prote": 9491,
  "RS": 9492,
  "600": 9493,
  "Relig": 9494,
  "Sayyaf": 9495,
  "UT": 9496,
  "EC": 9497,
  "Weather": 9498,
  "acute": 9499,
  "adventure": 9500,
  "antiqu": 9501,
  "behalf": 9502,
  "caval": 9503,
  "dishes": 9504,
  "gium": 9505,
  "grain": 9506,
  "guar": 9507,
  "ieth": 9508,
  "indif": 9509,
  "ferent": 9510,
  "initiated": 9511,
  "joining": 9512,
  "knee": 9513,
  "liv": 9514,
  "memoir": 9515,
  "orchest": 9516,
  "praise": 9517,
  "productive": 9518,
  "sending": 9519,
  "seasons": 9520,
  "shed": 9521,
  "tosaurus": 9522,
  "truck": 9523,
  "waist": 9524,
  "1884": 9525,
  "Atlanta": 9526,
  "Camus": 9527,
  "Cypr": 9528,
  "Eh": 9529,
  "Fleming": 9530,
  "Kim": 9531,
  "Len": 9532,
  "Lawrence": 9533,
  "Medlock": 9534,
  "Put": 9535,
  "Sul": 9536,
  "_you": 9537,
  "adic": 9538,
  "administered": 9539,
  "aea": 9540,
  "ashamed": 9541,
  "astonishment": 9542,
  "bowed": 9543,
  "chin": 9544,
  "Indo": 9545,
  "chell": 9546,
  "corrid": 9547,
  "dimin": 9548,
  "equations": 9549,
  "facult": 9550,
  "graduate": 9551,
  "ika": 9552,
  "slo": 9553,
  "leys": 9554,
  "Bing": 9555,
  "Bingley": 9556,
  "occurring": 9557,
  "offensive": 9558,
  "poets": 9559,
  "potentially": 9560,
  "regime": 9561,
  "sung": 9562,
  "specialized": 9563,
  "supplied": 9564,
  "tower": 9565,
  "tube": 9566,
  "zes": 9567,
  "250": 9568,
  "AV": 9569,
  "Antigua": 9570,
  "Clay": 9571,
  "Edin": 9572,
  "Ethiop": 9573,
  "Gas": 9574,
  "Hold": 9575,
  "NT": 9576,
  "DS": 9577,
  "Set": 9578,
  "Sarah": 9579,
  "Tony": 9580,
  "Until": 9581,
  "aloud": 9582,
  "antimicrob": 9583,
  "dip": 9584,
  "divisions": 9585,
  "emotion": 9586,
  "habited": 9587,
  "horizontal": 9588,
  "hosted": 9589,
  "ieu": 9590,
  "inaug": 9591,
  "itating": 9592,
  "lyrics": 9593,
  "monastery": 9594,
  "oes": 9595,
  "obvious": 9596,
  "piano": 9597,
  "prevented": 9598,
  "rans": 9599,
  "parent": 9600,
  "relationships": 9601,
  "seriously": 9602,
  "tribe": 9603,
  "ulus": 9604,
  "voted": 9605,
  "voting": 9606,
  "yle": 9607,
  "Colomb": 9608,
  "Freedom": 9609,
  "Mann": 9610,
  "Russell": 9611,
  "Sen": 9612,
  "Sin": 9613,
  "Transl": 9614,
  "architectural": 9615,
  "assert": 9616,
  "bard": 9617,
  "boxes": 9618,
  "caution": 9619,
  "cius": 9620,
  "colored": 9621,
  "constr": 9622,
  "cylin": 9623,
  "cylinder": 9624,
  "dez": 9625,
  "emic": 9626,
  "estial": 9627,
  "folded": 9628,
  "landscape": 9629,
  "liturg": 9630,
  "marketing": 9631,
  "opteryx": 9632,
  "otics": 9633,
  "passenger": 9634,
  "perspect": 9635,
  "personally": 9636,
  "publishing": 9637,
  "ride": 9638,
  "realm": 9639,
  "restrial": 9640,
  "ritis": 9641,
  "sank": 9642,
  "supports": 9643,
  "thetics": 9644,
  "tran": 9645,
  "uity": 9646,
  "Aberdare": 9647,
  "Ames": 9648,
  "Antarct": 9649,
  "Cauchy": 9650,
  "Game": 9651,
  "Gaul": 9652,
  "Hein": 9653,
  "Ili": 9654,
  "Init": 9655,
  "LO": 9656,
  "AK": 9657,
  "BI": 9658,
  "Ltd": 9659,
  "Mult": 9660,
  "reading": 9661,
  "Matthew": 9662,
  "Medicine": 9663,
  "Tok": 9664,
  "Tol": 9665,
  "ahu": 9666,
  "amines": 9667,
  "apoptosis": 9668,
  "asman": 9669,
  "Tasman": 9670,
  "brick": 9671,
  "layer": 9672,
  "column": 9673,
  "cription": 9674,
  "decis": 9675,
  "diox": 9676,
  "eb": 9677,
  "eties": 9678,
  "nin": 9679,
  "mour": 9680,
  "fulness": 9681,
  "truth": 9682,
  "youth": 9683,
  "forget": 9684,
  "thank": 9685,
  "grate": 9686,
  "grateful": 9687,
  "Fa": 9688,
  "exerc": 9689,
  "glan": 9690,
  "heritage": 9691,
  "iently": 9692,
  "icop": 9693,
  "intercept": 9694,
  "logo": 9695,
  "memorial": 9696,
  "nst": 9697,
  "optical": 9698,
  "rect": 9699,
  "requested": 9700,
  "rolling": 9701,
  "sevent": 9702,
  "systematic": 9703,
  "thereby": 9704,
  "useless": 9705,
  "volunt": 9706,
  "1870": 9707,
  "Articles": 9708,
  "Centre": 9709,
  "Conne": 9710,
  "Dictionary": 9711,
  "Kir": 9712,
  "chs": 9713,
  "auro": 9714,
  "Mesopotamia": 9715,
  "Nature": 9716,
  "Tan": 9717,
  "accuracy": 9718,
  "actinium": 9719,
  "americ": 9720,
  "amuse": 9721,
  "capabilities": 9722,
  "clever": 9723,
  "disputed": 9724,
  "estimate": 9725,
  "etch": 9726,
  "examination": 9727,
  "fab": 9728,
  "fitted": 9729,
  "impressed": 9730,
  "isdom": 9731,
  "kissed": 9732,
  "masses": 9733,
  "minimum": 9734,
  "oct": 9735,
  "overw": 9736,
  "plas": 9737,
  "plural": 9738,
  "preserve": 9739,
  "purple": 9740,
  "quarrel": 9741,
  "rors": 9742,
  "sequently": 9743,
  "sorts": 9744,
  "span": 9745,
  "spell": 9746,
  "stadium": 9747,
  "subsid": 9748,
  "trading": 9749,
  "uma": 9750,
  "10th": 9751,
  "Abr": 9752,
  "Aut": 9753,
  "umn": 9754,
  "Advanced": 9755,
  "Antarctica": 9756,
  "Baker": 9757,
  "Cart": 9758,
  "Cyprus": 9759,
  "Jersey": 9760,
  "Mughal": 9761,
  "Musketeer": 9762,
  "Pun": 9763,
  "Presently": 9764,
  "Schweitzer": 9765,
  "Square": 9766,
  "Sydney": 9767,
  "Walk": 9768,
  "adher": 9769,
  "ails": 9770,
  "americium": 9771,
  "arrive": 9772,
  "backed": 9773,
  "bedo": 9774,
  "benefits": 9775,
  "biology": 9776,
  "challenged": 9777,
  "collections": 9778,
  "explicitly": 9779,
  "favorite": 9780,
  "flown": 9781,
  "forbid": 9782,
  "glanced": 9783,
  "guarante": 9784,
  "imir": 9785,
  "irs": 9786,
  "ldom": 9787,
  "lieutenant": 9788,
  "mund": 9789,
  "manufacturer": 9790,
  "measurements": 9791,
  "monster": 9792,
  "neighbourhood": 9793,
  "relevant": 9794,
  "scan": 9795,
  "sharply": 9796,
  "somehow": 9797,
  "spare": 9798,
  "stellar": 9799,
  "suits": 9800,
  "volt": 9801,
  "Ath": 9802,
  "Aleks": 9803,
  "Bour": 9804,
  "Bruce": 9805,
  "Cass": 9806,
  "EP": 9807,
  "Fund": 9808,
  "Gab": 9809,
  "Lavois": 9810,
  "Lavoisier": 9811,
  "Olympic": 9812,
  "Plus": 9813,
  "WW": 9814,
  "agreements": 9815,
  "attempting": 9816,
  "bil": 9817,
  "basin": 9818,
  "consequently": 9819,
  "cotton": 9820,
  "cries": 9821,
  "exhibition": 9822,
  "inhabited": 9823,
  "injuries": 9824,
  "lined": 9825,
  "meter": 9826,
  "measurement": 9827,
  "objective": 9828,
  "pist": 9829,
  "phenomena": 9830,
  "preparing": 9831,
  "remainder": 9832,
  "secured": 9833,
  "senses": 9834,
  "sensitive": 9835,
  "shells": 9836,
  "similarly": 9837,
  "speaker": 9838,
  "theoretical": 9839,
  "vanished": 9840,
  "wondered": 9841,
  "Aesch": 9842,
  "Ax": 9843,
  "Archaeopteryx": 9844,
  "Belgium": 9845,
  "Bridge": 9846,
  "Edinburgh": 9847,
  "Juan": 9848,
  "Lar": 9849,
  "emy": 9850,
  "enemy": 9851,
  "Maxim": 9852,
  "ilian": 9853,
  "Origin": 9854,
  "Others": 9855,
  "Woll": 9856,
  "altered": 9857,
  "altru": 9858,
  "battery": 9859,
  "bears": 9860,
  "breathing": 9861,
  "constantly": 9862,
  "constellation": 9863,
  "crept": 9864,
  "dies": 9865,
  "damaged": 9866,
  "eland": 9867,
  "encompass": 9868,
  "establishments": 9869,
  "exhibit": 9870,
  "generations": 9871,
  "innov": 9872,
  "lonely": 9873,
  "mouse": 9874,
  "manage": 9875,
  "mechanics": 9876,
  "necessity": 9877,
  "onaut": 9878,
  "restaurants": 9879,
  "reviews": 9880,
  "steadily": 9881,
  "submitted": 9882,
  "suffix": 9883,
  "tiny": 9884,
  "toph": 9885,
  "treas": 9886,
  "variables": 9887,
  "Alta": 9888,
  "Algerian": 9889,
  "Barbar": 9890,
  "igo": 9891,
  "Da": 9892,
  "Tar": 9893,
  "unte": 9894,
  "Brooke": 9895,
  "Cathedral": 9896,
  "Loyal": 9897,
  "Mand": 9898,
  "ira": 9899,
  "Memorial": 9900,
  "Murder": 9901,
  "Rober": 9902,
  "Trojan": 9903,
  "Vlad": 9904,
  "Wolf": 9905,
  "_you_": 9906,
  "accessible": 9907,
  "addle": 9908,
  "agency": 9909,
  "anth": 9910,
  "arks": 9911,
  "Oz": 9912,
  "asks": 9913,
  "cin": 9914,
  "calculated": 9915,
  "concert": 9916,
  "crossing": 9917,
  "engage": 9918,
  "enormous": 9919,
  "extinct": 9920,
  "funds": 9921,
  "goals": 9922,
  "gravity": 9923,
  "heter": 9924,
  "jet": 9925,
  "literally": 9926,
  "mistake": 9927,
  "osity": 9928,
  "periodic": 9929,
  "phenomenon": 9930,
  "protons": 9931,
  "pronunciation": 9932,
  "reader": 9933,
  "sacrific": 9934,
  "stability": 9935,
  "sufficiently": 9936,
  "versy": 9937,
  "volunte": 9938,
  "wealthy": 9939,
  "zing": 9940,
  "1883": 9941,
  "Agency": 9942,
  "Bagh": 9943,
  "Bat": 9944,
  "Beaver": 9945,
  "Cold": 9946,
  "Eric": 9947,
  "Eur": 9948,
  "omon": 9949,
  "Environment": 9950,
  "Family": 9951,
  "Felix": 9952,
  "Ok": 9953,
  "Show": 9954,
  "grounds": 9955,
  "Seville": 9956,
  "Would": 9957,
  "apsed": 9958,
  "attested": 9959,
  "belian": 9960,
  "brane": 9961,
  "cure": 9962,
  "centers": 9963,
  "cloak": 9964,
  "correspondence": 9965,
  "defect": 9966,
  "dieck": 9967,
  "Gro": 9968,
  "doses": 9969,
  "dragged": 9970,
  "eva": 9971,
  "exual": 9972,
  "facing": 9973,
  "helping": 9974,
  "infrastructure": 9975,
  "kindly": 9976,
  "lightning": 9977,
  "manip": 9978,
  "nons": 9979,
  "photographs": 9980,
  "procedure": 9981,
  "radius": 9982,
  "ranges": 9983,
  "reliable": 9984,
  "revival": 9985,
  "rived": 9986,
  "satellite": 9987,
  "souls": 9988,
  "synthes": 9989,
  "thendieck": 9990,
  "tram": 9991,
  "trap": 9992,
  "uum": 9993,
  "wag": 9994,
  "Tour": 9995,
  "withdrawal": 9996,
  "ACM": 9997,
  "Amp": 9998,
  "Americas": 9999
}
