{
  "<PAD>": 0,
  "<UNK>": 1,
  "<BOS>": 2,
  "<EOS>": 3,
  " ": 4,
  "e": 5,
  "t": 6,
  "a": 7,
  "o": 8,
  "n": 9,
  "h": 10,
  "i": 11,
  "s": 12,
  "r": 13,
  "d": 14,
  "l": 15,
  "u": 16,
  "m": 17,
  "w": 18,
  "c": 19,
  "\n": 20,
  "f": 21,
  "y": 22,
  "g": 23,
  ",": 24,
  "p": 25,
  "b": 26,
  ".": 27,
  "v": 28,
  "I": 29,
  "k": 30,
  "-": 31,
  ";": 32,
  "“": 33,
  "”": 34,
  "T": 35,
  "M": 36,
  "H": 37,
  "x": 38,
  "’": 39,
  "A": 40,
  "_": 41,
  "W": 42,
  "B": 43,
  "S": 44,
  "L": 45,
  "q": 46,
  "z": 47,
  "!": 48,
  "j": 49,
  "C": 50,
  "E": 51,
  "?": 52,
  "D": 53,
  ":": 54,
  "J": 55,
  "Y": 56,
  "G": 57,
  "P": 58,
  "O": 59,
  "N": 60,
  "F": 61,
  "V": 62,
  "R": 63,
  "K": 64,
  "1": 65,
  "‘": 66,
  "U": 67,
  "2": 68,
  "—": 69,
  "Q": 70,
  "3": 71,
  "(": 72,
  ")": 73,
  "4": 74,
  "X": 75,
  "7": 76,
  "0": 77,
  "5": 78,
  "8": 79,
  "]": 80,
  "9": 81,
  "6": 82,
  "[": 83,
  "&": 84,
  "/": 85,
  "*": 86,
  "{": 87,
  "}": 88,
  "Z": 89,
  "'": 90,
  "^": 91,
  "£": 92,
  "·": 93,
  "he": 94,
  "in": 95,
  "an": 96,
  "the": 97,
  "re": 98,
  "th": 99,
  "ou": 100,
  "on": 101,
  "at": 102,
  "er": 103,
  "to": 104,
  "en": 105,
  "and": 106,
  "ed": 107,
  "as": 108,
  "is": 109,
  "of": 110,
  "ing": 111,
  "or": 112,
  "ar": 113,
  "ll": 114,
  "it": 115,
  "es": 116,
  "be": 117,
  "me": 118,
  "ha": 119,
  "no": 120,
  "se": 121,
  "st": 122,
  "le": 123,
  "hi": 124,
  "ve": 125,
  "that": 126,
  "wi": 127,
  "ch": 128,
  "\n\n": 129,
  "ly": 130,
  "ce": 131,
  "was": 132,
  "ld": 133,
  "ro": 134,
  "we": 135,
  "gh": 136,
  "ent": 137,
  "for": 138,
  "li": 139,
  "so": 140,
  "you": 141,
  "de": 142,
  "ion": 143,
  "ut": 144,
  "al": 145,
  "her": 146,
  "ver": 147,
  "my": 148,
  "not": 149,
  "ay": 150,
  "his": 151,
  "with": 152,
  "all": 153,
  "ho": 154,
  "su": 155,
  "ri": 156,
  "ould": 157,
  "ter": 158,
  "ad": 159,
  "had": 160,
  "fe": 161,
  "id": 162,
  "lo": 163,
  "ght": 164,
  "ir": 165,
  "co": 166,
  "ct": 167,
  "ne": 168,
  "mo": 169,
  "ther": 170,
  "she": 171,
  "un": 172,
  "have": 173,
  "ag": 174,
  "our": 175,
  "him": 176,
  "am": 177,
  "ess": 178,
  "ain": 179,
  "ur": 180,
  "but": 181,
  "do": 182,
  "ke": 183,
  "whi": 184,
  "sa": 185,
  "con": 186,
  "po": 187,
  "The": 188,
  "are": 189,
  "ab": 190,
  "ti": 191,
  "pe": 192,
  "ac": 193,
  "one": 194,
  "now": 195,
  "whe": 196,
  "which": 197,
  "us": 198,
  "od": 199,
  "by": 200,
  "red": 201,
  "rom": 202,
  "oun": 203,
  "man": 204,
  "et": 205,
  "ex": 206,
  "res": 207,
  "ard": 208,
  "ust": 209,
  "te": 210,
  "if": 211,
  "qu": 212,
  "ation": 213,
  "out": 214,
  "from": 215,
  "end": 216,
  "mp": 217,
  "very": 218,
  "lf": 219,
  "hat": 220,
  "were": 221,
  "He": 222,
  "ow": 223,
  "ic": 224,
  "Mr": 225,
  "go": 226,
  "see": 227,
  "fo": 228,
  "tr": 229,
  "who": 230,
  "per": 231,
  "si": 232,
  "some": 233,
  "thing": 234,
  "ul": 235,
  "ok": 236,
  "this": 237,
  "ment": 238,
  "could": 239,
  "ind": 240,
  "self": 241,
  "ight": 242,
  "up": 243,
  "when": 244,
  "will": 245,
  "ca": 246,
  "them": 247,
  "pp": 248,
  "est": 249,
  "been": 250,
  "would": 251,
  "ough": 252,
  "said": 253,
  "there": 254,
  "sh": 255,
  "ant": 256,
  "fa": 257,
  "your": 258,
  "ate": 259,
  "know": 260,
  "ast": 261,
  "ma": 262,
  "they": 263,
  "ev": 264,
  "ous": 265,
  "can": 266,
  "way": 267,
  "what": 268,
  "ong": 269,
  "dis": 270,
  "any": 271,
  "il": 272,
  "ra": 273,
  "ge": 274,
  "af": 275,
  "able": 276,
  "ound": 277,
  "than": 278,
  "wor": 279,
  "art": 280,
  "fore": 281,
  "more": 282,
  "cy": 283,
  "pl": 284,
  "other": 285,
  "pro": 286,
  "ak": 287,
  "ity": 288,
  "ep": 289,
  "ure": 290,
  "their": 291,
  "must": 292,
  "sha": 293,
  "reat": 294,
  "com": 295,
  "wo": 296,
  "ved": 297,
  "ence": 298,
  "ance": 299,
  "ill": 300,
  "med": 301,
  "liz": 302,
  "It": 303,
  "der": 304,
  "Eliz": 305,
  "Eliza": 306,
  "itt": 307,
  "di": 308,
  "beth": 309,
  "Elizabeth": 310,
  "time": 311,
  "day": 312,
  "look": 313,
  "wn": 314,
  "age": 315,
  "sed": 316,
  "has": 317,
  "may": 318,
  "fi": 319,
  "ite": 320,
  "el": 321,
  "ble": 322,
  "such": 323,
  "shall": 324,
  "ought": 325,
  "did": 326,
  "ction": 327,
  "ine": 328,
  "over": 329,
  "bo": 330,
  "should": 331,
  "only": 332,
  "ink": 333,
  "But": 334,
  "uch": 335,
  "ck": 336,
  "sp": 337,
  "again": 338,
  "ret": 339,
  "then": 340,
  "before": 341,
  "ive": 342,
  "om": 343,
  "urn": 344,
  "ort": 345,
  "str": 346,
  "sing": 347,
  "fri": 348,
  "op": 349,
  "ness": 350,
  "read": 351,
  "much": 352,
  "hed": 353,
  "how": 354,
  "ci": 355,
  "ish": 356,
  "des": 357,
  "came": 358,
  "like": 359,
  "pres": 360,
  "She": 361,
  "into": 362,
  "come": 363,
  "most": 364,
  "ful": 365,
  "im": 366,
  "ap": 367,
  "ally": 368,
  "ward": 369,
  "its": 370,
  "mb": 371,
  "friend": 372,
  "ren": 373,
  "ack": 374,
  "own": 375,
  "think": 376,
  "night": 377,
  "use": 378,
  "ang": 379,
  "great": 380,
  "cl": 381,
  "ount": 382,
  "We": 383,
  "less": 384,
  "ear": 385,
  "hand": 386,
  "even": 387,
  "though": 388,
  "comp": 389,
  "every": 390,
  "led": 391,
  "well": 392,
  "might": 393,
  "mis": 394,
  "pos": 395,
  "after": 396,
  "vi": 397,
  "let": 398,
  "happ": 399,
  "ark": 400,
  "say": 401,
  "good": 402,
  "ted": 403,
  "You": 404,
  "ving": 405,
  "ers": 406,
  "light": 407,
  "fir": 408,
  "where": 409,
  "ey": 410,
  "ans": 411,
  "feel": 412,
  "ise": 413,
  "room": 414,
  "new": 415,
  "long": 416,
  "ry": 417,
  "arri": 418,
  "sis": 419,
  "spe": 420,
  "ick": 421,
  "hen": 422,
  "ob": 423,
  "att": 424,
  "pa": 425,
  "mor": 426,
  "ever": 427,
  "pt": 428,
  "Mrs": 429,
  "never": 430,
  "thought": 431,
  "ert": 432,
  "dear": 433,
  "gr": 434,
  "\n ": 435,
  "ning": 436,
  "ple": 437,
  "Dar": 438,
  "Darcy": 439,
  "ked": 440,
  "ace": 441,
  "went": 442,
  "ten": 443,
  "off": 444,
  "ves": 445,
  "ary": 446,
  "ree": 447,
  "ittle": 448,
  "saw": 449,
  "An": 450,
  "men": 451,
  "ake": 452,
  "little": 453,
  "ave": 454,
  "pr": 455,
  "ol": 456,
  "dea": 457,
  "rep": 458,
  "about": 459,
  "first": 460,
  "made": 461,
  "au": 462,
  "too": 463,
  "pas": 464,
  "down": 465,
  "ps": 466,
  "int": 467,
  "part": 468,
  "lt": 469,
  "rest": 470,
  "iss": 471,
  "br": 472,
  "cted": 473,
  "ven": 474,
  "ated": 475,
  "being": 476,
  "je": 477,
  "net": 478,
  "ily": 479,
  "ley": 480,
  "Lu": 481,
  "fort": 482,
  "ach": 483,
  "sc": 484,
  "make": 485,
  "ef": 486,
  "under": 487,
  "ice": 488,
  "myself": 489,
  "beg": 490,
  "sto": 491,
  "ane": 492,
  "ig": 493,
  "And": 494,
  "When": 495,
  "ared": 496,
  "imp": 497,
  "soon": 498,
  "away": 499,
  "get": 500,
  "ies": 501,
  "here": 502,
  "pleas": 503,
  "Miss": 504,
  "tell": 505,
  "ins": 506,
  "ud": 507,
  "bet": 508,
  "ty": 509,
  "Ben": 510,
  "Bennet": 511,
  "ue": 512,
  "eyes": 513,
  "seemed": 514,
  "ng": 515,
  "ner": 516,
  "mon": 517,
  "My": 518,
  "rough": 519,
  "row": 520,
  "back": 521,
  "cas": 522,
  "sle": 523,
  "ouse": 524,
  "llow": 525,
  "yet": 526,
  "wer": 527,
  "ull": 528,
  "sister": 529,
  "ser": 530,
  "ions": 531,
  "In": 532,
  "life": 533,
  "form": 534,
  "min": 535,
  "clo": 536,
  "without": 537,
  "hor": 538,
  "ings": 539,
  "ced": 540,
  "ange": 541,
  "wr": 542,
  "found": 543,
  "appe": 544,
  "ened": 545,
  "took": 546,
  "just": 547,
  "cri": 548,
  "Van": 549,
  "um": 550,
  "through": 551,
  "nothing": 552,
  "Hel": 553,
  "Helsing": 554,
  "Bing": 555,
  "Bingley": 556,
  "ady": 557,
  "cont": 558,
  "heart": 559,
  "house": 560,
  "last": 561,
  "jo": 562,
  "ose": 563,
  "beli": 564,
  "pre": 565,
  "There": 566,
  "ject": 567,
  "chi": 568,
  "two": 569,
  "Jane": 570,
  "shi": 571,
  "rem": 572,
  "ious": 573,
  "kind": 574,
  "ince": 575,
  "father": 576,
  "app": 577,
  "these": 578,
  "looked": 579,
  "many": 580,
  "love": 581,
  "want": 582,
  "himself": 583,
  "wards": 584,
  "God": 585,
  "hy": 586,
  "Lucy": 587,
  "place": 588,
  "cour": 589,
  "vo": 590,
  "sat": 591,
  "door": 592,
  "king": 593,
  "sol": 594,
  "ond": 595,
  "acc": 596,
  "herself": 597,
  "set": 598,
  "turn": 599,
  "sm": 600,
  "This": 601,
  "felt": 602,
  "iness": 603,
  "upon": 604,
  "fear": 605,
  "sur": 606,
  "sleep": 607,
  "par": 608,
  "sure": 609,
  "tim": 610,
  "ertain": 611,
  "mber": 612,
  "tor": 613,
  "arm": 614,
  "ting": 615,
  "young": 616,
  "che": 617,
  "old": 618,
  "mind": 619,
  "nat": 620,
  "word": 621,
  "gu": 622,
  "sen": 623,
  "wever": 624,
  "moment": 625,
  "Co": 626,
  "call": 627,
  "add": 628,
  "try": 629,
  "gi": 630,
  "face": 631,
  "still": 632,
  "take": 633,
  "once": 634,
  "full": 635,
  "give": 636,
  "They": 637,
  "ations": 638,
  "return": 639,
  "letter": 640,
  "No": 641,
  "ord": 642,
  "tak": 643,
  "hope": 644,
  "bl": 645,
  "work": 646,
  "ently": 647,
  "same": 648,
  "ft": 649,
  "wat": 650,
  "ina": 651,
  "hear": 652,
  "poor": 653,
  "heard": 654,
  "however": 655,
  "ham": 656,
  "ste": 657,
  "ways": 658,
  "cannot": 659,
  "rew": 660,
  "cess": 661,
  "oc": 662,
  "right": 663,
  "cause": 664,
  "augh": 665,
  "certain": 666,
  "ire": 667,
  "If": 668,
  "tic": 669,
  "ished": 670,
  "bro": 671,
  "cons": 672,
  "gl": 673,
  "spo": 674,
  "nor": 675,
  "pose": 676,
  "head": 677,
  "act": 678,
  "till": 679,
  "win": 680,
  "done": 681,
  "eld": 682,
  "As": 683,
  "aw": 684,
  "sion": 685,
  "reas": 686,
  "side": 687,
  "seem": 688,
  "fl": 689,
  "told": 690,
  "eve": 691,
  "something": 692,
  "got": 693,
  "val": 694,
  "tal": 695,
  "bre": 696,
  "speak": 697,
  "present": 698,
  "blo": 699,
  "find": 700,
  "Then": 701,
  "ces": 702,
  "feren": 703,
  "wa": 704,
  "ised": 705,
  "dif": 706,
  "possi": 707,
  "wal": 708,
  "sun": 709,
  "those": 710,
  "cle": 711,
  "ained": 712,
  "fam": 713,
  "morning": 714,
  "mat": 715,
  "tri": 716,
  "deed": 717,
  "cei": 718,
  "knew": 719,
  "few": 720,
  "mother": 721,
  "ready": 722,
  "far": 723,
  "happy": 724,
  "stand": 725,
  "quite": 726,
  "Mina": 727,
  "always": 728,
  "things": 729,
  "den": 730,
  "hour": 731,
  "ofess": 732,
  "Ar": 733,
  "vis": 734,
  "fect": 735,
  "pur": 736,
  "Oh": 737,
  "ster": 738,
  "pect": 739,
  "sub": 740,
  "sho": 741,
  "whom": 742,
  "put": 743,
  "times": 744,
  "son": 745,
  "ref": 746,
  "sil": 747,
  "ru": 748,
  "used": 749,
  "His": 750,
  "child": 751,
  "qui": 752,
  "won": 753,
  "ited": 754,
  "bod": 755,
  "iz": 756,
  "temp": 757,
  "comm": 758,
  "sup": 759,
  "ather": 760,
  "What": 761,
  "eng": 762,
  "towards": 763,
  "bed": 764,
  "dist": 765,
  "Wick": 766,
  "Wickham": 767,
  "began": 768,
  "coming": 769,
  "seen": 770,
  "hel": 771,
  "left": 772,
  "asked": 773,
  "hard": 774,
  "ff": 775,
  "Jon": 776,
  "while": 777,
  "So": 778,
  "ener": 779,
  "swe": 780,
  "reg": 781,
  "follow": 782,
  "Coll": 783,
  "Collins": 784,
  "Count": 785,
  "lic": 786,
  "since": 787,
  "Jona": 788,
  "Jonathan": 789,
  "near": 790,
  "bour": 791,
  "better": 792,
  "stru": 793,
  "oub": 794,
  "lied": 795,
  "wish": 796,
  "Pr": 797,
  "du": 798,
  "air": 799,
  "Lady": 800,
  "land": 801,
  "another": 802,
  "low": 803,
  "open": 804,
  "Dr": 805,
  "ofessor": 806,
  "ask": 807,
  "ition": 808,
  "ined": 809,
  "gent": 810,
  "ither": 811,
  "family": 812,
  "often": 813,
  "believe": 814,
  "vour": 815,
  "dow": 816,
  "expres": 817,
  "ery": 818,
  "enough": 819,
  "body": 820,
  "death": 821,
  "whole": 822,
  "passed": 823,
  "does": 824,
  "affe": 825,
  "ched": 826,
  "anything": 827,
  "rel": 828,
  "ass": 829,
  "world": 830,
  "care": 831,
  "ged": 832,
  "exce": 833,
  "dia": 834,
  "inst": 835,
  "itu": 836,
  "For": 837,
  "ank": 838,
  "spir": 839,
  "home": 840,
  "Ly": 841,
  "gether": 842,
  "indeed": 843,
  "feelings": 844,
  "round": 845,
  "each": 846,
  "gra": 847,
  "Lydia": 848,
  "together": 849,
  "aughter": 850,
  "possible": 851,
  "doub": 852,
  "window": 853,
  "Professor": 854,
  "inter": 855,
  "almost": 856,
  "reme": 857,
  "ath": 858,
  "bit": 859,
  "half": 860,
  "hus": 861,
  "aut": 862,
  "ceived": 863,
  "peri": 864,
  "lay": 865,
  "contin": 866,
  "ended": 867,
  "une": 868,
  "pri": 869,
  "ween": 870,
  "har": 871,
  "alm": 872,
  "help": 873,
  "others": 874,
  "lves": 875,
  "marri": 876,
  "arn": 877,
  "ship": 878,
  "both": 879,
  "ith": 880,
  "attent": 881,
  "haps": 882,
  "appear": 883,
  "quest": 884,
  "mean": 885,
  "ately": 886,
  "keep": 887,
  "year": 888,
  "manner": 889,
  "sou": 890,
  "ments": 891,
  "eas": 892,
  "ress": 893,
  "gone": 894,
  "wonder": 895,
  "gener": 896,
  "between": 897,
  "ility": 898,
  "ient": 899,
  "live": 900,
  "irl": 901,
  "daughter": 902,
  "beaut": 903,
  "At": 904,
  "anger": 905,
  "girl": 906,
  "coun": 907,
  "field": 908,
  "cur": 909,
  "alone": 910,
  "conf": 911,
  "point": 912,
  "ris": 913,
  "How": 914,
  "ame": 915,
  "gentle": 916,
  "joy": 917,
  "gave": 918,
  "cho": 919,
  "char": 920,
  "oud": 921,
  "pleasure": 922,
  "replied": 923,
  "vers": 924,
  "taken": 925,
  "pain": 926,
  "ered": 927,
  "turned": 928,
  "ctions": 929,
  "ied": 930,
  "reason": 931,
  "ror": 932,
  "unt": 933,
  "dark": 934,
  "gn": 935,
  "To": 936,
  "band": 937,
  "ene": 938,
  "woman": 939,
  "friends": 940,
  "power": 941,
  "rible": 942,
  "continu": 943,
  "inte": 944,
  "cu": 945,
  "Cather": 946,
  "Catherine": 947,
  "hands": 948,
  "uring": 949,
  "ular": 950,
  "subject": 951,
  "spoke": 952,
  "acqu": 953,
  "quick": 954,
  "stood": 955,
  "Arth": 956,
  "Arthur": 957,
  "xt": 958,
  "Se": 959,
  "ros": 960,
  "adv": 961,
  "Hark": 962,
  "ts": 963,
  "erable": 964,
  "satis": 965,
  "ream": 966,
  "also": 967,
  "blood": 968,
  "understand": 969,
  "whose": 970,
  "fin": 971,
  "knowled": 972,
  "leave": 973,
  "happiness": 974,
  "Harker": 975,
  "ken": 976,
  "wh": 977,
  "against": 978,
  "cried": 979,
  "resol": 980,
  "cer": 981,
  "need": 982,
  "creat": 983,
  "mer": 984,
  "interest": 985,
  "Her": 986,
  "looking": 987,
  "cor": 988,
  "plac": 989,
  "delight": 990,
  "strange": 991,
  "answer": 992,
  "sort": 993,
  "ute": 994,
  "ses": 995,
  "prom": 996,
  "affection": 997,
  "husband": 998,
  "days": 999,
  "words": 1000,
  "ek": 1001,
  "reco": 1002,
  "course": 1003,
  "dden": 1004,
  "meet": 1005,
  "having": 1006,
  "going": 1007,
  "hea": 1008,
  "strong": 1009,
  "pi": 1010,
  "perhaps": 1011,
  "hon": 1012,
  "voice": 1013,
  "among": 1014,
  "allow": 1015,
  "ling": 1016,
  "really": 1017,
  "iled": 1018,
  "pat": 1019,
  "surpr": 1020,
  "lst": 1021,
  "fully": 1022,
  "suff": 1023,
  "Lond": 1024,
  "London": 1025,
  "ably": 1026,
  "ety": 1027,
  "oh": 1028,
  "three": 1029,
  "sweet": 1030,
  "ures": 1031,
  "person": 1032,
  "dest": 1033,
  "tru": 1034,
  "next": 1035,
  "consid": 1036,
  "differen": 1037,
  "sent": 1038,
  "cha": 1039,
  "adm": 1040,
  "ingly": 1041,
  "lips": 1042,
  "That": 1043,
  "soul": 1044,
  "fic": 1045,
  "disco": 1046,
  "called": 1047,
  "because": 1048,
  "given": 1049,
  "carri": 1050,
  "ist": 1051,
  "bes": 1052,
  "evid": 1053,
  "gri": 1054,
  "known": 1055,
  "ign": 1056,
  "fair": 1057,
  "least": 1058,
  "lot": 1059,
  "doubt": 1060,
  "country": 1061,
  "sudden": 1062,
  "therefore": 1063,
  "held": 1064,
  "appeared": 1065,
  "cent": 1066,
  "case": 1067,
  "white": 1068,
  "vered": 1069,
  "dire": 1070,
  "ide": 1071,
  "idea": 1072,
  "instant": 1073,
  "cir": 1074,
  "sor": 1075,
  "hu": 1076,
  "became": 1077,
  "On": 1078,
  "dead": 1079,
  "fall": 1080,
  "box": 1081,
  "ating": 1082,
  "watch": 1083,
  "selves": 1084,
  "town": 1085,
  "acquain": 1086,
  "ances": 1087,
  "Do": 1088,
  "sound": 1089,
  "comfort": 1090,
  "angu": 1091,
  "ured": 1092,
  "ford": 1093,
  "hes": 1094,
  "opened": 1095,
  "obser": 1096,
  "rather": 1097,
  "pected": 1098,
  "dra": 1099,
  "already": 1100,
  "fast": 1101,
  "imag": 1102,
  "brother": 1103,
  "wered": 1104,
  "pped": 1105,
  "cond": 1106,
  "lat": 1107,
  "With": 1108,
  "either": 1109,
  "evening": 1110,
  "matter": 1111,
  "sy": 1112,
  "ped": 1113,
  "dri": 1114,
  "learn": 1115,
  "high": 1116,
  "lle": 1117,
  "medi": 1118,
  "ew": 1119,
  "hold": 1120,
  "years": 1121,
  "real": 1122,
  "ceed": 1123,
  "concer": 1124,
  "attention": 1125,
  "necess": 1126,
  "pass": 1127,
  "pret": 1128,
  "arr": 1129,
  "mas": 1130,
  "arry": 1131,
  "adam": 1132,
  "iting": 1133,
  "knowledge": 1134,
  "ton": 1135,
  "play": 1136,
  "nature": 1137,
  "ars": 1138,
  "write": 1139,
  "added": 1140,
  "short": 1141,
  "Be": 1142,
  "best": 1143,
  "cked": 1144,
  "tre": 1145,
  "thus": 1146,
  "stay": 1147,
  "la": 1148,
  "ents": 1149,
  "close": 1150,
  "book": 1151,
  "suppose": 1152,
  "hur": 1153,
  "zy": 1154,
  "favour": 1155,
  "posed": 1156,
  "change": 1157,
  "ains": 1158,
  "ople": 1159,
  "fellow": 1160,
  "dread": 1161,
  "terrible": 1162,
  "within": 1163,
  "means": 1164,
  "trust": 1165,
  "occas": 1166,
  "tra": 1167,
  "cold": 1168,
  "deter": 1169,
  "pport": 1170,
  "object": 1171,
  "cot": 1172,
  "Gard": 1173,
  "iam": 1174,
  "lost": 1175,
  "partic": 1176,
  "particular": 1177,
  "inc": 1178,
  "count": 1179,
  "inv": 1180,
  "start": 1181,
  "fied": 1182,
  "xed": 1183,
  "brought": 1184,
  "feeling": 1185,
  "break": 1186,
  "Long": 1187,
  "din": 1188,
  "anx": 1189,
  "true": 1190,
  "appro": 1191,
  "aged": 1192,
  "seems": 1193,
  "bus": 1194,
  "ile": 1195,
  "during": 1196,
  "moved": 1197,
  "continued": 1198,
  "people": 1199,
  "certainly": 1200,
  "lad": 1201,
  "Gardin": 1202,
  "aunt": 1203,
  "why": 1204,
  "dered": 1205,
  "hardly": 1206,
  "lady": 1207,
  "jour": 1208,
  "entered": 1209,
  "natur": 1210,
  "sum": 1211,
  "usu": 1212,
  "loved": 1213,
  "ney": 1214,
  "mount": 1215,
  "compan": 1216,
  "isten": 1217,
  "endea": 1218,
  "answered": 1219,
  "human": 1220,
  "suc": 1221,
  "til": 1222,
  "emp": 1223,
  "show": 1224,
  "account": 1225,
  "regard": 1226,
  "Af": 1227,
  "mur": 1228,
  "earth": 1229,
  "small": 1230,
  "charac": 1231,
  "character": 1232,
  "Char": 1233,
  "All": 1234,
  "yourself": 1235,
  "seeing": 1236,
  "Seward": 1237,
  "consider": 1238,
  "different": 1239,
  "agree": 1240,
  "sec": 1241,
  "Liz": 1242,
  "After": 1243,
  "returned": 1244,
  "refle": 1245,
  "itude": 1246,
  "run": 1247,
  "immedi": 1248,
  "begin": 1249,
  "convers": 1250,
  "deep": 1251,
  "tion": 1252,
  "wife": 1253,
  "sever": 1254,
  "Lizzy": 1255,
  "silence": 1256,
  "respect": 1257,
  "Let": 1258,
  "sense": 1259,
  "late": 1260,
  "ressed": 1261,
  "glad": 1262,
  "circ": 1263,
  "quiet": 1264,
  "expect": 1265,
  "wild": 1266,
  "whilst": 1267,
  "wind": 1268,
  "qual": 1269,
  "until": 1270,
  "vent": 1271,
  "listen": 1272,
  "received": 1273,
  "month": 1274,
  "Gardiner": 1275,
  "sometimes": 1276,
  "ination": 1277,
  "grat": 1278,
  "Will": 1279,
  "eved": 1280,
  "Your": 1281,
  "everything": 1282,
  "hours": 1283,
  "bu": 1284,
  "ext": 1285,
  "utes": 1286,
  "step": 1287,
  "bey": 1288,
  "abo": 1289,
  "perfect": 1290,
  "ladies": 1291,
  "tried": 1292,
  "wood": 1293,
  "walk": 1294,
  "exc": 1295,
  "Qu": 1296,
  "conversation": 1297,
  "cept": 1298,
  "whether": 1299,
  "itted": 1300,
  "igh": 1301,
  "ground": 1302,
  "occasion": 1303,
  "sign": 1304,
  "ouble": 1305,
  "horror": 1306,
  "ms": 1307,
  "determin": 1308,
  "simp": 1309,
  "drew": 1310,
  "enter": 1311,
  "mention": 1312,
  "sight": 1313,
  "attend": 1314,
  "Lord": 1315,
  "Madam": 1316,
  "experi": 1317,
  "ail": 1318,
  "state": 1319,
  "view": 1320,
  "expected": 1321,
  "Mor": 1322,
  "circum": 1323,
  "iful": 1324,
  "spirits": 1325,
  "sole": 1326,
  "dream": 1327,
  "arch": 1328,
  "ution": 1329,
  "ached": 1330,
  "visit": 1331,
  "fur": 1332,
  "week": 1333,
  "Longbour": 1334,
  "Longbourn": 1335,
  "Yes": 1336,
  "az": 1337,
  "Godalm": 1338,
  "Godalming": 1339,
  "exam": 1340,
  "ical": 1341,
  "De": 1342,
  "mine": 1343,
  "var": 1344,
  "ele": 1345,
  "poss": 1346,
  "possess": 1347,
  "stud": 1348,
  "Charlot": 1349,
  "Charlotte": 1350,
  "ler": 1351,
  "marriage": 1352,
  "saying": 1353,
  "danger": 1354,
  "ran": 1355,
  "amp": 1356,
  "pair": 1357,
  "prep": 1358,
  "cous": 1359,
  "Lucas": 1360,
  "oured": 1361,
  "opin": 1362,
  "honour": 1363,
  "rid": 1364,
  "circumst": 1365,
  "free": 1366,
  "ial": 1367,
  "ross": 1368,
  "roy": 1369,
  "wis": 1370,
  "thoughts": 1371,
  "Some": 1372,
  "Well": 1373,
  "formed": 1374,
  "mad": 1375,
  "conne": 1376,
  "tempt": 1377,
  "itting": 1378,
  "fre": 1379,
  "ided": 1380,
  "cott": 1381,
  "fire": 1382,
  "thous": 1383,
  "minutes": 1384,
  "scar": 1385,
  "dut": 1386,
  "thro": 1387,
  "longer": 1388,
  "Just": 1389,
  "Quince": 1390,
  "Quincey": 1391,
  "sequ": 1392,
  "prob": 1393,
  "necessary": 1394,
  "met": 1395,
  "destroy": 1396,
  "shire": 1397,
  "journey": 1398,
  "else": 1399,
  "several": 1400,
  "nest": 1401,
  "civ": 1402,
  "thousand": 1403,
  "sisters": 1404,
  "hind": 1405,
  "ceive": 1406,
  "ber": 1407,
  "water": 1408,
  "Un": 1409,
  "aining": 1410,
  "former": 1411,
  "cre": 1412,
  "dep": 1413,
  "ities": 1414,
  "sett": 1415,
  "cr": 1416,
  "except": 1417,
  "bear": 1418,
  "ners": 1419,
  "tered": 1420,
  "grave": 1421,
  "uncle": 1422,
  "tee": 1423,
  "paper": 1424,
  "don": 1425,
  "cap": 1426,
  "along": 1427,
  "ie": 1428,
  "pursu": 1429,
  "usual": 1430,
  "mn": 1431,
  "around": 1432,
  "langu": 1433,
  "reli": 1434,
  "les": 1435,
  "Go": 1436,
  "forward": 1437,
  "early": 1438,
  "cheer": 1439,
  "die": 1440,
  "fell": 1441,
  "shed": 1442,
  "ries": 1443,
  "placed": 1444,
  "dare": 1445,
  "jud": 1446,
  "fortun": 1447,
  "ants": 1448,
  "tance": 1449,
  "raid": 1450,
  "counten": 1451,
  "cast": 1452,
  "evil": 1453,
  "road": 1454,
  "sea": 1455,
  "ung": 1456,
  "effect": 1457,
  "satisfied": 1458,
  "ult": 1459,
  "Joh": 1460,
  "John": 1461,
  "tou": 1462,
  "marry": 1463,
  "Th": 1464,
  "married": 1465,
  "fortune": 1466,
  "fixed": 1467,
  "Morris": 1468,
  "stren": 1469,
  "wret": 1470,
  "natural": 1471,
  "beha": 1472,
  "purpose": 1473,
  "obli": 1474,
  "remember": 1475,
  "bly": 1476,
  "lly": 1477,
  "itation": 1478,
  "talk": 1479,
  "afraid": 1480,
  "miserable": 1481,
  "trouble": 1482,
  "kept": 1483,
  "key": 1484,
  "pes": 1485,
  "ages": 1486,
  "general": 1487,
  "eness": 1488,
  "master": 1489,
  "cious": 1490,
  "none": 1491,
  "cup": 1492,
  "themselves": 1493,
  "suddenly": 1494,
  "wished": 1495,
  "persu": 1496,
  "followed": 1497,
  "walked": 1498,
  "remained": 1499,
  "safe": 1500,
  "silent": 1501,
  "dro": 1502,
  "snow": 1503,
  "itten": 1504,
  "usion": 1505,
  "rup": 1506,
  "party": 1507,
  "four": 1508,
  "Here": 1509,
  "taking": 1510,
  "Ne": 1511,
  "opinion": 1512,
  "behind": 1513,
  "misery": 1514,
  "concern": 1515,
  "ference": 1516,
  "sof": 1517,
  "fact": 1518,
  "rely": 1519,
  "cousin": 1520,
  "weak": 1521,
  "onel": 1522,
  "itz": 1523,
  "ually": 1524,
  "comple": 1525,
  "descri": 1526,
  "table": 1527,
  "position": 1528,
  "cla": 1529,
  "diffic": 1530,
  "wise": 1531,
  "study": 1532,
  "itty": 1533,
  "alth": 1534,
  "scene": 1535,
  "Nether": 1536,
  "Netherfield": 1537,
  "Why": 1538,
  "immediately": 1539,
  "morrow": 1540,
  "beautiful": 1541,
  "enjoy": 1542,
  "gre": 1543,
  "moon": 1544,
  "incl": 1545,
  "making": 1546,
  "ired": 1547,
  "although": 1548,
  "repe": 1549,
  "ase": 1550,
  "gy": 1551,
  "women": 1552,
  "rank": 1553,
  "business": 1554,
  "proceed": 1555,
  "Kitty": 1556,
  "Pe": 1557,
  "beauty": 1558,
  "smile": 1559,
  "hood": 1560,
  "aston": 1561,
  "Now": 1562,
  "bring": 1563,
  "thank": 1564,
  "streng": 1565,
  "eag": 1566,
  "move": 1567,
  "peace": 1568,
  "inform": 1569,
  "become": 1570,
  "memor": 1571,
  "eye": 1572,
  "second": 1573,
  "neigh": 1574,
  "fan": 1575,
  "vy": 1576,
  "ush": 1577,
  "vice": 1578,
  "ben": 1579,
  "mark": 1580,
  "gg": 1581,
  "deal": 1582,
  "rehen": 1583,
  "assu": 1584,
  "Eng": 1585,
  "agreeable": 1586,
  "expl": 1587,
  "determined": 1588,
  "wel": 1589,
  "neighbour": 1590,
  "William": 1591,
  "kindness": 1592,
  "countenance": 1593,
  "yes": 1594,
  "appearance": 1595,
  "clock": 1596,
  "wait": 1597,
  "despair": 1598,
  "import": 1599,
  "ides": 1600,
  "name": 1601,
  "hum": 1602,
  "worth": 1603,
  "manners": 1604,
  "doing": 1605,
  "One": 1606,
  "promise": 1607,
  "courage": 1608,
  "eager": 1609,
  "calm": 1610,
  "dog": 1611,
  "mil": 1612,
  "lar": 1613,
  "iable": 1614,
  "children": 1615,
  "lies": 1616,
  "Col": 1617,
  "ring": 1618,
  "anim": 1619,
  "ump": 1620,
  "horses": 1621,
  "mode": 1622,
  "order": 1623,
  "situ": 1624,
  "greater": 1625,
  "sk": 1626,
  "speaking": 1627,
  "comes": 1628,
  "By": 1629,
  "ishment": 1630,
  "chance": 1631,
  "dinner": 1632,
  "habit": 1633,
  "strength": 1634,
  "carriage": 1635,
  "wanted": 1636,
  "warm": 1637,
  "stead": 1638,
  "ual": 1639,
  "occur": 1640,
  "anged": 1641,
  "exact": 1642,
  "sens": 1643,
  "Colonel": 1644,
  "creature": 1645,
  "bitter": 1646,
  "surprise": 1647,
  "guard": 1648,
  "duty": 1649,
  "leng": 1650,
  "length": 1651,
  "whis": 1652,
  "letters": 1653,
  "recolle": 1654,
  "cloud": 1655,
  "task": 1656,
  "common": 1657,
  "proper": 1658,
  "grow": 1659,
  "impro": 1660,
  "serv": 1661,
  "instru": 1662,
  "port": 1663,
  "forget": 1664,
  "lit": 1665,
  "beyond": 1666,
  "impossible": 1667,
  "draw": 1668,
  "ron": 1669,
  "offic": 1670,
  "arrived": 1671,
  "cip": 1672,
  "engaged": 1673,
  "conv": 1674,
  "sir": 1675,
  "quickly": 1676,
  "vol": 1677,
  "sive": 1678,
  "soci": 1679,
  "fine": 1680,
  "send": 1681,
  "resh": 1682,
  "Al": 1683,
  "perfectly": 1684,
  "entire": 1685,
  "earnest": 1686,
  "truth": 1687,
  "suffer": 1688,
  "afterwards": 1689,
  "anxious": 1690,
  "symp": 1691,
  "resolved": 1692,
  "agon": 1693,
  "chur": 1694,
  "church": 1695,
  "months": 1696,
  "question": 1697,
  "search": 1698,
  "dec": 1699,
  "pra": 1700,
  "nal": 1701,
  "opport": 1702,
  "opportun": 1703,
  "iced": 1704,
  "advant": 1705,
  "wishes": 1706,
  "spirit": 1707,
  "sad": 1708,
  "happened": 1709,
  "acquaintance": 1710,
  "cred": 1711,
  "gentleman": 1712,
  "viol": 1713,
  "inted": 1714,
  "iety": 1715,
  "lea": 1716,
  "eli": 1717,
  "behavi": 1718,
  "col": 1719,
  "written": 1720,
  "Is": 1721,
  "fer": 1722,
  "bur": 1723,
  "Ro": 1724,
  "pu": 1725,
  "laugh": 1726,
  "susp": 1727,
  "desire": 1728,
  "closed": 1729,
  "occup": 1730,
  "surprised": 1731,
  "Car": 1732,
  "endeavour": 1733,
  "depart": 1734,
  "bless": 1735,
  "fright": 1736,
  "rose": 1737,
  "bound": 1738,
  "Good": 1739,
  "ively": 1740,
  "five": 1741,
  "ago": 1742,
  "talking": 1743,
  "ying": 1744,
  "esca": 1745,
  "Not": 1746,
  "settled": 1747,
  "grew": 1748,
  "cely": 1749,
  "fered": 1750,
  "threw": 1751,
  "heavy": 1752,
  "path": 1753,
  "lead": 1754,
  "curi": 1755,
  "slight": 1756,
  "says": 1757,
  "past": 1758,
  "hall": 1759,
  "feet": 1760,
  "tears": 1761,
  "language": 1762,
  "ding": 1763,
  "det": 1764,
  "ph": 1765,
  "ident": 1766,
  "cing": 1767,
  "flow": 1768,
  "kes": 1769,
  "thor": 1770,
  "consequ": 1771,
  "decl": 1772,
  "stri": 1773,
  "further": 1774,
  "pretty": 1775,
  "evidently": 1776,
  "pride": 1777,
  "breakfast": 1778,
  "sake": 1779,
  "ade": 1780,
  "struck": 1781,
  "conce": 1782,
  "remain": 1783,
  "spect": 1784,
  "patient": 1785,
  "lest": 1786,
  "sorrow": 1787,
  "died": 1788,
  "brain": 1789,
  "Cler": 1790,
  "Clerval": 1791,
  "cience": 1792,
  "ues": 1793,
  "increas": 1794,
  "success": 1795,
  "suffic": 1796,
  "tran": 1797,
  "lled": 1798,
  "nearly": 1799,
  "lab": 1800,
  "lu": 1801,
  "pleasant": 1802,
  "effort": 1803,
  "pointed": 1804,
  "trave": 1805,
  "produ": 1806,
  "ctor": 1807,
  "ze": 1808,
  "accept": 1809,
  "tory": 1810,
  "allowed": 1811,
  "latter": 1812,
  "black": 1813,
  "health": 1814,
  "chief": 1815,
  "entirely": 1816,
  "expressed": 1817,
  "news": 1818,
  "shut": 1819,
  "behaviour": 1820,
  "Come": 1821,
  "Mery": 1822,
  "Meryton": 1823,
  "scarcely": 1824,
  "motion": 1825,
  "diary": 1826,
  "These": 1827,
  "und": 1828,
  "cal": 1829,
  "anced": 1830,
  "Cha": 1831,
  "fac": 1832,
  "outh": 1833,
  "pen": 1834,
  "Sir": 1835,
  "pleased": 1836,
  "idence": 1837,
  "opportunity": 1838,
  "notice": 1839,
  "airs": 1840,
  "tly": 1841,
  "solemn": 1842,
  "rise": 1843,
  "dat": 1844,
  "model": 1845,
  "information": 1846,
  "steps": 1847,
  "concl": 1848,
  "Pember": 1849,
  "Pemberley": 1850,
  "serious": 1851,
  "loy": 1852,
  "sitting": 1853,
  "inced": 1854,
  "easily": 1855,
  "van": 1856,
  "mist": 1857,
  "oney": 1858,
  "broken": 1859,
  "Justine": 1860,
  "complete": 1861,
  "express": 1862,
  "depend": 1863,
  "cut": 1864,
  "glo": 1865,
  "prevent": 1866,
  "gar": 1867,
  "condu": 1868,
  "mi": 1869,
  "deg": 1870,
  "neither": 1871,
  "sity": 1872,
  "compl": 1873,
  "believed": 1874,
  "circumstances": 1875,
  "feared": 1876,
  "illed": 1877,
  "West": 1878,
  "rec": 1879,
  "Chap": 1880,
  "above": 1881,
  "itself": 1882,
  "liar": 1883,
  "seek": 1884,
  "bad": 1885,
  "ison": 1886,
  "remark": 1887,
  "degree": 1888,
  "exist": 1889,
  "secret": 1890,
  "convinced": 1891,
  "pause": 1892,
  "ience": 1893,
  "tired": 1894,
  "leep": 1895,
  "aren": 1896,
  "bra": 1897,
  "monster": 1898,
  "intell": 1899,
  "ties": 1900,
  "likely": 1901,
  "situation": 1902,
  "frequ": 1903,
  "across": 1904,
  "ative": 1905,
  "ded": 1906,
  "ously": 1907,
  "Mary": 1908,
  "laid": 1909,
  "arest": 1910,
  "bright": 1911,
  "Chapter": 1912,
  "girls": 1913,
  "Ho": 1914,
  "excell": 1915,
  "meant": 1916,
  "lying": 1917,
  "talked": 1918,
  "greatest": 1919,
  "instantly": 1920,
  "whatever": 1921,
  "assured": 1922,
  "suf": 1923,
  "bow": 1924,
  "flo": 1925,
  "living": 1926,
  "money": 1927,
  "stopped": 1928,
  "ried": 1929,
  "boxes": 1930,
  "Sep": 1931,
  "sail": 1932,
  "elix": 1933,
  "tomb": 1934,
  "using": 1935,
  "memory": 1936,
  "sible": 1937,
  "inct": 1938,
  "advantage": 1939,
  "conscious": 1940,
  "amiable": 1941,
  "Yet": 1942,
  "gro": 1943,
  "ality": 1944,
  "utely": 1945,
  "May": 1946,
  "shock": 1947,
  "gust": 1948,
  "arrival": 1949,
  "affair": 1950,
  "fat": 1951,
  "spent": 1952,
  "hopes": 1953,
  "disap": 1954,
  "ia": 1955,
  "fancy": 1956,
  "intent": 1957,
  "amongst": 1958,
  "companion": 1959,
  "throat": 1960,
  "phy": 1961,
  "wretched": 1962,
  "beginning": 1963,
  "venge": 1964,
  "da": 1965,
  "wound": 1966,
  "teeth": 1967,
  "Septe": 1968,
  "September": 1969,
  "cottage": 1970,
  "_2": 1971,
  "large": 1972,
  "ending": 1973,
  "cture": 1974,
  "ines": 1975,
  "inary": 1976,
  "ulty": 1977,
  "admir": 1978,
  "ball": 1979,
  "exactly": 1980,
  "daughters": 1981,
  "thinking": 1982,
  "employ": 1983,
  "acquainted": 1984,
  "report": 1985,
  "discovered": 1986,
  "interrup": 1987,
  "eat": 1988,
  "cheerful": 1989,
  "asleep": 1990,
  "deser": 1991,
  "thin": 1992,
  "sings": 1993,
  "mountains": 1994,
  "pale": 1995,
  "woke": 1996,
  "shad": 1997,
  "Felix": 1998,
  "ific": 1999,
  "flu": 2000,
  "ches": 2001,
  "direct": 2002,
  "vel": 2003,
  "sult": 2004,
  "intro": 2005,
  "introdu": 2006,
  "cus": 2007,
  "Their": 2008,
  "cat": 2009,
  "later": 2010,
  "equal": 2011,
  "avo": 2012,
  "aring": 2013,
  "cru": 2014,
  "observed": 2015,
  "charm": 2016,
  "assure": 2017,
  "river": 2018,
  "ignor": 2019,
  "walking": 2020,
  "knowing": 2021,
  "desc": 2022,
  "Ag": 2023,
  "_1": 2024,
  "Rosings": 2025,
  "wed": 2026,
  "trees": 2027,
  "distur": 2028,
  "kne": 2029,
  "Ren": 2030,
  "boat": 2031,
  "coff": 2032,
  "ased": 2033,
  "emb": 2034,
  "Po": 2035,
  "commun": 2036,
  "sufficient": 2037,
  "bility": 2038,
  "simply": 2039,
  "quired": 2040,
  "absol": 2041,
  "thir": 2042,
  "ught": 2043,
  "noble": 2044,
  "utter": 2045,
  "inqu": 2046,
  "expression": 2047,
  "civility": 2048,
  "questions": 2049,
  "raised": 2050,
  "clear": 2051,
  "ible": 2052,
  "athe": 2053,
  "papers": 2054,
  "Renfield": 2055,
  "wide": 2056,
  "vation": 2057,
  "ability": 2058,
  "repeated": 2059,
  "nu": 2060,
  "phi": 2061,
  "fail": 2062,
  "books": 2063,
  "fresh": 2064,
  "blind": 2065,
  "als": 2066,
  "stu": 2067,
  "tingu": 2068,
  "ash": 2069,
  "ket": 2070,
  "heaven": 2071,
  "sick": 2072,
  "sorry": 2073,
  "various": 2074,
  "law": 2075,
  "rance": 2076,
  "firm": 2077,
  "besto": 2078,
  "rap": 2079,
  "distance": 2080,
  "pity": 2081,
  "delay": 2082,
  "seat": 2083,
  "wonderful": 2084,
  "kins": 2085,
  "aded": 2086,
  "yard": 2087,
  "big": 2088,
  "rate": 2089,
  "prote": 2090,
  "ER": 2091,
  "hit": 2092,
  "knows": 2093,
  "merely": 2094,
  "gle": 2095,
  "dr": 2096,
  "meeting": 2097,
  "excellent": 2098,
  "somewhat": 2099,
  "Every": 2100,
  "conceal": 2101,
  "pray": 2102,
  "asy": 2103,
  "getting": 2104,
  "post": 2105,
  "noon": 2106,
  "stra": 2107,
  "castle": 2108,
  "ye": 2109,
  "wall": 2110,
  "sunset": 2111,
  "gram": 2112,
  "train": 2113,
  "ons": 2114,
  "fut": 2115,
  "design": 2116,
  "aint": 2117,
  "following": 2118,
  "pet": 2119,
  "ising": 2120,
  "capable": 2121,
  "vir": 2122,
  "lose": 2123,
  "osity": 2124,
  "stranger": 2125,
  "smiled": 2126,
  "Of": 2127,
  "joined": 2128,
  "society": 2129,
  "wrong": 2130,
  "terday": 2131,
  "stairs": 2132,
  "seiz": 2133,
  "lan": 2134,
  "rer": 2135,
  "ale": 2136,
  "coffin": 2137,
  "wolves": 2138,
  "arning": 2139,
  "ory": 2140,
  "accord": 2141,
  "fun": 2142,
  "ates": 2143,
  "Per": 2144,
  "sist": 2145,
  "communic": 2146,
  "acy": 2147,
  "shar": 2148,
  "mouth": 2149,
  "fortunate": 2150,
  "forth": 2151,
  "compli": 2152,
  "ones": 2153,
  "ames": 2154,
  "entreat": 2155,
  "engage": 2156,
  "waited": 2157,
  "Whi": 2158,
  "lived": 2159,
  "ease": 2160,
  "slept": 2161,
  "leaving": 2162,
  "confess": 2163,
  "prepared": 2164,
  "dreadful": 2165,
  "rock": 2166,
  "enra": 2167,
  "science": 2168,
  "writing": 2169,
  "attempt": 2170,
  "ters": 2171,
  "lid": 2172,
  "fal": 2173,
  "support": 2174,
  "lling": 2175,
  "resp": 2176,
  "prin": 2177,
  "ices": 2178,
  "content": 2179,
  "fig": 2180,
  "story": 2181,
  "fas": 2182,
  "ot": 2183,
  "extreme": 2184,
  "lls": 2185,
  "spoken": 2186,
  "reply": 2187,
  "plan": 2188,
  "join": 2189,
  "mentioned": 2190,
  "Oc": 2191,
  "attended": 2192,
  "tend": 2193,
  "wro": 2194,
  "wrote": 2195,
  "fron": 2196,
  "dared": 2197,
  "grief": 2198,
  "belief": 2199,
  "lun": 2200,
  "arms": 2201,
  "ears": 2202,
  "experience": 2203,
  "discover": 2204,
  "future": 2205,
  "ss": 2206,
  "colle": 2207,
  "que": 2208,
  "cry": 2209,
  "exceed": 2210,
  "mit": 2211,
  "author": 2212,
  "HA": 2213,
  "Whit": 2214,
  "difficulty": 2215,
  "everybody": 2216,
  "finished": 2217,
  "youth": 2218,
  "afford": 2219,
  "company": 2220,
  "unless": 2221,
  "From": 2222,
  "uded": 2223,
  "wit": 2224,
  "gentlemen": 2225,
  "forgot": 2226,
  "neighbourhood": 2227,
  "handsome": 2228,
  "obliged": 2229,
  "credit": 2230,
  "listened": 2231,
  "younger": 2232,
  "yesterday": 2233,
  "resto": 2234,
  "suffered": 2235,
  "shook": 2236,
  "Octo": 2237,
  "October": 2238,
  "Ladyship": 2239,
  "understood": 2240,
  "existence": 2241,
  "unhappy": 2242,
  "ours": 2243,
  "enemy": 2244,
  "burn": 2245,
  "shadow": 2246,
  "fiend": 2247,
  "neck": 2248,
  "Westenra": 2249,
  "intellig": 2250,
  "temper": 2251,
  "ature": 2252,
  "ified": 2253,
  "instead": 2254,
  "ier": 2255,
  "conduct": 2256,
  "avoid": 2257,
  "inno": 2258,
  "period": 2259,
  "Bour": 2260,
  "Bourgh": 2261,
  "consol": 2262,
  "looks": 2263,
  "bar": 2264,
  "Ah": 2265,
  "semb": 2266,
  "escape": 2267,
  "astonishment": 2268,
  "Hert": 2269,
  "Hertford": 2270,
  "Hertfordshire": 2271,
  "figure": 2272,
  "save": 2273,
  "sit": 2274,
  "smil": 2275,
  "curiosity": 2276,
  "favourite": 2277,
  "beside": 2278,
  "anxiety": 2279,
  "reading": 2280,
  "carried": 2281,
  "waiting": 2282,
  "voured": 2283,
  "horrible": 2284,
  "ls": 2285,
  "loss": 2286,
  "test": 2287,
  "oper": 2288,
  "uni": 2289,
  "mid": 2290,
  "event": 2291,
  "treat": 2292,
  "espe": 2293,
  "especi": 2294,
  "fears": 2295,
  "giving": 2296,
  "admiration": 2297,
  "easy": 2298,
  "disposition": 2299,
  "suspic": 2300,
  "inj": 2301,
  "ian": 2302,
  "officers": 2303,
  "consent": 2304,
  "promised": 2305,
  "particularly": 2306,
  "hast": 2307,
  "vain": 2308,
  "approach": 2309,
  "hair": 2310,
  "eper": 2311,
  "food": 2312,
  "rejo": 2313,
  "moments": 2314,
  "lovely": 2315,
  "covered": 2316,
  "perceived": 2317,
  "acul": 2318,
  "fu": 2319,
  "terror": 2320,
  "dust": 2321,
  "Whitby": 2322,
  "represent": 2323,
  "trans": 2324,
  "Re": 2325,
  "av": 2326,
  "velo": 2327,
  "changed": 2328,
  "learned": 2329,
  "record": 2330,
  "claim": 2331,
  "ading": 2332,
  "ration": 2333,
  "Even": 2334,
  "forced": 2335,
  "selfish": 2336,
  "passion": 2337,
  "sence": 2338,
  "ordinary": 2339,
  "unable": 2340,
  "turning": 2341,
  "eter": 2342,
  "boy": 2343,
  "succeed": 2344,
  "Forster": 2345,
  "mus": 2346,
  "receive": 2347,
  "tort": 2348,
  "armed": 2349,
  "resolution": 2350,
  "presence": 2351,
  "wak": 2352,
  "fing": 2353,
  "cheek": 2354,
  "rage": 2355,
  "lock": 2356,
  "possessed": 2357,
  "darkness": 2358,
  "posit": 2359,
  "speed": 2360,
  "cli": 2361,
  "reached": 2362,
  "phe": 2363,
  "probably": 2364,
  "devo": 2365,
  "conside": 2366,
  "considered": 2367,
  "ilt": 2368,
  "command": 2369,
  "ceiving": 2370,
  "cep": 2371,
  "orn": 2372,
  "touched": 2373,
  "philo": 2374,
  "philoso": 2375,
  "mater": 2376,
  "bir": 2377,
  "Had": 2378,
  "fli": 2379,
  "extra": 2380,
  "offer": 2381,
  "address": 2382,
  "Poor": 2383,
  "attach": 2384,
  "imagination": 2385,
  "quar": 2386,
  "happen": 2387,
  "dearest": 2388,
  "supposed": 2389,
  "drawing": 2390,
  "justice": 2391,
  "places": 2392,
  "bent": 2393,
  "proceeded": 2394,
  "endeavoured": 2395,
  "glass": 2396,
  "Gen": 2397,
  "Genev": 2398,
  "sank": 2399,
  "hell": 2400,
  "ater": 2401,
  "brave": 2402,
  "Dead": 2403,
  "super": 2404,
  "ences": 2405,
  "false": 2406,
  "speci": 2407,
  "contr": 2408,
  "grate": 2409,
  "perior": 2410,
  "ield": 2411,
  "touch": 2412,
  "regret": 2413,
  "especially": 2414,
  "moti": 2415,
  "worse": 2416,
  "mag": 2417,
  "Phi": 2418,
  "note": 2419,
  "imagine": 2420,
  "hoped": 2421,
  "willing": 2422,
  "guess": 2423,
  "paused": 2424,
  "indif": 2425,
  "bri": 2426,
  "showed": 2427,
  "mes": 2428,
  "holding": 2429,
  "tea": 2430,
  "pressed": 2431,
  "ardon": 2432,
  "drawn": 2433,
  "athing": 2434,
  "marked": 2435,
  "bag": 2436,
  "myster": 2437,
  "sleeping": 2438,
  "shud": 2439,
  "wake": 2440,
  "relation": 2441,
  "cting": 2442,
  "meas": 2443,
  "ideas": 2444,
  "ec": 2445,
  "ni": 2446,
  "sche": 2447,
  "intended": 2448,
  "gment": 2449,
  "humour": 2450,
  "twent": 2451,
  "twenty": 2452,
  "superior": 2453,
  "liked": 2454,
  "six": 2455,
  "colour": 2456,
  "ourselves": 2457,
  "Philips": 2458,
  "obje": 2459,
  "absence": 2460,
  "nie": 2461,
  "surround": 2462,
  "hearing": 2463,
  "throw": 2464,
  "compas": 2465,
  "passing": 2466,
  "affected": 2467,
  "proud": 2468,
  "please": 2469,
  "evident": 2470,
  "parti": 2471,
  "plain": 2472,
  "rapid": 2473,
  "supp": 2474,
  "ining": 2475,
  "ishing": 2476,
  "comprehen": 2477,
  "awful": 2478,
  "wers": 2479,
  "imed": 2480,
  "started": 2481,
  "wand": 2482,
  "spot": 2483,
  "virt": 2484,
  "sensations": 2485,
  "Fitz": 2486,
  "Fitzwill": 2487,
  "Fitzwilliam": 2488,
  "bered": 2489,
  "sympath": 2490,
  "Geneva": 2491,
  "dawn": 2492,
  "forehead": 2493,
  "spee": 2494,
  "pun": 2495,
  "generally": 2496,
  "mission": 2497,
  "ging": 2498,
  "St": 2499,
  "sharp": 2500,
  "standing": 2501,
  "Ge": 2502,
  "Geor": 2503,
  "consequence": 2504,
  "match": 2505,
  "desp": 2506,
  "pie": 2507,
  "lie": 2508,
  "ancing": 2509,
  "invitation": 2510,
  "dance": 2511,
  "Mar": 2512,
  "greatly": 2513,
  "Are": 2514,
  "gratitude": 2515,
  "fold": 2516,
  "breath": 2517,
  "Can": 2518,
  "thes": 2519,
  "tender": 2520,
  "prospect": 2521,
  "watching": 2522,
  "azed": 2523,
  "weeks": 2524,
  "fallen": 2525,
  "agony": 2526,
  "sl": 2527,
  "hurried": 2528,
  "sky": 2529,
  "hung": 2530,
  "hyp": 2531,
  "hypnot": 2532,
  "understanding": 2533,
  "data": 2534,
  "weight": 2535,
  "influ": 2536,
  "desired": 2537,
  "libr": 2538,
  "removed": 2539,
  "ges": 2540,
  "highly": 2541,
  "line": 2542,
  "hers": 2543,
  "pecu": 2544,
  "peculiar": 2545,
  "fashi": 2546,
  "hide": 2547,
  "lish": 2548,
  "mountain": 2549,
  "interesting": 2550,
  "action": 2551,
  "attack": 2552,
  "prog": 2553,
  "Such": 2554,
  "mistaken": 2555,
  "impat": 2556,
  "England": 2557,
  "addressed": 2558,
  "fice": 2559,
  "Hur": 2560,
  "Hurst": 2561,
  "angry": 2562,
  "hate": 2563,
  "rooms": 2564,
  "intim": 2565,
  "native": 2566,
  "cros": 2567,
  "longed": 2568,
  "benef": 2569,
  "proof": 2570,
  "disappoint": 2571,
  "fy": 2572,
  "gard": 2573,
  "claimed": 2574,
  "minute": 2575,
  "top": 2576,
  "ressing": 2577,
  "Before": 2578,
  "Our": 2579,
  "istr": 2580,
  "remem": 2581,
  "remembered": 2582,
  "stream": 2583,
  "beat": 2584,
  "stor": 2585,
  "vil": 2586,
  "moonlight": 2587,
  "locked": 2588,
  "Later": 2589,
  "ples": 2590,
  "connected": 2591,
  "actually": 2592,
  "ming": 2593,
  "directed": 2594,
  "request": 2595,
  "iter": 2596,
  "destroyed": 2597,
  "charge": 2598,
  "uns": 2599,
  "noticed": 2600,
  "leness": 2601,
  "anybody": 2602,
  "stone": 2603,
  "luck": 2604,
  "that_": 2605,
  "outside": 2606,
  "itated": 2607,
  "apo": 2608,
  "assur": 2609,
  "paid": 2610,
  "library": 2611,
  "beheld": 2612,
  "importance": 2613,
  "lives": 2614,
  "whisper": 2615,
  "ghed": 2616,
  "triump": 2617,
  "proved": 2618,
  "convi": 2619,
  "occupied": 2620,
  "fle": 2621,
  "const": 2622,
  "tranqu": 2623,
  "concerning": 2624,
  "Par": 2625,
  "harm": 2626,
  "events": 2627,
  "drove": 2628,
  "carry": 2629,
  "board": 2630,
  "aid": 2631,
  "pull": 2632,
  "filled": 2633,
  "rushed": 2634,
  "dreams": 2635,
  "tale": 2636,
  "murder": 2637,
  "Dracul": 2638,
  "driver": 2639,
  "uses": 2640,
  "related": 2641,
  "arily": 2642,
  "forms": 2643,
  "condition": 2644,
  "useful": 2645,
  "number": 2646,
  "terms": 2647,
  "soft": 2648,
  "portion": 2649,
  "nar": 2650,
  "Ex": 2651,
  "Aust": 2652,
  "rain": 2653,
  "delic": 2654,
  "ny": 2655,
  "gen": 2656,
  "ury": 2657,
  "English": 2658,
  "mort": 2659,
  "consolation": 2660,
  "resent": 2661,
  "opening": 2662,
  "north": 2663,
  "delighted": 2664,
  "recomm": 2665,
  "sensible": 2666,
  "_that_": 2667,
  "bid": 2668,
  "vill": 2669,
  "absolutely": 2670,
  "yours": 2671,
  "attachment": 2672,
  "exert": 2673,
  "inqui": 2674,
  "inquiries": 2675,
  "clothes": 2676,
  "relations": 2677,
  "renew": 2678,
  "powers": 2679,
  "excited": 2680,
  "reach": 2681,
  "arer": 2682,
  "deli": 2683,
  "crow": 2684,
  "endured": 2685,
  "quietly": 2686,
  "abhor": 2687,
  "beloved": 2688,
  "tremb": 2689,
  "Au": 2690,
  "flowers": 2691,
  "grim": 2692,
  "clouds": 2693,
  "TER": 2694,
  "Dracula": 2695,
  "concerned": 2696,
  "speech": 2697,
  "Tr": 2698,
  "prev": 2699,
  "separ": 2700,
  "ger": 2701,
  "itor": 2702,
  "reser": 2703,
  "running": 2704,
  "atic": 2705,
  "frequently": 2706,
  "makes": 2707,
  "hig": 2708,
  "picture": 2709,
  "equ": 2710,
  "tone": 2711,
  "fond": 2712,
  "fashion": 2713,
  "otherwise": 2714,
  "pered": 2715,
  "fool": 2716,
  "Indeed": 2717,
  "attentions": 2718,
  "ailed": 2719,
  "yield": 2720,
  "companions": 2721,
  "accident": 2722,
  "welcome": 2723,
  "ignorant": 2724,
  "excess": 2725,
  "rud": 2726,
  "compliment": 2727,
  "civil": 2728,
  "Perhaps": 2729,
  "discovery": 2730,
  "caught": 2731,
  "pay": 2732,
  "moving": 2733,
  "lau": 2734,
  "station": 2735,
  "hurry": 2736,
  "triumph": 2737,
  "overcome": 2738,
  "conviction": 2739,
  "front": 2740,
  "telling": 2741,
  "awake": 2742,
  "pardon": 2743,
  "produced": 2744,
  "stre": 2745,
  "force": 2746,
  "grace": 2747,
  "sought": 2748,
  "occurred": 2749,
  "quitted": 2750,
  "persuaded": 2751,
  "wants": 2752,
  "gloom": 2753,
  "thrown": 2754,
  "edge": 2755,
  "cheeks": 2756,
  "Lo": 2757,
  "seized": 2758,
  "August": 2759,
  "Tur": 2760,
  "sympathy": 2761,
  "devil": 2762,
  "churchyard": 2763,
  "doctor": 2764,
  "important": 2765,
  "prov": 2766,
  "argu": 2767,
  "result": 2768,
  "Nor": 2769,
  "cul": 2770,
  "describe": 2771,
  "rang": 2772,
  "ix": 2773,
  "uc": 2774,
  "CHA": 2775,
  "delightful": 2776,
  "fit": 2777,
  "asp": 2778,
  "apprehen": 2779,
  "loud": 2780,
  "history": 2781,
  "tall": 2782,
  "undred": 2783,
  "distingu": 2784,
  "putting": 2785,
  "blic": 2786,
  "anguish": 2787,
  "type": 2788,
  "spite": 2789,
  "agre": 2790,
  "surely": 2791,
  "amuse": 2792,
  "sisted": 2793,
  "decided": 2794,
  "twi": 2795,
  "dress": 2796,
  "circumstance": 2797,
  "purch": 2798,
  "winter": 2799,
  "servant": 2800,
  "alter": 2801,
  "quit": 2802,
  "tily": 2803,
  "dining": 2804,
  "faith": 2805,
  "comfortable": 2806,
  "relief": 2807,
  "posing": 2808,
  "confidence": 2809,
  "rous": 2810,
  "grateful": 2811,
  "satisfa": 2812,
  "windows": 2813,
  "summer": 2814,
  "Sometimes": 2815,
  "lice": 2816,
  "lam": 2817,
  "arrive": 2818,
  "passage": 2819,
  "empty": 2820,
  "iny": 2821,
  "safety": 2822,
  "terri": 2823,
  "attendant": 2824,
  "storm": 2825,
  "mighty": 2826,
  "ild": 2827,
  "exp": 2828,
  "slow": 2829,
  "pract": 2830,
  "finite": 2831,
  "graph": 2832,
  "arrange": 2833,
  "meaning": 2834,
  "ism": 2835,
  "valu": 2836,
  "single": 2837,
  "acknowled": 2838,
  "somewhere": 2839,
  "doubted": 2840,
  "facts": 2841,
  "uous": 2842,
  "considerable": 2843,
  "_I": 2844,
  "Huns": 2845,
  "Frank": 2846,
  "gall": 2847,
  "mate": 2848,
  "cence": 2849,
  "em": 2850,
  "Nothing": 2851,
  "hundred": 2852,
  "material": 2853,
  "flat": 2854,
  "senti": 2855,
  "Hen": 2856,
  "aught": 2857,
  "Heading": 2858,
  "forgotten": 2859,
  "compassion": 2860,
  "odd": 2861,
  "coat": 2862,
  "violent": 2863,
  "accompl": 2864,
  "rendered": 2865,
  "coach": 2866,
  "below": 2867,
  "service": 2868,
  "apolo": 2869,
  "exceedingly": 2870,
  "satisfaction": 2871,
  "shine": 2872,
  "court": 2873,
  "anging": 2874,
  "illy": 2875,
  "seas": 2876,
  "painful": 2877,
  "constant": 2878,
  "creatures": 2879,
  "expectation": 2880,
  "manif": 2881,
  "stern": 2882,
  "kis": 2883,
  "fog": 2884,
  "dogs": 2885,
  "shore": 2886,
  "ampire": 2887,
  "harbour": 2888,
  "tele": 2889,
  "intelligence": 2890,
  "bran": 2891,
  "ering": 2892,
  "influence": 2893,
  "grad": 2894,
  "directly": 2895,
  "choose": 2896,
  "mut": 2897,
  "ribut": 2898,
  "deeply": 2899,
  "lication": 2900,
  "connection": 2901,
  "pping": 2902,
  "gate": 2903,
  "educ": 2904,
  "Austen": 2905,
  "cured": 2906,
  "compar": 2907,
  "foot": 2908,
  "conven": 2909,
  "judge": 2910,
  "fro": 2911,
  "alive": 2912,
  "negle": 2913,
  "iron": 2914,
  "pleasing": 2915,
  "public": 2916,
  "blue": 2917,
  "propos": 2918,
  "affectionate": 2919,
  "exer": 2920,
  "fami": 2921,
  "Mon": 2922,
  "agreed": 2923,
  "servants": 2924,
  "Have": 2925,
  "fortnight": 2926,
  "persuade": 2927,
  "asking": 2928,
  "anyone": 2929,
  "tempted": 2930,
  "whenever": 2931,
  "intention": 2932,
  "spring": 2933,
  "alarm": 2934,
  "wholly": 2935,
  "supper": 2936,
  "maid": 2937,
  "gained": 2938,
  "advanced": 2939,
  "posite": 2940,
  "Who": 2941,
  "enced": 2942,
  "breathing": 2943,
  "revenge": 2944,
  "deb": 2945,
  "trying": 2946,
  "breast": 2947,
  "Thus": 2948,
  "destru": 2949,
  "race": 2950,
  "miss": 2951,
  "strugg": 2952,
  "broke": 2953,
  "fted": 2954,
  "wre": 2955,
  "Vic": 2956,
  "Alas": 2957,
  "murde": 2958,
  "ray": 2959,
  "wolf": 2960,
  "ude": 2961,
  "process": 2962,
  "commonly": 2963,
  "During": 2964,
  "training": 2965,
  "direction": 2966,
  "bat": 2967,
  "tom": 2968,
  "detail": 2969,
  "earli": 2970,
  "div": 2971,
  "scheme": 2972,
  "smo": 2973,
  "simple": 2974,
  "moder": 2975,
  "equally": 2976,
  "admire": 2977,
  "Der": 2978,
  "Derby": 2979,
  "prove": 2980,
  "pit": 2981,
  "sel": 2982,
  "required": 2983,
  "pless": 2984,
  "dwell": 2985,
  "clever": 2986,
  "Henry": 2987,
  "falling": 2988,
  "pal": 2989,
  "names": 2990,
  "regi": 2991,
  "regiment": 2992,
  "vey": 2993,
  "fatig": 2994,
  "conject": 2995,
  "twice": 2996,
  "pound": 2997,
  "ency": 2998,
  "eagerly": 2999,
  "jump": 3000,
  "visited": 3001,
  "evol": 3002,
  "weather": 3003,
  "laughed": 3004,
  "comprehend": 3005,
  "apparen": 3006,
  "prof": 3007,
  "seated": 3008,
  "Thank": 3009,
  "bb": 3010,
  "amb": 3011,
  "gratul": 3012,
  "opposite": 3013,
  "fearful": 3014,
  "exclaimed": 3015,
  "matters": 3016,
  "disappointment": 3017,
  "burst": 3018,
  "agers": 3019,
  "inn": 3020,
  "fate": 3021,
  "fight": 3022,
  "vict": 3023,
  "victim": 3024,
  "fly": 3025,
  "fled": 3026,
  "thick": 3027,
  "mass": 3028,
  "Victor": 3029,
  "lake": 3030,
  "swept": 3031,
  "rush": 3032,
  "wretch": 3033,
  "murderer": 3034,
  "sunrise": 3035,
  "CHAP": 3036,
  "CHAPTER": 3037,
  "syste": 3038,
  "requ": 3039,
  "tern": 3040,
  "class": 3041,
  "cient": 3042,
  "improve": 3043,
  "rat": 3044,
  "lower": 3045,
  "keeping": 3046,
  "elo": 3047,
  "Hunsford": 3048,
  "eight": 3049,
  "aste": 3050,
  "due": 3051,
  "hint": 3052,
  "lively": 3053,
  "horse": 3054,
  "possession": 3055,
  "entering": 3056,
  "marrying": 3057,
  "extraordinary": 3058,
  "estate": 3059,
  "interrupted": 3060,
  "praise": 3061,
  "you_": 3062,
  "pounds": 3063,
  "secure": 3064,
  "bestow": 3065,
  "mony": 3066,
  "Nay": 3067,
  "unknown": 3068,
  "tain": 3069,
  "benevol": 3070,
  "fever": 3071,
  "increased": 3072,
  "blow": 3073,
  "music": 3074,
  "Te": 3075,
  "profess": 3076,
  "aven": 3077,
  "bye": 3078,
  "Hill": 3079,
  "interested": 3080,
  "bore": 3081,
  "sink": 3082,
  "visitor": 3083,
  "approached": 3084,
  "zz": 3085,
  "pursue": 3086,
  "ening": 3087,
  "threat": 3088,
  "growing": 3089,
  "chair": 3090,
  "disturb": 3091,
  "Look": 3092,
  "trace": 3093,
  "knees": 3094,
  "sounds": 3095,
  "south": 3096,
  "kissed": 3097,
  "capt": 3098,
  "destruction": 3099,
  "Franken": 3100,
  "Frankenste": 3101,
  "Frankenstein": 3102,
  "seemingly": 3103,
  "sme": 3104,
  "floor": 3105,
  "Agath": 3106,
  "Agatha": 3107,
  "dam": 3108,
  "fra": 3109,
  "feat": 3110,
  "evidence": 3111,
  "finding": 3112,
  "Tho": 3113,
  "difference": 3114,
  "Derbyshire": 3115,
  "fax": 3116,
  "taste": 3117,
  "ors": 3118,
  "orig": 3119,
  "origin": 3120,
  "exha": 3121,
  "ital": 3122,
  "difficult": 3123,
  "Ju": 3124,
  "lerable": 3125,
  "piece": 3126,
  "However": 3127,
  "assemb": 3128,
  "reflection": 3129,
  "altogether": 3130,
  "pron": 3131,
  "princip": 3132,
  "dislike": 3133,
  "catch": 3134,
  "me_": 3135,
  "charming": 3136,
  "horrid": 3137,
  "Did": 3138,
  "_you_": 3139,
  "forgive": 3140,
  "reflections": 3141,
  "drink": 3142,
  "posure": 3143,
  "desir": 3144,
  "refuse": 3145,
  "polit": 3146,
  "furn": 3147,
  "prevented": 3148,
  "miles": 3149,
  "parted": 3150,
  "restored": 3151,
  "indul": 3152,
  "suit": 3153,
  "estee": 3154,
  "inclination": 3155,
  "progress": 3156,
  "Tell": 3157,
  "congratul": 3158,
  "corner": 3159,
  "bor": 3160,
  "garden": 3161,
  "som": 3162,
  "utmost": 3163,
  "reasonable": 3164,
  "desert": 3165,
  "frightened": 3166,
  "rising": 3167,
  "reflect": 3168,
  "ceased": 3169,
  "watched": 3170,
  "excite": 3171,
  "choly": 3172,
  "departure": 3173,
  "carefully": 3174,
  "accus": 3175,
  "instinct": 3176,
  "hills": 3177,
  "thirst": 3178,
  "grey": 3179,
  "thy": 3180,
  "waves": 3181,
  "shudder": 3182,
  "Saf": 3183,
  "Safie": 3184,
  "Haw": 3185,
  "Hawkins": 3186,
  "lunatic": 3187,
  "flies": 3188,
  "_Later": 3189,
  "didn": 3190,
  "learning": 3191,
  "value": 3192,
  "dem": 3193,
  "simil": 3194,
  "mar": 3195,
  "token": 3196,
  "conver": 3197,
  "ana": 3198,
  "objects": 3199,
  "sul": 3200,
  "rows": 3201,
  "share": 3202,
  "ource": 3203,
  "ctures": 3204,
  "Mo": 3205,
  "chosen": 3206,
  "unex": 3207,
  "faint": 3208,
  "working": 3209,
  "vag": 3210,
  "immediate": 3211,
  "ception": 3212,
  "impul": 3213,
  "tong": 3214,
  "freed": 3215,
  "lines": 3216,
  "dancing": 3217,
  "_her": 3218,
  "_her_": 3219,
  "vous": 3220,
  "distant": 3221,
  "favourable": 3222,
  "eldest": 3223,
  "pronoun": 3224,
  "pon": 3225,
  "smiles": 3226,
  "inhabit": 3227,
  "possibly": 3228,
  "continually": 3229,
  "omin": 3230,
  "misfortune": 3231,
  "licity": 3232,
  "dying": 3233,
  "motive": 3234,
  "mir": 3235,
  "possibility": 3236,
  "recovered": 3237,
  "precip": 3238,
  "particulars": 3239,
  "stret": 3240,
  "recollection": 3241,
  "sugg": 3242,
  "suggest": 3243,
  "lately": 3244,
  "witness": 3245,
  "experienced": 3246,
  "naturally": 3247,
  "receiving": 3248,
  "nephe": 3249,
  "nephew": 3250,
  "distress": 3251,
  "preser": 3252,
  "wedding": 3253,
  "melan": 3254,
  "melancholy": 3255,
  "ere": 3256,
  "hither": 3257,
  "conclusion": 3258,
  "surrounded": 3259,
  "niece": 3260,
  "cottagers": 3261,
  "lean": 3262,
  "fortunes": 3263,
  "awoke": 3264,
  "Bright": 3265,
  "Brighton": 3266,
  "afternoon": 3267,
  "July": 3268,
  "vall": 3269,
  "fulf": 3270,
  "philosophy": 3271,
  "desol": 3272,
  "deck": 3273,
  "veins": 3274,
  "manifest": 3275,
  "rust": 3276,
  "beings": 3277,
  "prison": 3278,
  "pel": 3279,
  "cad": 3280,
  "HE": 3281,
  "howling": 3282,
  "Carfax": 3283,
  "kni": 3284,
  "iently": 3285,
  "strongly": 3286,
  "ically": 3287,
  "log": 3288,
  "application": 3289,
  "Con": 3290,
  "cif": 3291,
  "previ": 3292,
  "IN": 3293,
  "choice": 3294,
  "remind": 3295,
  "display": 3296,
  "doubtless": 3297,
  "scho": 3298,
  "creation": 3299,
  "indu": 3300,
  "exhaust": 3301,
  "ping": 3302,
  "inquir": 3303,
  "cop": 3304,
  "crimin": 3305,
  "soo": 3306,
  "contempt": 3307,
  "II": 3308,
  "XX": 3309,
  "nice": 3310,
  "30": 3311,
  "nervous": 3312,
  "employed": 3313,
  "entertain": 3314,
  "Am": 3315,
  "_me_": 3316,
  "King": 3317,
  "eleg": 3318,
  "_I_": 3319,
  "composure": 3320,
  "guarded": 3321,
  "gravely": 3322,
  "worked": 3323,
  "pursuit": 3324,
  "warmth": 3325,
  "retired": 3326,
  "enjoyment": 3327,
  "nur": 3328,
  "keeper": 3329,
  "remains": 3330,
  "trem": 3331,
  "explan": 3332,
  "Again": 3333,
  "itate": 3334,
  "tering": 3335,
  "street": 3336,
  "finally": 3337,
  "paren": 3338,
  "virtue": 3339,
  "deceived": 3340,
  "handed": 3341,
  "believ": 3342,
  "envelo": 3343,
  "Stre": 3344,
  "Street": 3345,
  "rence": 3346,
  "hous": 3347,
  "houses": 3348,
  "lover": 3349,
  "worn": 3350,
  "green": 3351,
  "car": 3352,
  "valley": 3353,
  "bank": 3354,
  "poc": 3355,
  "disturbed": 3356,
  "stepped": 3357,
  "voy": 3358,
  "captain": 3359,
  "inten": 3360,
  "Turk": 3361,
  "straight": 3362,
  "fier": 3363,
  "kno": 3364,
  "shoulder": 3365,
  "See": 3366,
  "Varn": 3367,
  "Varna": 3368,
  "Pic": 3369,
  "Piccad": 3370,
  "Piccadilly": 3371,
  "pred": 3372,
  "demand": 3373,
  "gor": 3374,
  "similar": 3375,
  "avail": 3376,
  "meth": 3377,
  "method": 3378,
  "exec": 3379,
  "respond": 3380,
  "observation": 3381,
  "iv": 3382,
  "probable": 3383,
  "narrow": 3384,
  "Ab": 3385,
  "bare": 3386,
  "fif": 3387,
  "cou": 3388,
  "restr": 3389,
  "unfortunate": 3390,
  "stro": 3391,
  "ds": 3392,
  "gives": 3393,
  "fee": 3394,
  "reality": 3395,
  "omy": 3396,
  "priv": 3397,
  "objection": 3398,
  "vast": 3399,
  "acknowledged": 3400,
  "While": 3401,
  "city": 3402,
  "spend": 3403,
  "leis": 3404,
  "leisure": 3405,
  "indign": 3406,
  "calling": 3407,
  "returning": 3408,
  "vering": 3409,
  "height": 3410,
  "amaz": 3411,
  "besides": 3412,
  "engagement": 3413,
  "convey": 3414,
  "discus": 3415,
  "accur": 3416,
  "affairs": 3417,
  "Sat": 3418,
  "guilt": 3419,
  "kindly": 3420,
  "drive": 3421,
  "Ha": 3422,
  "blame": 3423,
  "satisfy": 3424,
  "suspicion": 3425,
  "stop": 3426,
  "conde": 3427,
  "condemn": 3428,
  "fingers": 3429,
  "emotion": 3430,
  "misfortunes": 3431,
  "opp": 3432,
  "uries": 3433,
  "weep": 3434,
  "whispered": 3435,
  "lifted": 3436,
  "clue": 3437,
  "endure": 3438,
  "kill": 3439,
  "peas": 3440,
  "disappeared": 3441,
  "mour": 3442,
  "labours": 3443,
  "dim": 3444,
  "vengeance": 3445,
  "swear": 3446,
  "spid": 3447,
  "ression": 3448,
  "rent": 3449,
  "measure": 3450,
  "ferent": 3451,
  "belong": 3452,
  "tract": 3453,
  "personal": 3454,
  "sal": 3455,
  "scen": 3456,
  "scenes": 3457,
  "ense": 3458,
  "regular": 3459,
  "presently": 3460,
  "grac": 3461,
  "shown": 3462,
  "persons": 3463,
  "bene": 3464,
  "judgment": 3465,
  "goodness": 3466,
  "explained": 3467,
  "fulness": 3468,
  "qualities": 3469,
  "exerc": 3470,
  "mess": 3471,
  "entrance": 3472,
  "oul": 3473,
  "thanks": 3474,
  "purchase": 3475,
  "render": 3476,
  "somehow": 3477,
  "succeeded": 3478,
  "aware": 3479,
  "vere": 3480,
  "frequent": 3481,
  "uneasy": 3482,
  "illness": 3483,
  "readily": 3484,
  "thanked": 3485,
  "ens": 3486,
  "madam": 3487,
  "animal": 3488,
  "shame": 3489,
  "departed": 3490,
  "sacri": 3491,
  "careful": 3492,
  "preced": 3493,
  "descended": 3494,
  "tranquill": 3495,
  "contemp": 3496,
  "apart": 3497,
  "tel": 3498,
  "imprud": 3499,
  "nearer": 3500,
  "gnity": 3501,
  "blessed": 3502,
  "shortly": 3503,
  "innocent": 3504,
  "rejoiced": 3505,
  "bestowed": 3506,
  "vile": 3507,
  "asha": 3508,
  "ashamed": 3509,
  "ban": 3510,
  "agitation": 3511,
  "doors": 3512,
  "gli": 3513,
  "shel": 3514,
  "awak": 3515,
  "tray": 3516,
  "angers": 3517,
  "commence": 3518,
  "woods": 3519,
  "burning": 3520,
  "Letter": 3521,
  "vessel": 3522,
  "souls": 3523,
  "swi": 3524,
  "crime": 3525,
  "esh": 3526,
  "murdered": 3527,
  "apping": 3528,
  "softly": 3529,
  "Slo": 3530,
  "Slov": 3531,
  "Slovak": 3532,
  "garlic": 3533,
  "nod": 3534,
  "Art": 3535,
  "telegram": 3536,
  "umer": 3537,
  "ias": 3538,
  "property": 3539,
  "contro": 3540,
  "acity": 3541,
  "features": 3542,
  "invol": 3543,
  "non": 3544,
  "connections": 3545,
  "usually": 3546,
  "cher": 3547,
  "consideration": 3548,
  "18": 3549,
  "friendship": 3550,
  "advice": 3551,
  "hero": 3552,
  "wicked": 3553,
  "ju": 3554,
  "teen": 3555,
  "tle": 3556,
  "cruel": 3557,
  "protest": 3558,
  "grand": 3559,
  "applied": 3560,
  "cepted": 3561,
  "beneath": 3562,
  "truly": 3563,
  "exhi": 3564,
  "pier": 3565,
  "Take": 3566,
  "card": 3567,
  "stir": 3568,
  "mortal": 3569,
  "rich": 3570,
  "inclined": 3571,
  "repro": 3572,
  "weakness": 3573,
  "disgust": 3574,
  "extremely": 3575,
  "generous": 3576,
  "freedom": 3577,
  "mere": 3578,
  "_C": 3579,
  "ulous": 3580,
  "excl": 3581,
  "stup": 3582,
  "partner": 3583,
  "village": 3584,
  "Maria": 3585,
  "excuse": 3586,
  "morti": 3587,
  "vanity": 3588,
  "encourage": 3589,
  "toler": 3590,
  "astonished": 3591,
  "nay": 3592,
  "informed": 3593,
  "anti": 3594,
  "relate": 3595,
  "ify": 3596,
  "unconscious": 3597,
  "Nove": 3598,
  "November": 3599,
  "miser": 3600,
  "counter": 3601,
  "amid": 3602,
  "rested": 3603,
  "park": 3604,
  "devoted": 3605,
  "gathe": 3606,
  "gathered": 3607,
  "useless": 3608,
  "arranged": 3609,
  "spread": 3610,
  "dreaded": 3611,
  "atory": 3612,
  "embarr": 3613,
  "hitherto": 3614,
  "fain": 3615,
  "bringing": 3616,
  "Last": 3617,
  "asc": 3618,
  "gover": 3619,
  "betray": 3620,
  "visible": 3621,
  "reflected": 3622,
  "sides": 3623,
  "mystery": 3624,
  "amed": 3625,
  "kiss": 3626,
  "pocket": 3627,
  "agged": 3628,
  "union": 3629,
  "cab": 3630,
  "thunder": 3631,
  "steep": 3632,
  "hearts": 3633,
  "gently": 3634,
  "flame": 3635,
  "scream": 3636,
  "ghast": 3637,
  "wheel": 3638,
  "Jour": 3639,
  "Journal": 3640,
  "cifix": 3641,
  "movement": 3642,
  "warning": 3643,
  "upset": 3644,
  "stake": 3645,
  "predi": 3646,
  "works": 3647,
  "complex": 3648,
  "composed": 3649,
  "Trans": 3650,
  "probability": 3651,
  "list": 3652,
  "ordered": 3653,
  "attribut": 3654,
  "iding": 3655,
  "ilities": 3656,
  "main": 3657,
  "proportion": 3658,
  "saved": 3659,
  "highe": 3660,
  "highest": 3661,
  "unexpected": 3662,
  "protect": 3663,
  "education": 3664,
  "ians": 3665,
  "complet": 3666,
  "aced": 3667,
  "advent": 3668,
  "infinite": 3669,
  "innocence": 3670,
  "accepted": 3671,
  "bited": 3672,
  "dies": 3673,
  "por": 3674,
  "urged": 3675,
  "itions": 3676,
  "resentment": 3677,
  "iest": 3678,
  "explain": 3679,
  "addition": 3680,
  "grown": 3681,
  "Without": 3682,
  "companied": 3683,
  "declared": 3684,
  "tide": 3685,
  "chose": 3686,
  "continue": 3687,
  "instrument": 3688,
  "familiar": 3689,
  "Scot": 3690,
  "wishing": 3691,
  "alarmed": 3692,
  "toms": 3693,
  "summon": 3694,
  "escaped": 3695,
  "Carol": 3696,
  "Caroline": 3697,
  "subjects": 3698,
  "assurance": 3699,
  "earnestly": 3700,
  "bation": 3701,
  "guest": 3702,
  "ga": 3703,
  "desper": 3704,
  "explanation": 3705,
  "waking": 3706,
  "remaining": 3707,
  "tracted": 3708,
  "circle": 3709,
  "upstairs": 3710,
  "indifferent": 3711,
  "glance": 3712,
  "ann": 3713,
  "tranquillity": 3714,
  "antly": 3715,
  "driven": 3716,
  "attached": 3717,
  "necessity": 3718,
  "Fri": 3719,
  "signs": 3720,
  "parents": 3721,
  "hurt": 3722,
  "Ch": 3723,
  "Could": 3724,
  "crossed": 3725,
  "worst": 3726,
  "meantime": 3727,
  "Once": 3728,
  "morse": 3729,
  "reve": 3730,
  "labour": 3731,
  "accusto": 3732,
  "accustomed": 3733,
  "Whilst": 3734,
  "revol": 3735,
  "trembled": 3736,
  "pall": 3737,
  "ashed": 3738,
  "voyage": 3739,
  "toil": 3740,
  "andy": 3741,
  "gold": 3742,
  "lamp": 3743,
  "wept": 3744,
  "east": 3745,
  "ghastly": 3746,
  "tight": 3747,
  "crucifix": 3748,
  "cart": 3749,
  "nodded": 3750,
  "police": 3751,
  "knife": 3752,
  "build": 3753,
  "ural": 3754,
  "istic": 3755,
  "heavi": 3756,
  "reserved": 3757,
  "remo": 3758,
  "operation": 3759,
  "princi": 3760,
  "ption": 3761,
  "frame": 3762,
  "prepare": 3763,
  "treated": 3764,
  "adi": 3765,
  "trusted": 3766,
  "shape": 3767,
  "ement": 3768,
  "grasp": 3769,
  "mild": 3770,
  "lucky": 3771,
  "seld": 3772,
  "seldom": 3773,
  "helpless": 3774,
  "aces": 3775,
  "dwelling": 3776,
  "folly": 3777,
  "criminal": 3778,
  "Though": 3779,
  "views": 3780,
  "tear": 3781,
  "amusement": 3782,
  "rapt": 3783,
  "ends": 3784,
  "assis": 3785,
  "etc": 3786,
  "twel": 3787,
  "twelve": 3788,
  "worthy": 3789,
  "nobody": 3790,
  "private": 3791,
  "bert": 3792,
  "steady": 3793,
  "bot": 3794,
  "begun": 3795,
  "freely": 3796,
  "felicity": 3797,
  "sooner": 3798,
  "assert": 3799,
  "energy": 3800,
  "politeness": 3801,
  "indifference": 3802,
  "aloud": 3803,
  "dine": 3804,
  "exertion": 3805,
  "created": 3806,
  "fill": 3807,
  "patience": 3808,
  "boast": 3809,
  "assist": 3810,
  "prevailed": 3811,
  "correspond": 3812,
  "sweetness": 3813,
  "gence": 3814,
  "farther": 3815,
  "taught": 3816,
  "Satur": 3817,
  "Saturday": 3818,
  "cere": 3819,
  "sonage": 3820,
  "relieved": 3821,
  "plans": 3822,
  "solitude": 3823,
  "heavens": 3824,
  "disgrace": 3825,
  "regarding": 3826,
  "puzz": 3827,
  "interference": 3828,
  "distressed": 3829,
  "san": 3830,
  "delive": 3831,
  "sentence": 3832,
  "sincerely": 3833,
  "encour": 3834,
  "apprehension": 3835,
  "crying": 3836,
  "sport": 3837,
  "eagerness": 3838,
  "pursued": 3839,
  "Was": 3840,
  "remorse": 3841,
  "aled": 3842,
  "sw": 3843,
  "faces": 3844,
  "jumped": 3845,
  "East": 3846,
  "rug": 3847,
  "nights": 3848,
  "limb": 3849,
  "journal": 3850,
  "overwhe": 3851,
  "overwhel": 3852,
  "pot": 3853,
  "sunshine": 3854,
  "strain": 3855,
  "creator": 3856,
  "flesh": 3857,
  "torture": 3858,
  "pulled": 3859,
  "Pres": 3860,
  "phon": 3861,
  "waters": 3862,
  "dry": 3863,
  "whir": 3864,
  "stones": 3865,
  "fierce": 3866,
  "Sud": 3867,
  "Sudden": 3868,
  "Suddenly": 3869,
  "Bistr": 3870,
  "Bistritz": 3871,
  "chapel": 3872,
  "Gal": 3873,
  "Galat": 3874,
  "Galatz": 3875,
  "perform": 3876,
  "utation": 3877,
  "amount": 3878,
  "comb": 3879,
  "execution": 3880,
  "interval": 3881,
  "ables": 3882,
  "needed": 3883,
  "bal": 3884,
  "communication": 3885,
  "special": 3886,
  "certainty": 3887,
  "ives": 3888,
  "sele": 3889,
  "quality": 3890,
  "George": 3891,
  "loving": 3892,
  "obsc": 3893,
  "sca": 3894,
  "antic": 3895,
  "sibility": 3896,
  "improved": 3897,
  "distinct": 3898,
  "awk": 3899,
  "awkward": 3900,
  "school": 3901,
  "ics": 3902,
  "effects": 3903,
  "Me": 3904,
  "mistake": 3905,
  "rench": 3906,
  "imper": 3907,
  "ric": 3908,
  "bearing": 3909,
  "viv": 3910,
  "inquiry": 3911,
  "cler": 3912,
  "ctors": 3913,
  "tolerable": 3914,
  "youngest": 3915,
  "failed": 3916,
  "accompanied": 3917,
  "univers": 3918,
  "estab": 3919,
  "recommend": 3920,
  "contented": 3921,
  "grieved": 3922,
  "pronounced": 3923,
  "principal": 3924,
  "press": 3925,
  "accomplished": 3926,
  "disappointed": 3927,
  "third": 3928,
  "likewise": 3929,
  "disposed": 3930,
  "respectable": 3931,
  "unwilling": 3932,
  "valuable": 3933,
  "listening": 3934,
  "Ano": 3935,
  "Another": 3936,
  "_him": 3937,
  "_him_": 3938,
  "sco": 3939,
  "nine": 3940,
  "becoming": 3941,
  "approaching": 3942,
  "swell": 3943,
  "dangerous": 3944,
  "examined": 3945,
  "sty": 3946,
  "phys": 3947,
  "housekeeper": 3948,
  "_my": 3949,
  "leaves": 3950,
  "oned": 3951,
  "ali": 3952,
  "diff": 3953,
  "consult": 3954,
  "keen": 3955,
  "Having": 3956,
  "anywhere": 3957,
  "mali": 3958,
  "stronger": 3959,
  "Bes": 3960,
  "Besides": 3961,
  "dressed": 3962,
  "aming": 3963,
  "ignorance": 3964,
  "suspense": 3965,
  "spared": 3966,
  "warn": 3967,
  "contained": 3968,
  "imagined": 3969,
  "tells": 3970,
  "ruin": 3971,
  "arewell": 3972,
  "Where": 3973,
  "chamber": 3974,
  "accordingly": 3975,
  "blast": 3976,
  "described": 3977,
  "extingu": 3978,
  "struggle": 3979,
  "mbrance": 3980,
  "foul": 3981,
  "fishing": 3982,
  "precious": 3983,
  "dar": 3984,
  "darling": 3985,
  "enthus": 3986,
  "enthusias": 3987,
  "aking": 3988,
  "madness": 3989,
  "restore": 3990,
  "adt": 3991,
  "madman": 3992,
  "Arab": 3993,
  "trance": 3994,
  "lum": 3995,
  "motioned": 3996,
  "crack": 3997,
  "hid": 3998,
  "fury": 3999,
  "cliff": 4000,
  "bolt": 4001,
  "coast": 4002,
  "sacred": 4003,
  "ky": 4004,
  "brows": 4005,
  "THE": 4006,
  "Di": 4007,
  "Diary": 4008,
  "ograph": 4009,
  "Friend": 4010,
  "lici": 4011,
  "licitor": 4012,
  "centuries": 4013,
  "Exeter": 4014,
  "sofa": 4015,
  "sane": 4016,
  "_Letter": 4017,
  "solemnly": 4018,
  "_Cz": 4019,
  "_Czar": 4020,
  "_Czarina": 4021,
  "Catherine_": 4022,
  "aspect": 4023,
  "recogn": 4024,
  "program": 4025,
  "examples": 4026,
  "ships": 4027,
  "according": 4028,
  "ization": 4029,
  "raw": 4030,
  "develo": 4031,
  "redu": 4032,
  "tribut": 4033,
  "size": 4034,
  "contain": 4035,
  "instance": 4036,
  "def": 4037,
  "track": 4038,
  "respon": 4039,
  "instructions": 4040,
  "clean": 4041,
  "ision": 4042,
  "confusion": 4043,
  "earlier": 4044,
  "corp": 4045,
  "shot": 4046,
  "cand": 4047,
  "prefer": 4048,
  "modern": 4049,
  "Ill": 4050,
  "Illust": 4051,
  "Wal": 4052,
  "curious": 4053,
  "delicacy": 4054,
  "gue": 4055,
  "figu": 4056,
  "figures": 4057,
  "occasions": 4058,
  "admit": 4059,
  "your_": 4060,
  "mense": 4061,
  "exhausted": 4062,
  "comparison": 4063,
  "studies": 4064,
  "iously": 4065,
  "distinguished": 4066,
  "birth": 4067,
  "impulse": 4068,
  "previous": 4069,
  "sentiments": 4070,
  "Only": 4071,
  "disagreeable": 4072,
  "lessness": 4073,
  "uttered": 4074,
  "exercise": 4075,
  "reen": 4076,
  "vex": 4077,
  "nerves": 4078,
  "fret": 4079,
  "office": 4080,
  "wore": 4081,
  "ned": 4082,
  "danced": 4083,
  "detest": 4084,
  "gratified": 4085,
  "learnt": 4086,
  "ost": 4087,
  "cheerfulness": 4088,
  "impert": 4089,
  "tolerably": 4090,
  "observing": 4091,
  "Very": 4092,
  "indignation": 4093,
  "considering": 4094,
  "offered": 4095,
  "incred": 4096,
  "solic": 4097,
  "_she": 4098,
  "_she_": 4099,
  "deserve": 4100,
  "chiefly": 4101,
  "wretchedness": 4102,
  "confined": 4103,
  "_my_": 4104,
  "performed": 4105,
  "rapidly": 4106,
  "approbation": 4107,
  "alous": 4108,
  "takes": 4109,
  "cure": 4110,
  "quarter": 4111,
  "About": 4112,
  "attempted": 4113,
  "patron": 4114,
  "depri": 4115,
  "inquire": 4116,
  "hot": 4117,
  "broad": 4118,
  "itary": 4119,
  "leg": 4120,
  "liness": 4121,
  "Heaven": 4122,
  "amazement": 4123,
  "wandered": 4124,
  "fatigue": 4125,
  "gradually": 4126,
  "assed": 4127,
  "esteem": 4128,
  "violence": 4129,
  "recollected": 4130,
  "renewed": 4131,
  "crowd": 4132,
  "supposing": 4133,
  "sunk": 4134,
  "mot": 4135,
  "thern": 4136,
  "senses": 4137,
  "elder": 4138,
  "teach": 4139,
  "sufferings": 4140,
  "narr": 4141,
  "alas": 4142,
  "sprang": 4143,
  "remembrance": 4144,
  "prey": 4145,
  "grees": 4146,
  "scat": 4147,
  "lord": 4148,
  "sensation": 4149,
  "sust": 4150,
  "nose": 4151,
  "notes": 4152,
  "anyhow": 4153,
  "unch": 4154,
  "busy": 4155,
  "bree": 4156,
  "raise": 4157,
  "chant": 4158,
  "mental": 4159,
  "frightful": 4160,
  "nurse": 4161,
  "Sw": 4162,
  "enjoyed": 4163,
  "shone": 4164,
  "Ingo": 4165,
  "Ingolst": 4166,
  "Ingolstadt": 4167,
  "asylum": 4168,
  "Presently": 4169,
  "deadly": 4170,
  "pill": 4171,
  "Transy": 4172,
  "Transyl": 4173,
  "Transylvan": 4174,
  "Pass": 4175,
  "Hol": 4176,
  "Holm": 4177,
  "Holmwood": 4178,
  "couldn": 4179,
  "lunch": 4180,
  "spiders": 4181,
  "hypnotic": 4182,
  "branch": 4183,
  "mach": 4184,
  "heavily": 4185,
  "determine": 4186,
  "date": 4187,
  "details": 4188,
  "space": 4189,
  "tree": 4190,
  "mal": 4191,
  "source": 4192,
  "ON": 4193,
  "vide": 4194,
  "uted": 4195,
  "produce": 4196,
  "verse": 4197,
  "actions": 4198,
  "monstr": 4199,
  "inction": 4200,
  "shocked": 4201,
  "priety": 4202,
  "provided": 4203,
  "delicate": 4204,
  "bles": 4205,
  "rit": 4206,
  "induce": 4207,
  "Wo": 4208,
  "impression": 4209,
  "appears": 4210,
  "formal": 4211,
  "male": 4212,
  "neglect": 4213,
  "soothe": 4214,
  "Lucases": 4215,
  "rational": 4216,
  "causes": 4217,
  "description": 4218,
  "tongue": 4219,
  "arse": 4220,
  "magn": 4221,
  "cases": 4222,
  "establ": 4223,
  "fanci": 4224,
  "introduction": 4225,
  "assistance": 4226,
  "forbid": 4227,
  "introduced": 4228,
  "admired": 4229,
  "spl": 4230,
  "antry": 4231,
  "cen": 4232,
  "_your_": 4233,
  "berty": 4234,
  "contrary": 4235,
  "intimate": 4236,
  "residence": 4237,
  "pack": 4238,
  "impertin": 4239,
  "fix": 4240,
  "perceive": 4241,
  "parties": 4242,
  "dined": 4243,
  "unfold": 4244,
  "severe": 4245,
  "smiling": 4246,
  "haste": 4247,
  "expressions": 4248,
  "ises": 4249,
  "idle": 4250,
  "aside": 4251,
  "observe": 4252,
  "game": 4253,
  "partiality": 4254,
  "driving": 4255,
  "attending": 4256,
  "perpet": 4257,
  "Pray": 4258,
  "obst": 4259,
  "domes": 4260,
  "ashes": 4261,
  "couple": 4262,
  "obt": 4263,
  "elev": 4264,
  "nes": 4265,
  "soften": 4266,
  "aster": 4267,
  "furnit": 4268,
  "furniture": 4269,
  "presented": 4270,
  "studied": 4271,
  "caution": 4272,
  "bowed": 4273,
  "signific": 4274,
  "athed": 4275,
  "liber": 4276,
  "delayed": 4277,
  "increasing": 4278,
  "trial": 4279,
  "arose": 4280,
  "console": 4281,
  "lance": 4282,
  "cide": 4283,
  "conscience": 4284,
  "concluded": 4285,
  "believing": 4286,
  "owed": 4287,
  "whither": 4288,
  "settle": 4289,
  "cease": 4290,
  "startled": 4291,
  "Those": 4292,
  "evils": 4293,
  "resign": 4294,
  "sheet": 4295,
  "Georgi": 4296,
  "Georgiana": 4297,
  "aging": 4298,
  "Two": 4299,
  "rude": 4300,
  "ome": 4301,
  "deceive": 4302,
  "gain": 4303,
  "pointing": 4304,
  "cross": 4305,
  "More": 4306,
  "obey": 4307,
  "Li": 4308,
  "fting": 4309,
  "gentleness": 4310,
  "Never": 4311,
  "hatred": 4312,
  "alled": 4313,
  "pan": 4314,
  "Scotland": 4315,
  "bosom": 4316,
  "shor": 4317,
  "endless": 4318,
  "Great": 4319,
  "attendants": 4320,
  "shr": 4321,
  "closer": 4322,
  "west": 4323,
  "frank": 4324,
  "benevolent": 4325,
  "horiz": 4326,
  "horizon": 4327,
  "sled": 4328,
  "midst": 4329,
  "limbs": 4330,
  "midnight": 4331,
  "fatal": 4332,
  "professor": 4333,
  "ald": 4334,
  "mock": 4335,
  "corpse": 4336,
  "Dan": 4337,
  "wounds": 4338,
  "finger": 4339,
  "funer": 4340,
  "funeral": 4341,
  "vampire": 4342,
  "hunger": 4343,
  "hovel": 4344,
  "leap": 4345,
  "Transylvania": 4346,
  "knock": 4347,
  "sleepy": 4348,
  "phonograph": 4349,
  "Jack": 4350,
  "wouldn": 4351,
  "arti": 4352,
  "numer": 4353,
  "grou": 4354,
  "ressive": 4355,
  "usal": 4356,
  "parame": 4357,
  "actual": 4358,
  "eval": 4359,
  "evalu": 4360,
  "arguments": 4361,
  "follows": 4362,
  "edges": 4363,
  "umn": 4364,
  "Pro": 4365,
  "points": 4366,
  "itive": 4367,
  "error": 4368,
  "collected": 4369,
  "crit": 4370,
  "tes": 4371,
  "ride": 4372,
  "ulties": 4373,
  "acted": 4374,
  "ius": 4375,
  "tones": 4376,
  "century": 4377,
  "ires": 4378,
  "immense": 4379,
  "mic": 4380,
  "tire": 4381,
  "humanity": 4382,
  "absolute": 4383,
  "female": 4384,
  "reproach": 4385,
  "gloomy": 4386,
  "playing": 4387,
  "achi": 4388,
  "comed": 4389,
  "proposal": 4390,
  "attle": 4391,
  "willingly": 4392,
  "lighted": 4393,
  "treas": 4394,
  "message": 4395,
  "minds": 4396,
  "pretend": 4397,
  "silly": 4398,
  "exclam": 4399,
  "starting": 4400,
  "occasionally": 4401,
  "stupid": 4402,
  "Upon": 4403,
  "ridic": 4404,
  "inhabitants": 4405,
  "elegant": 4406,
  "gown": 4407,
  "bitterness": 4408,
  "_his": 4409,
  "honest": 4410,
  "liberty": 4411,
  "attentive": 4412,
  "conceive": 4413,
  "formerly": 4414,
  "united": 4415,
  "advance": 4416,
  "wanting": 4417,
  "ridge": 4418,
  "impatient": 4419,
  "persuas": 4420,
  "tally": 4421,
  "recent": 4422,
  "goes": 4423,
  "crossing": 4424,
  "inconven": 4425,
  "style": 4426,
  "dependence": 4427,
  "improvement": 4428,
  "Everything": 4429,
  "tremble": 4430,
  "gracious": 4431,
  "modest": 4432,
  "zed": 4433,
  "Sun": 4434,
  "sacrifice": 4435,
  "examination": 4436,
  "bell": 4437,
  "roused": 4438,
  "Kent": 4439,
  "uneas": 4440,
  "hosp": 4441,
  "thinks": 4442,
  "writer": 4443,
  "pool": 4444,
  "humble": 4445,
  "abode": 4446,
  "mistress": 4447,
  "gest": 4448,
  "contempl": 4449,
  "utterly": 4450,
  "neighbours": 4451,
  "season": 4452,
  "procured": 4453,
  "employment": 4454,
  "active": 4455,
  "Parsonage": 4456,
  "visitors": 4457,
  "resemb": 4458,
  "decide": 4459,
  "deeper": 4460,
  "strike": 4461,
  "endeavouring": 4462,
  "disd": 4463,
  "vive": 4464,
  "reward": 4465,
  "duties": 4466,
  "gather": 4467,
  "laughing": 4468,
  "determination": 4469,
  "lament": 4470,
  "untarily": 4471,
  "double": 4472,
  "Soon": 4473,
  "envelope": 4474,
  "insen": 4475,
  "hasten": 4476,
  "wealth": 4477,
  "exped": 4478,
  "motions": 4479,
  "daily": 4480,
  "privile": 4481,
  "stayed": 4482,
  "harsh": 4483,
  "akes": 4484,
  "examining": 4485,
  "magistr": 4486,
  "magistrate": 4487,
  "hastened": 4488,
  "Shall": 4489,
  "rejoice": 4490,
  "solitary": 4491,
  "endeavours": 4492,
  "concealed": 4493,
  "hastily": 4494,
  "June": 4495,
  "mankind": 4496,
  "desperate": 4497,
  "woe": 4498,
  "degrees": 4499,
  "gay": 4500,
  "stretched": 4501,
  "na": 4502,
  "prise": 4503,
  "ilty": 4504,
  "apparently": 4505,
  "travelled": 4506,
  "lesson": 4507,
  "repose": 4508,
  "undertaking": 4509,
  "caused": 4510,
  "birds": 4511,
  "trick": 4512,
  "loose": 4513,
  "breeze": 4514,
  "ardour": 4515,
  "cean": 4516,
  "wra": 4517,
  "sympa": 4518,
  "sympathis": 4519,
  "committed": 4520,
  "idents": 4521,
  "stars": 4522,
  "groan": 4523,
  "sledge": 4524,
  "travel": 4525,
  "Str": 4526,
  "gazed": 4527,
  "keys": 4528,
  "horrors": 4529,
  "Arabian": 4530,
  "hideous": 4531,
  "asped": 4532,
  "oubled": 4533,
  "Mont": 4534,
  "torn": 4535,
  "sob": 4536,
  "thou": 4537,
  "heat": 4538,
  "silver": 4539,
  "terribly": 4540,
  "lack": 4541,
  "shout": 4542,
  "uk": 4543,
  "Slovaks": 4544,
  "excitement": 4545,
  "solicitor": 4546,
  "Vampire": 4547,
  "building": 4548,
  "require": 4549,
  "system": 4550,
  "cts": 4551,
  "example": 4552,
  "distribut": 4553,
  "repeatedly": 4554,
  "va": 4555,
  "forman": 4556,
  "level": 4557,
  "ists": 4558,
  "corre": 4559,
  "manage": 4560,
  "ulate": 4561,
  "foreign": 4562,
  "ware": 4563,
  "ources": 4564,
  "UR": 4565,
  "calcul": 4566,
  "dle": 4567,
  "resu": 4568,
  "smallest": 4569,
  "vesti": 4570,
  "limit": 4571,
  "Illustration": 4572,
  "finish": 4573,
  "undoubted": 4574,
  "quis": 4575,
  "sip": 4576,
  "dict": 4577,
  "declare": 4578,
  "judi": 4579,
  "judice": 4580,
  "perm": 4581,
  "17": 4582,
  "jection": 4583,
  "loves": 4584,
  "lights": 4585,
  "fault": 4586,
  "species": 4587,
  "Men": 4588,
  "motives": 4589,
  "setting": 4590,
  "remarkable": 4591,
  "defect": 4592,
  "Ger": 4593,
  "eding": 4594,
  "incapable": 4595,
  "authority": 4596,
  "horri": 4597,
  "moral": 4598,
  "thither": 4599,
  "missed": 4600,
  "injured": 4601,
  "thorough": 4602,
  "unjust": 4603,
  "proposals": 4604,
  "ully": 4605,
  "efforts": 4606,
  "affect": 4607,
  "parts": 4608,
  "likes": 4609,
  "asing": 4610,
  "tum": 4611,
  "surmis": 4612,
  "happily": 4613,
  "consequently": 4614,
  "Fir": 4615,
  "First": 4616,
  "inquired": 4617,
  "_his_": 4618,
  "memories": 4619,
  "angel": 4620,
  "remarkably": 4621,
  "member": 4622,
  "song": 4623,
  "pol": 4624,
  "resist": 4625,
  "supply": 4626,
  "contri": 4627,
  "animation": 4628,
  "usions": 4629,
  "adventure": 4630,
  "heartily": 4631,
  "extent": 4632,
  "condesc": 4633,
  "apparent": 4634,
  "vic": 4635,
  "slowly": 4636,
  "intend": 4637,
  "checked": 4638,
  "warmly": 4639,
  "domestic": 4640,
  "profession": 4641,
  "pictures": 4642,
  "refresh": 4643,
  "positively": 4644,
  "lessly": 4645,
  "embr": 4646,
  "tenderly": 4647,
  "wondered": 4648,
  "bitterly": 4649,
  "softened": 4650,
  "honoured": 4651,
  "deprived": 4652,
  "properly": 4653,
  "arise": 4654,
  "announ": 4655,
  "Den": 4656,
  "confir": 4657,
  "permission": 4658,
  "apartment": 4659,
  "increase": 4660,
  "borne": 4661,
  "relieve": 4662,
  "dignity": 4663,
  "reception": 4664,
  "impatience": 4665,
  "repul": 4666,
  "prepar": 4667,
  "reasons": 4668,
  "risk": 4669,
  "torment": 4670,
  "altered": 4671,
  "refused": 4672,
  "showing": 4673,
  "delivered": 4674,
  "Chris": 4675,
  "insp": 4676,
  "despond": 4677,
  "pure": 4678,
  "speedily": 4679,
  "hated": 4680,
  "ventured": 4681,
  "inations": 4682,
  "condemned": 4683,
  "acquies": 4684,
  "cheerfully": 4685,
  "travell": 4686,
  "rocks": 4687,
  "amidst": 4688,
  "sigh": 4689,
  "dressing": 4690,
  "awakened": 4691,
  "local": 4692,
  "ram": 4693,
  "infli": 4694,
  "suffering": 4695,
  "retreat": 4696,
  "instinctively": 4697,
  "rt": 4698,
  "rious": 4699,
  "flew": 4700,
  "glor": 4701,
  "abroad": 4702,
  "banks": 4703,
  "lawn": 4704,
  "lift": 4705,
  "stole": 4706,
  "chest": 4707,
  "guilty": 4708,
  "pers": 4709,
  "refu": 4710,
  "fulfil": 4711,
  "mult": 4712,
  "passions": 4713,
  "bold": 4714,
  "ancient": 4715,
  "penet": 4716,
  "Or": 4717,
  "eternal": 4718,
  "branches": 4719,
  "intense": 4720,
  "obed": 4721,
  "lored": 4722,
  "divine": 4723,
  "destiny": 4724,
  "shelter": 4725,
  "aly": 4726,
  "holy": 4727,
  "ghost": 4728,
  "mood": 4729,
  "squ": 4730,
  "shadows": 4731,
  "instruments": 4732,
  "superst": 4733,
  "bloom": 4734,
  "shri": 4735,
  "Er": 4736,
  "Ernest": 4737,
  "grass": 4738,
  "sleeps": 4739,
  "sails": 4740,
  "crimes": 4741,
  "rushing": 4742,
  "wings": 4743,
  "abhorred": 4744,
  "protectors": 4745,
  "swift": 4746,
  "voices": 4747,
  "landed": 4748,
  "closing": 4749,
  "Kir": 4750,
  "Kirwin": 4751,
  "dreaming": 4752,
  "Mur": 4753,
  "sorts": 4754,
  "lamps": 4755,
  "Sz": 4756,
  "Szg": 4757,
  "Szgany": 4758,
  "smell": 4759,
  "leth": 4760,
  "entry": 4761,
  "sweetly": 4762,
  "seconds": 4763,
  "spell": 4764,
  "ification": 4765,
  "neural": 4766,
  "ulti": 4767,
  "text": 4768,
  "sequence": 4769,
  "punct": 4770,
  "chan": 4771,
  "positions": 4772,
  "anges": 4773,
  "performan": 4774,
  "aries": 4775,
  "constru": 4776,
  "statement": 4777,
  "inde": 4778,
  "represented": 4779,
  "En": 4780,
  "oth": 4781,
  "principle": 4782,
  "relationship": 4783,
  "exe": 4784,
  "fil": 4785,
  "provide": 4786,
  "missing": 4787,
  "check": 4788,
  "examine": 4789,
  "scri": 4790,
  "obscure": 4791,
  "enth": 4792,
  "Park": 4793,
  "secured": 4794,
  "alo": 4795,
  "elope": 4796,
  "tour": 4797,
  "chill": 4798,
  "afforded": 4799,
  "built": 4800,
  "liter": 4801,
  "sex": 4802,
  "genius": 4803,
  "contrast": 4804,
  "original": 4805,
  "impressed": 4806,
  "successful": 4807,
  "flatter": 4808,
  "Le": 4809,
  "pap": 4810,
  "Don": 4811,
  "attract": 4812,
  "grounds": 4813,
  "pert": 4814,
  "magnific": 4815,
  "New": 4816,
  "seeking": 4817,
  "animated": 4818,
  "eloqu": 4819,
  "parting": 4820,
  "nieces": 4821,
  "_You": 4822,
  "_You_": 4823,
  "chaise": 4824,
  "preference": 4825,
  "mixt": 4826,
  "mixture": 4827,
  "amma": 4828,
  "introduce": 4829,
  "tumult": 4830,
  "ued": 4831,
  "cro": 4832,
  "ulation": 4833,
  "declined": 4834,
  "Certain": 4835,
  "treatment": 4836,
  "feels": 4837,
  "Remember": 4838,
  "appet": 4839,
  "unlike": 4840,
  "suspect": 4841,
  "seeming": 4842,
  "cool": 4843,
  "higher": 4844,
  "deny": 4845,
  "conjecture": 4846,
  "visits": 4847,
  "foolish": 4848,
  "spark": 4849,
  "spare": 4850,
  "wet": 4851,
  "dir": 4852,
  "cles": 4853,
  "parl": 4854,
  "absent": 4855,
  "abomin": 4856,
  "benefit": 4857,
  "zen": 4858,
  "faithful": 4859,
  "cun": 4860,
  "cunning": 4861,
  "advantages": 4862,
  "blush": 4863,
  "expressive": 4864,
  "apology": 4865,
  "Sunday": 4866,
  "thankful": 4867,
  "jealous": 4868,
  "icing": 4869,
  "welcomed": 4870,
  "obtained": 4871,
  "begins": 4872,
  "completely": 4873,
  "laughter": 4874,
  "diver": 4875,
  "Tues": 4876,
  "Tuesday": 4877,
  "staying": 4878,
  "suggested": 4879,
  "confirm": 4880,
  "uneasiness": 4881,
  "hereafter": 4882,
  "cousins": 4883,
  "solemnity": 4884,
  "Denny": 4885,
  "interruption": 4886,
  "sper": 4887,
  "alteration": 4888,
  "fitted": 4889,
  "lin": 4890,
  "fellows": 4891,
  "sincere": 4892,
  "honourable": 4893,
  "breaking": 4894,
  "engagements": 4895,
  "oked": 4896,
  "congratulations": 4897,
  "appeal": 4898,
  "enem": 4899,
  "enemies": 4900,
  "sin": 4901,
  "sentiment": 4902,
  "guide": 4903,
  "plainly": 4904,
  "openly": 4905,
  "ette": 4906,
  "seriously": 4907,
  "natured": 4908,
  "Were": 4909,
  "peak": 4910,
  "itable": 4911,
  "embarrass": 4912,
  "intercourse": 4913,
  "keeps": 4914,
  "happiest": 4915,
  "secre": 4916,
  "secrecy": 4917,
  "rated": 4918,
  "encouraged": 4919,
  "wear": 4920,
  "apsed": 4921,
  "abhorrence": 4922,
  "slightly": 4923,
  "prud": 4924,
  "violently": 4925,
  "walks": 4926,
  "affections": 4927,
  "slo": 4928,
  "ulated": 4929,
  "plent": 4930,
  "confused": 4931,
  "strangers": 4932,
  "fifty": 4933,
  "partly": 4934,
  "agitated": 4935,
  "ardently": 4936,
  "pover": 4937,
  "poverty": 4938,
  "behaved": 4939,
  "Forgive": 4940,
  "fastened": 4941,
  "sold": 4942,
  "ington": 4943,
  "Sure": 4944,
  "lds": 4945,
  "ardent": 4946,
  "bewild": 4947,
  "Green": 4948,
  "lap": 4949,
  "trembling": 4950,
  "bodies": 4951,
  "deserted": 4952,
  "refuge": 4953,
  "bas": 4954,
  "Because": 4955,
  "pin": 4956,
  "burgh": 4957,
  "enterprise": 4958,
  "enthusiasm": 4959,
  "ocean": 4960,
  "Amer": 4961,
  "Americ": 4962,
  "rope": 4963,
  "cabin": 4964,
  "mysterious": 4965,
  "radi": 4966,
  "behold": 4967,
  "occupations": 4968,
  "leag": 4969,
  "hiding": 4970,
  "conceived": 4971,
  "acle": 4972,
  "buried": 4973,
  "clung": 4974,
  "yellow": 4975,
  "troubled": 4976,
  "Man": 4977,
  "mourn": 4978,
  "snowy": 4979,
  "Switz": 4980,
  "Switzer": 4981,
  "Switzerland": 4982,
  "shuddered": 4983,
  "desolate": 4984,
  "curse": 4985,
  "forest": 4986,
  "weap": 4987,
  "rays": 4988,
  "Fort": 4989,
  "beast": 4990,
  "sli": 4991,
  "create": 4992,
  "soundly": 4993,
  "lk": 4994,
  "mercy": 4995,
  "Murray": 4996,
  "shorth": 4997,
  "shorthand": 4998,
  "Cast": 4999,
  "Castle": 5000,
  "agent": 5001,
  "volup": 5002,
  "volupt": 5003,
  "voluptuous": 5004,
  "tied": 5005,
  "Him": 5006,
  "waked": 5007,
  "hypnotise": 5008,
  "Skins": 5009,
  "Skinsky": 5010,
  "machine": 5011,
  "blem": 5012,
  "price": 5013,
  "vision": 5014,
  "network": 5015,
  "generation": 5016,
  "mechan": 5017,
  "optim": 5018,
  "parameters": 5019,
  "Cross": 5020,
  "ize": 5021,
  "indic": 5022,
  "changes": 5023,
  "decay": 5024,
  "performance": 5025,
  "pment": 5026,
  "ax": 5027,
  "associ": 5028,
  "values": 5029,
  "access": 5030,
  "correct": 5031,
  "characteristic": 5032,
  "earliest": 5033,
  "explo": 5034,
  "Its": 5035,
  "leading": 5036,
  "sn": 5037,
  "quant": 5038,
  "exis": 5039,
  "abilities": 5040,
  "indiv": 5041,
  "individ": 5042,
  "AN": 5043,
  "owe": 5044,
  "distinction": 5045,
  "fairly": 5046,
  "ites": 5047,
  "novel": 5048,
  "alling": 5049,
  "exquis": 5050,
  "exquisite": 5051,
  "admitted": 5052,
  "rs": 5053,
  "permitted": 5054,
  "elopement": 5055,
  "displayed": 5056,
  "consum": 5057,
  "restrained": 5058,
  "born": 5059,
  "hill": 5060,
  "French": 5061,
  "labor": 5062,
  "cof": 5063,
  "coffee": 5064,
  "philosop": 5065,
  "draught": 5066,
  "selfishness": 5067,
  "conc": 5068,
  "satisfac": 5069,
  "parish": 5070,
  "entail": 5071,
  "compliments": 5072,
  "intelle": 5073,
  "intellect": 5074,
  "pains": 5075,
  "trad": 5076,
  "doom": 5077,
  "bits": 5078,
  "ior": 5079,
  "hun": 5080,
  "complexion": 5081,
  "gets": 5082,
  "scrup": 5083,
  "choo": 5084,
  "insufficient": 5085,
  "Ay": 5086,
  "unlucky": 5087,
  "ascertain": 5088,
  "dances": 5089,
  "uncommonly": 5090,
  "withdrew": 5091,
  "cordi": 5092,
  "splend": 5093,
  "excessively": 5094,
  "caut": 5095,
  "owner": 5096,
  "wherever": 5097,
  "quitting": 5098,
  "mile": 5099,
  "wine": 5100,
  "argument": 5101,
  "encouragement": 5102,
  "undoubtedly": 5103,
  "partial": 5104,
  "appetite": 5105,
  "desirable": 5106,
  "noise": 5107,
  "totally": 5108,
  "fortunately": 5109,
  "suspe": 5110,
  "suspected": 5111,
  "insist": 5112,
  "orders": 5113,
  "paired": 5114,
  "weary": 5115,
  "parlour": 5116,
  "poured": 5117,
  "expen": 5118,
  "tenderness": 5119,
  "invited": 5120,
  "advise": 5121,
  "buy": 5122,
  "laying": 5123,
  "complain": 5124,
  "comply": 5125,
  "contents": 5126,
  "reminded": 5127,
  "intimacy": 5128,
  "amazed": 5129,
  "infer": 5130,
  "preceding": 5131,
  "dropped": 5132,
  "fish": 5133,
  "cared": 5134,
  "moreover": 5135,
  "blessing": 5136,
  "apologi": 5137,
  "preparing": 5138,
  "pha": 5139,
  "peculiarly": 5140,
  "resolute": 5141,
  "deliber": 5142,
  "income": 5143,
  "confirmed": 5144,
  "commission": 5145,
  "justified": 5146,
  "kets": 5147,
  "attributed": 5148,
  "dig": 5149,
  "resolving": 5150,
  "dull": 5151,
  "drop": 5152,
  "oblig": 5153,
  "powerful": 5154,
  "Since": 5155,
  "commen": 5156,
  "temptation": 5157,
  "courtes": 5158,
  "forci": 5159,
  "disdain": 5160,
  "malice": 5161,
  "recollect": 5162,
  "discourse": 5163,
  "itual": 5164,
  "Dear": 5165,
  "Beli": 5166,
  "Believe": 5167,
  "apply": 5168,
  "interview": 5169,
  "hopeless": 5170,
  "fusion": 5171,
  "embarrassment": 5172,
  "accompany": 5173,
  "intently": 5174,
  "overcame": 5175,
  "irk": 5176,
  "procure": 5177,
  "elapsed": 5178,
  "confessed": 5179,
  "privilege": 5180,
  "struggled": 5181,
  "ums": 5182,
  "vig": 5183,
  "mbled": 5184,
  "northern": 5185,
  "glory": 5186,
  "fields": 5187,
  "situated": 5188,
  "ascended": 5189,
  "played": 5190,
  "distinguish": 5191,
  "travelling": 5192,
  "sinking": 5193,
  "emer": 5194,
  "raising": 5195,
  "objections": 5196,
  "intentions": 5197,
  "recover": 5198,
  "preserve": 5199,
  "supported": 5200,
  "AR": 5201,
  "cleared": 5202,
  "vague": 5203,
  "wickedness": 5204,
  "secrets": 5205,
  "streets": 5206,
  "whence": 5207,
  "vanished": 5208,
  "carrying": 5209,
  "vived": 5210,
  "scattered": 5211,
  "hanging": 5212,
  "obtain": 5213,
  "debts": 5214,
  "bewildered": 5215,
  "cares": 5216,
  "sus": 5217,
  "tible": 5218,
  "strangely": 5219,
  "puzzled": 5220,
  "miseries": 5221,
  "gare": 5222,
  "garet": 5223,
  "sailors": 5224,
  "physical": 5225,
  "Sh": 5226,
  "masses": 5227,
  "brandy": 5228,
  "peril": 5229,
  "tu": 5230,
  "cript": 5231,
  "inf": 5232,
  "gladness": 5233,
  "disease": 5234,
  "summit": 5235,
  "endous": 5236,
  "courty": 5237,
  "courtyard": 5238,
  "lone": 5239,
  "lonely": 5240,
  "consu": 5241,
  "reported": 5242,
  "peasants": 5243,
  "war": 5244,
  "raving": 5245,
  "crept": 5246,
  "winds": 5247,
  "thousands": 5248,
  "sorrowful": 5249,
  "hellish": 5250,
  "ots": 5251,
  "walls": 5252,
  "whirl": 5253,
  "pillow": 5254,
  "Paris": 5255,
  "chains": 5256,
  "forces": 5257,
  "boats": 5258,
  "sand": 5259,
  "rub": 5260,
  "_3": 5261,
  "Carpath": 5262,
  "sweep": 5263,
  "Bor": 5264,
  "Borgo": 5265,
  "pallor": 5266,
  "psi": 5267,
  "psies": 5268,
  "_30": 5269,
  "typewriter": 5270,
  "Cli": 5271,
  "Cliff": 5272,
  "flapping": 5273,
  "screw": 5274,
  "Amster": 5275,
  "Amsterdam": 5276,
  "yer": 5277,
  "afer": 5278,
  "systems": 5279,
  "rule": 5280,
  "licit": 5281,
  "algor": 5282,
  "algorith": 5283,
  "observ": 5284,
  "multi": 5285,
  "input": 5286,
  "rag": 5287,
  "measures": 5288,
  "necessarily": 5289,
  "group": 5290,
  "aliz": 5291,
  "uncertain": 5292,
  "code": 5293,
  "operations": 5294,
  "removal": 5295,
  "blu": 5296,
  "tables": 5297,
  "ancy": 5298,
  "communicate": 5299,
  "control": 5300,
  "coll": 5301,
  "issu": 5302,
  "rele": 5303,
  "apt": 5304,
  "concerns": 5305,
  "larger": 5306,
  "Rus": 5307,
  "maj": 5308,
  "vul": 5309,
  "varied": 5310,
  "incident": 5311,
  "disgu": 5312,
  "gif": 5313,
  "pieces": 5314,
  "visions": 5315,
  "custom": 5316,
  "ister": 5317,
  "eenth": 5318,
  "nin": 5319,
  "consciousness": 5320,
  "exhibited": 5321,
  "protested": 5322,
  "nail": 5323,
  "unnatural": 5324,
  "charged": 5325,
  "thri": 5326,
  "beauties": 5327,
  "griev": 5328,
  "veness": 5329,
  "conditions": 5330,
  "suspicious": 5331,
  "phr": 5332,
  "injury": 5333,
  "Still": 5334,
  "uncommon": 5335,
  "magnificent": 5336,
  "occasional": 5337,
  "hip": 5338,
  "entreaties": 5339,
  "isance": 5340,
  "llable": 5341,
  "Monday": 5342,
  "fancied": 5343,
  "mamma": 5344,
  "nonsense": 5345,
  "entertained": 5346,
  "punishment": 5347,
  "Certainly": 5348,
  "sailed": 5349,
  "Bet": 5350,
  "commend": 5351,
  "Bennets": 5352,
  "nigh": 5353,
  "friendly": 5354,
  "opinions": 5355,
  "sees": 5356,
  "enab": 5357,
  "vexation": 5358,
  "fying": 5359,
  "acknowledge": 5360,
  "sav": 5361,
  "persuasion": 5362,
  "shop": 5363,
  "vac": 5364,
  "Yours": 5365,
  "farm": 5366,
  "ache": 5367,
  "fling": 5368,
  "benevolence": 5369,
  "glow": 5370,
  "polite": 5371,
  "silently": 5372,
  "solicitude": 5373,
  "pressing": 5374,
  "summoned": 5375,
  "assent": 5376,
  "fet": 5377,
  "deserved": 5378,
  "subst": 5379,
  "injustice": 5380,
  "Whatever": 5381,
  "recommended": 5382,
  "variety": 5383,
  "amused": 5384,
  "modesty": 5385,
  "proceeding": 5386,
  "seize": 5387,
  "calmness": 5388,
  "attemp": 5389,
  "presu": 5390,
  "ension": 5391,
  "attracted": 5392,
  "Wed": 5393,
  "Wednes": 5394,
  "Wednesday": 5395,
  "_he": 5396,
  "_he_": 5397,
  "lane": 5398,
  "marks": 5399,
  "arranging": 5400,
  "llen": 5401,
  "prosper": 5402,
  "recall": 5403,
  "occupation": 5404,
  "mutual": 5405,
  "chim": 5406,
  "recollections": 5407,
  "regarded": 5408,
  "extravag": 5409,
  "imprudence": 5410,
  "vity": 5411,
  "destined": 5412,
  "invent": 5413,
  "anticip": 5414,
  "surmise": 5415,
  "surmount": 5416,
  "ecst": 5417,
  "unpleasant": 5418,
  "resemblance": 5419,
  "desirous": 5420,
  "perceiving": 5421,
  "courtesy": 5422,
  "interrupt": 5423,
  "forcibly": 5424,
  "imprudent": 5425,
  "assurances": 5426,
  "entreaty": 5427,
  "stair": 5428,
  "turns": 5429,
  "gaiety": 5430,
  "denied": 5431,
  "discussion": 5432,
  "mischief": 5433,
  "emotions": 5434,
  "tranquil": 5435,
  "falsehood": 5436,
  "slave": 5437,
  "arted": 5438,
  "Grace": 5439,
  "relating": 5440,
  "artic": 5441,
  "pleasures": 5442,
  "encounter": 5443,
  "throughout": 5444,
  "azing": 5445,
  "placing": 5446,
  "neglected": 5447,
  "judged": 5448,
  "Youn": 5449,
  "leaning": 5450,
  "gling": 5451,
  "glimp": 5452,
  "glimpse": 5453,
  "Pur": 5454,
  "repu": 5455,
  "hesitated": 5456,
  "accused": 5457,
  "ams": 5458,
  "err": 5459,
  "weig": 5460,
  "weighed": 5461,
  "pled": 5462,
  "prejud": 5463,
  "bought": 5464,
  "chin": 5465,
  "straw": 5466,
  "quantity": 5467,
  "bade": 5468,
  "restless": 5469,
  "happier": 5470,
  "rob": 5471,
  "Lamb": 5472,
  "Lambton": 5473,
  "cord": 5474,
  "Rey": 5475,
  "Reyno": 5476,
  "Reynolds": 5477,
  "oak": 5478,
  "ker": 5479,
  "mption": 5480,
  "downstairs": 5481,
  "killed": 5482,
  "terrific": 5483,
  "brains": 5484,
  "hyster": 5485,
  "consul": 5486,
  "shrink": 5487,
  "multitude": 5488,
  "maids": 5489,
  "hired": 5490,
  "hang": 5491,
  "wink": 5492,
  "waste": 5493,
  "shoulders": 5494,
  "Margaret": 5495,
  "Sea": 5496,
  "crew": 5497,
  "merchant": 5498,
  "stature": 5499,
  "island": 5500,
  "dash": 5501,
  "series": 5502,
  "fulfilled": 5503,
  "peasant": 5504,
  "unge": 5505,
  "omed": 5506,
  "hidden": 5507,
  "laws": 5508,
  "Cor": 5509,
  "Nature": 5510,
  "realise": 5511,
  "demon": 5512,
  "apped": 5513,
  "placid": 5514,
  "gesture": 5515,
  "autumn": 5516,
  "kneel": 5517,
  "graves": 5518,
  "base": 5519,
  "shining": 5520,
  "wreath": 5521,
  "poison": 5522,
  "sunlight": 5523,
  "diabo": 5524,
  "diabolic": 5525,
  "thee": 5526,
  "blot": 5527,
  "rare": 5528,
  "Fortun": 5529,
  "Fortunately": 5530,
  "cursed": 5531,
  "howl": 5532,
  "flames": 5533,
  "peo": 5534,
  "wrought": 5535,
  "eaten": 5536,
  "Ber": 5537,
  "folk": 5538,
  "apse": 5539,
  "blew": 5540,
  "hunt": 5541,
  "Danu": 5542,
  "Danube": 5543,
  "queer": 5544,
  "_5": 5545,
  "leaned": 5546,
  "steam": 5547,
  "manifestly": 5548,
  "Bers": 5549,
  "nerve": 5550,
  "beating": 5551,
  "icker": 5552,
  "doesn": 5553,
  "coastguard": 5554,
  "gas": 5555,
  "tiny": 5556,
  "spiritual": 5557,
  "rats": 5558,
  "include": 5559,
  "cate": 5560,
  "tokens": 5561,
  "ential": 5562,
  "available": 5563,
  "descent": 5564,
  "datas": 5565,
  "dataset": 5566,
  "fitting": 5567,
  "closely": 5568,
  "final": 5569,
  "analy": 5570,
  "scient": 5571,
  "practice": 5572,
  "pace": 5573,
  "element": 5574,
  "push": 5575,
  "pop": 5576,
  "consis": 5577,
  "Each": 5578,
  "heap": 5579,
  "resource": 5580,
  "mbers": 5581,
  "project": 5582,
  "host": 5583,
  "bing": 5584,
  "zing": 5585,
  "iance": 5586,
  "middle": 5587,
  "Ac": 5588,
  "positive": 5589,
  "matri": 5590,
  "neg": 5591,
  "selected": 5592,
  "sively": 5593,
  "experiment": 5594,
  "shared": 5595,
  "sensitive": 5596,
  "lim": 5597,
  "Under": 5598,
  "kin": 5599,
  "House": 5600,
  "illust": 5601,
  "brings": 5602,
  "critical": 5603,
  "scale": 5604,
  "romantic": 5605,
  "characters": 5606,
  "vulgar": 5607,
  "propose": 5608,
  "propriety": 5609,
  "transa": 5610,
  "aver": 5611,
  "seness": 5612,
  "differently": 5613,
  "Brit": 5614,
  "nic": 5615,
  "mixed": 5616,
  "mini": 5617,
  "retire": 5618,
  "frost": 5619,
  "metal": 5620,
  "breeding": 5621,
  "rily": 5622,
  "shade": 5623,
  "habits": 5624,
  "stock": 5625,
  "Gardiners": 5626,
  "papa": 5627,
  "restor": 5628,
  "refusal": 5629,
  "attacked": 5630,
  "phrase": 5631,
  "battle": 5632,
  "bred": 5633,
  "awe": 5634,
  "slightest": 5635,
  "logical": 5636,
  "10": 5637,
  "IV": 5638,
  "VI": 5639,
  "treasure": 5640,
  "families": 5641,
  "Des": 5642,
  "chooses": 5643,
  "reserve": 5644,
  "exclamation": 5645,
  "satisfactory": 5646,
  "assembly": 5647,
  "flying": 5648,
  "dom": 5649,
  "expectations": 5650,
  "approve": 5651,
  "Between": 5652,
  "tier": 5653,
  "stif": 5654,
  "cili": 5655,
  "courte": 5656,
  "enabled": 5657,
  "assembled": 5658,
  "oking": 5659,
  "savage": 5660,
  "oblige": 5661,
  "rever": 5662,
  "inspir": 5663,
  "lod": 5664,
  "Cap": 5665,
  "Captain": 5666,
  "Lou": 5667,
  "Till": 5668,
  "brill": 5669,
  "consented": 5670,
  "dish": 5671,
  "shows": 5672,
  "ially": 5673,
  "_not": 5674,
  "_not_": 5675,
  "estim": 5676,
  "range": 5677,
  "esteemed": 5678,
  "elegance": 5679,
  "directions": 5680,
  "remove": 5681,
  "offended": 5682,
  "mentioning": 5683,
  "poet": 5684,
  "ensu": 5685,
  "trou": 5686,
  "needless": 5687,
  "Would": 5688,
  "indulgence": 5689,
  "inferior": 5690,
  "rubb": 5691,
  "picturesque": 5692,
  "jected": 5693,
  "perpetually": 5694,
  "wned": 5695,
  "unconsciously": 5696,
  "ule": 5697,
  "ults": 5698,
  "uding": 5699,
  "separation": 5700,
  "rail": 5701,
  "benefic": 5702,
  "clergy": 5703,
  "itality": 5704,
  "begged": 5705,
  "separated": 5706,
  "officer": 5707,
  "Something": 5708,
  "conveyed": 5709,
  "ceremony": 5710,
  "depended": 5711,
  "ecstasy": 5712,
  "commenced": 5713,
  "ching": 5714,
  "prejudice": 5715,
  "occurren": 5716,
  "occurrences": 5717,
  "respects": 5718,
  "permit": 5719,
  "discer": 5720,
  "audi": 5721,
  "cken": 5722,
  "prevail": 5723,
  "carriages": 5724,
  "Jen": 5725,
  "Jenkins": 5726,
  "Jenkinson": 5727,
  "intending": 5728,
  "ork": 5729,
  "tongues": 5730,
  "resigned": 5731,
  "equi": 5732,
  "irksome": 5733,
  "valued": 5734,
  "longing": 5735,
  "calmly": 5736,
  "barbar": 5737,
  "bable": 5738,
  "tid": 5739,
  "communicated": 5740,
  "True": 5741,
  "iated": 5742,
  "Gracechurch": 5743,
  "farewell": 5744,
  "inate": 5745,
  "strug": 5746,
  "wonders": 5747,
  "accurate": 5748,
  "culti": 5749,
  "letting": 5750,
  "uously": 5751,
  "arrangement": 5752,
  "indeb": 5753,
  "indebted": 5754,
  "frighten": 5755,
  "coloured": 5756,
  "ruined": 5757,
  "banished": 5758,
  "conqu": 5759,
  "reduced": 5760,
  "pelled": 5761,
  "mingled": 5762,
  "gates": 5763,
  "nearest": 5764,
  "extinguished": 5765,
  "survive": 5766,
  "dissip": 5767,
  "relig": 5768,
  "accent": 5769,
  "exposed": 5770,
  "Already": 5771,
  "formity": 5772,
  "bridge": 5773,
  "wander": 5774,
  "conjectured": 5775,
  "completed": 5776,
  "traces": 5777,
  "iate": 5778,
  "yielded": 5779,
  "thence": 5780,
  "insisted": 5781,
  "ambition": 5782,
  "unusual": 5783,
  "desolation": 5784,
  "wond": 5785,
  "Thomas": 5786,
  "lux": 5787,
  "Russi": 5788,
  "rugged": 5789,
  "obedience": 5790,
  "astonishing": 5791,
  "toils": 5792,
  "tin": 5793,
  "dangers": 5794,
  "witnesses": 5795,
  "Eu": 5796,
  "perish": 5797,
  "overwhelmed": 5798,
  "rowing": 5799,
  "advers": 5800,
  "Sever": 5801,
  "Several": 5802,
  "knelt": 5803,
  "virtues": 5804,
  "ligh": 5805,
  "subli": 5806,
  "sublime": 5807,
  "pine": 5808,
  "contemplated": 5809,
  "pul": 5810,
  "peaceful": 5811,
  "Mag": 5812,
  "student": 5813,
  "potent": 5814,
  "countenances": 5815,
  "Krem": 5816,
  "Krempe": 5817,
  "Wald": 5818,
  "Waldman": 5819,
  "superstition": 5820,
  "lifeless": 5821,
  "materials": 5822,
  "bones": 5823,
  "dre": 5824,
  "skin": 5825,
  "lightning": 5826,
  "drops": 5827,
  "flash": 5828,
  "tore": 5829,
  "wail": 5830,
  "smoke": 5831,
  "glorious": 5832,
  "stained": 5833,
  "touching": 5834,
  "milk": 5835,
  "daylight": 5836,
  "Lace": 5837,
  "Lacey": 5838,
  "haun": 5839,
  "burned": 5840,
  "realised": 5841,
  "Rh": 5842,
  "snat": 5843,
  "creaking": 5844,
  "aboard": 5845,
  "cling": 5846,
  "lantern": 5847,
  "ait": 5848,
  "mare": 5849,
  "devotion": 5850,
  "Black": 5851,
  "bark": 5852,
  "rolled": 5853,
  "Carpathians": 5854,
  "waist": 5855,
  "_4": 5856,
  "Fin": 5857,
  "glasses": 5858,
  "passen": 5859,
  "awhile": 5860,
  "peoples": 5861,
  "Bill": 5862,
  "_25": 5863,
  "_29": 5864,
  "hammer": 5865,
  "wasn": 5866,
  "Tele": 5867,
  "Pier": 5868,
  "wax": 5869,
  "Hilling": 5870,
  "Hillingham": 5871,
  "lethar": 5872,
  "transfusion": 5873,
  "wire": 5874,
  "Bersicker": 5875,
  "stertor": 5876,
  "copy": 5877,
  "launch": 5878,
  "gypsies": 5879,
  "ficial": 5880,
  "observations": 5881,
  "allows": 5882,
  "ament": 5883,
  "optimization": 5884,
  "dated": 5885,
  "dates": 5886,
  "development": 5887,
  "evaluation": 5888,
  "interpret": 5889,
  "designed": 5890,
  "results": 5891,
  "Com": 5892,
  "paths": 5893,
  "collection": 5894,
  "structure": 5895,
  "bread": 5896,
  "recur": 5897,
  "unnecessary": 5898,
  "integr": 5899,
  "bilities": 5900,
  "management": 5901,
  "managed": 5902,
  "thread": 5903,
  "belonging": 5904,
  "Comp": 5905,
  "recei": 5906,
  "tical": 5907,
  "collecting": 5908,
  "adding": 5909,
  "feature": 5910,
  "atives": 5911,
  "smooth": 5912,
  "activ": 5913,
  "feed": 5914,
  "scrat": 5915,
  "separate": 5916,
  "corrup": 5917,
  "exten": 5918,
  "AL": 5919,
  "15": 5920,
  "RI": 5921,
  "ES": 5922,
  "numerous": 5923,
  "atively": 5924,
  "fifteen": 5925,
  "13": 5926,
  "Chur": 5927,
  "contribut": 5928,
  "admirable": 5929,
  "talent": 5930,
  "startling": 5931,
  "gallery": 5932,
  "stage": 5933,
  "merit": 5934,
  "reci": 5935,
  "faculties": 5936,
  "distinctly": 5937,
  "ator": 5938,
  "cruelty": 5939,
  "Smo": 5940,
  "Smoll": 5941,
  "Smollet": 5942,
  "reasonably": 5943,
  "German": 5944,
  "know_": 5945,
  "tian": 5946,
  "trait": 5947,
  "gig": 5948,
  "alluded": 5949,
  "singing": 5950,
  "achieve": 5951,
  "wonderfully": 5952,
  "hesitation": 5953,
  "disguise": 5954,
  "12": 5955,
  "eloquence": 5956,
  "Whe": 5957,
  "syllable": 5958,
  "hearty": 5959,
  "humoured": 5960,
  "disc": 5961,
  "somebody": 5962,
  "joke": 5963,
  "patched": 5964,
  "quieted": 5965,
  "seven": 5966,
  "gentlemanlike": 5967,
  "compared": 5968,
  "catching": 5969,
  "splendid": 5970,
  "vexed": 5971,
  "spr": 5972,
  "gallantry": 5973,
  "hasty": 5974,
  "converse": 5975,
  "defic": 5976,
  "educated": 5977,
  "trade": 5978,
  "inher": 5979,
  "established": 5980,
  "sufficiently": 5981,
  "courteous": 5982,
  "bottle": 5983,
  "intolerable": 5984,
  "suspicions": 5985,
  "dispositions": 5986,
  "sym": 5987,
  "persever": 5988,
  "accomplish": 5989,
  "engros": 5990,
  "notion": 5991,
  "shake": 5992,
  "cost": 5993,
  "flowed": 5994,
  "Carter": 5995,
  "Louis": 5996,
  "quarrel": 5997,
  "trifling": 5998,
  "dirty": 5999,
  "ifying": 6000,
  "feverish": 6001,
  "expressing": 6002,
  "elsewhere": 6003,
  "testi": 6004,
  "impertinence": 6005,
  "excessive": 6006,
  "expense": 6007,
  "Charles": 6008,
  "dozen": 6009,
  "languages": 6010,
  "arts": 6011,
  "uncomfortable": 6012,
  "advis": 6013,
  "_That": 6014,
  "_That_": 6015,
  "repeating": 6016,
  "signal": 6017,
  "remarks": 6018,
  "rapidity": 6019,
  "denial": 6020,
  "deference": 6021,
  "rity": 6022,
  "schemes": 6023,
  "provo": 6024,
  "principally": 6025,
  "ume": 6026,
  "balls": 6027,
  "attitude": 6028,
  "expose": 6029,
  "wisest": 6030,
  "acing": 6031,
  "liest": 6032,
  "sly": 6033,
  "doubts": 6034,
  "fearing": 6035,
  "clergyman": 6036,
  "appearing": 6037,
  "owing": 6038,
  "elevated": 6039,
  "condescension": 6040,
  "aching": 6041,
  "Has": 6042,
  "Cour": 6043,
  "absur": 6044,
  "absurd": 6045,
  "assisted": 6046,
  "eligi": 6047,
  "wandering": 6048,
  "entreated": 6049,
  "loudly": 6050,
  "resis": 6051,
  "suitable": 6052,
  "grande": 6053,
  "grandeur": 6054,
  "quali": 6055,
  "deserts": 6056,
  "tem": 6057,
  "god": 6058,
  "induced": 6059,
  "confident": 6060,
  "sixteen": 6061,
  "everyone": 6062,
  "distressing": 6063,
  "hurrying": 6064,
  "claims": 6065,
  "xy": 6066,
  "forbear": 6067,
  "mortific": 6068,
  "allusion": 6069,
  "believes": 6070,
  "scope": 6071,
  "nment": 6072,
  "etr": 6073,
  "pretending": 6074,
  "sensi": 6075,
  "embarrassed": 6076,
  "addresses": 6077,
  "refusing": 6078,
  "falls": 6079,
  "brief": 6080,
  "attra": 6081,
  "loveliness": 6082,
  "ows": 6083,
  "deserving": 6084,
  "voluntarily": 6085,
  "correspondence": 6086,
  "distrust": 6087,
  "heightened": 6088,
  "engaging": 6089,
  "hesitate": 6090,
  "shaken": 6091,
  "hoping": 6092,
  "bounds": 6093,
  "momentary": 6094,
  "improbable": 6095,
  "Neither": 6096,
  "Day": 6097,
  "wounded": 6098,
  "continual": 6099,
  "conj": 6100,
  "clearly": 6101,
  "bride": 6102,
  "becomes": 6103,
  "correspondent": 6104,
  "bidding": 6105,
  "travellers": 6106,
  "allied": 6107,
  "transport": 6108,
  "rivers": 6109,
  "repent": 6110,
  "bottom": 6111,
  "echo": 6112,
  "ws": 6113,
  "governess": 6114,
  "Little": 6115,
  "lasting": 6116,
  "sadly": 6117,
  "assumed": 6118,
  "blasted": 6119,
  "betrayed": 6120,
  "conducted": 6121,
  "ultim": 6122,
  "concealment": 6123,
  "narrative": 6124,
  "hence": 6125,
  "IL": 6126,
  "oppressed": 6127,
  "domin": 6128,
  "zard": 6129,
  "soothed": 6130,
  "flirt": 6131,
  "dee": 6132,
  "gly": 6133,
  "torted": 6134,
  "spur": 6135,
  "Surely": 6136,
  "hearted": 6137,
  "serve": 6138,
  "accents": 6139,
  "tast": 6140,
  "rou": 6141,
  "lof": 6142,
  "lofty": 6143,
  "signed": 6144,
  "lasted": 6145,
  "guessed": 6146,
  "bending": 6147,
  "additional": 6148,
  "embraced": 6149,
  "remarked": 6150,
  "tit": 6151,
  "runs": 6152,
  "threats": 6153,
  "dili": 6154,
  "consulted": 6155,
  "damp": 6156,
  "searching": 6157,
  "fide": 6158,
  "someone": 6159,
  "cell": 6160,
  "ols": 6161,
  "sphere": 6162,
  "None": 6163,
  "wondrous": 6164,
  "poses": 6165,
  "nel": 6166,
  "medic": 6167,
  "Farewell": 6168,
  "deem": 6169,
  "aband": 6170,
  "breathe": 6171,
  "groaned": 6172,
  "appar": 6173,
  "Europe": 6174,
  "despairing": 6175,
  "Strange": 6176,
  "flour": 6177,
  "infant": 6178,
  "meal": 6179,
  "shapes": 6180,
  "tempest": 6181,
  "Agri": 6182,
  "Agripp": 6183,
  "Agrippa": 6184,
  "discoveries": 6185,
  "devils": 6186,
  "customs": 6187,
  "malignity": 6188,
  "conclusions": 6189,
  "baf": 6190,
  "loath": 6191,
  "Gree": 6192,
  "chat": 6193,
  "shutters": 6194,
  "inha": 6195,
  "inhabited": 6196,
  "iac": 6197,
  "rene": 6198,
  "clad": 6199,
  "frown": 6200,
  "withstanding": 6201,
  "burden": 6202,
  "brood": 6203,
  "Blan": 6204,
  "Blanc": 6205,
  "deformity": 6206,
  "precipices": 6207,
  "ravings": 6208,
  "kneeling": 6209,
  "appalling": 6210,
  "rav": 6211,
  "glac": 6212,
  "recognised": 6213,
  "accum": 6214,
  "brute": 6215,
  "flung": 6216,
  "harmless": 6217,
  "descend": 6218,
  "animals": 6219,
  "kinds": 6220,
  "helped": 6221,
  "prisoner": 6222,
  "Turkey": 6223,
  "_S": 6224,
  "image": 6225,
  "absor": 6226,
  "knocked": 6227,
  "dashed": 6228,
  "ads": 6229,
  "argue": 6230,
  "agonised": 6231,
  "sealed": 6232,
  "footsteps": 6233,
  "hing": 6234,
  "depth": 6235,
  "flood": 6236,
  "hoarse": 6237,
  "Death": 6238,
  "chor": 6239,
  "_M": 6240,
  "Buk": 6241,
  "Buko": 6242,
  "Bukov": 6243,
  "Bukovina": 6244,
  "mou": 6245,
  "gers": 6246,
  "ahead": 6247,
  "overhead": 6248,
  "sharper": 6249,
  "moan": 6250,
  "trap": 6251,
  "lted": 6252,
  "hollow": 6253,
  "eyebrows": 6254,
  "tops": 6255,
  "Peter": 6256,
  "fleet": 6257,
  "goods": 6258,
  "Sam": 6259,
  "Billington": 6260,
  "_17": 6261,
  "rial": 6262,
  "odour": 6263,
  "diaries": 6264,
  "funny": 6265,
  "Out": 6266,
  "abbey": 6267,
  "kitten": 6268,
  "comin": 6269,
  "oner": 6270,
  "Mate": 6271,
  "wrist": 6272,
  "strait": 6273,
  "waistcoat": 6274,
  "Gaz": 6275,
  "Gazette": 6276,
  "afore": 6277,
  "bloomin": 6278,
  "undertak": 6279,
  "undertaker": 6280,
  "ofer": 6281,
  "Wafer": 6282,
  "lapping": 6283,
  "tasks": 6284,
  "problem": 6285,
  "algorithm": 6286,
  "widely": 6287,
  "processing": 6288,
  "transform": 6289,
  "archite": 6290,
  "parall": 6291,
  "parallel": 6292,
  "function": 6293,
  "tive": 6294,
  "perple": 6295,
  "ctive": 6296,
  "org": 6297,
  "growth": 6298,
  "elements": 6299,
  "typ": 6300,
  "link": 6301,
  "reference": 6302,
  "integrity": 6303,
  "execut": 6304,
  "tro": 6305,
  "issue": 6306,
  "calculated": 6307,
  "reasoning": 6308,
  "sions": 6309,
  "Res": 6310,
  "requi": 6311,
  "requires": 6312,
  "stopping": 6313,
  "tun": 6314,
  "existing": 6315,
  "forgetting": 6316,
  "previously": 6317,
  "uration": 6318,
  "repeat": 6319,
  "investi": 6320,
  "AD": 6321,
  "limitations": 6322,
  "individual": 6323,
  "failure": 6324,
  "ING": 6325,
  "Pre": 6326,
  "94": 6327,
  "OUR": 6328,
  "divided": 6329,
  "emin": 6330,
  "strict": 6331,
  "opportunities": 6332,
  "arising": 6333,
  "subtle": 6334,
  "infinitely": 6335,
  "pets": 6336,
  "_The": 6337,
  "practical": 6338,
  "runk": 6339,
  "painted": 6340,
  "periods": 6341,
  "capital": 6342,
  "enable": 6343,
  "shoes": 6344,
  "raft": 6345,
  "pil": 6346,
  "uct": 6347,
  "hack": 6348,
  "rash": 6349,
  "conclude": 6350,
  "gigantic": 6351,
  "horribly": 6352,
  "clerk": 6353,
  "cies": 6354,
  "scorn": 6355,
  "consist": 6356,
  "thoroughly": 6357,
  "minded": 6358,
  "coarse": 6359,
  "fasc": 6360,
  "lovers": 6361,
  "La": 6362,
  "petition": 6363,
  "24": 6364,
  "III": 6365,
  "16": 6366,
  "11": 6367,
  "impatiently": 6368,
  "opy": 6369,
  "establishment": 6370,
  "visiting": 6371,
  "Im": 6372,
  "stared": 6373,
  "raptures": 6374,
  "faced": 6375,
  "unaffected": 6376,
  "unworthy": 6377,
  "fourth": 6378,
  "shocking": 6379,
  "conceited": 6380,
  "flattered": 6381,
  "everywhere": 6382,
  "itled": 6383,
  "county": 6384,
  "remainder": 6385,
  "commendation": 6386,
  "risen": 6387,
  "Lod": 6388,
  "Lodge": 6389,
  "solely": 6390,
  "obliging": 6391,
  "_did": 6392,
  "_did_": 6393,
  "Rob": 6394,
  "solid": 6395,
  "failing": 6396,
  "imaginary": 6397,
  "uniform": 6398,
  "impertinent": 6399,
  "leton": 6400,
  "adop": 6401,
  "unfolded": 6402,
  "studying": 6403,
  "dete": 6404,
  "Ke": 6405,
  "engrossed": 6406,
  "entailed": 6407,
  "iency": 6408,
  "mill": 6409,
  "milit": 6410,
  "Louisa": 6411,
  "activity": 6412,
  "guided": 6413,
  "repaired": 6414,
  "incredible": 6415,
  "inconvenience": 6416,
  "symptoms": 6417,
  "cards": 6418,
  "independence": 6419,
  "decor": 6420,
  "mirth": 6421,
  "renewal": 6422,
  "singular": 6423,
  "sell": 6424,
  "alarming": 6425,
  "advisable": 6426,
  "exception": 6427,
  "bling": 6428,
  "odious": 6429,
  "uary": 6430,
  "imagin": 6431,
  "dependent": 6432,
  "alac": 6433,
  "alacrity": 6434,
  "supposition": 6435,
  "throwing": 6436,
  "recovery": 6437,
  "shrubb": 6438,
  "shrubbery": 6439,
  "professions": 6440,
  "entertainment": 6441,
  "justify": 6442,
  "page": 6443,
  "interfe": 6444,
  "interfere": 6445,
  "iring": 6446,
  "dearly": 6447,
  "_do": 6448,
  "vices": 6449,
  "agreement": 6450,
  "intr": 6451,
  "proposed": 6452,
  "wisely": 6453,
  "_now": 6454,
  "_now_": 6455,
  "crush": 6456,
  "Hon": 6457,
  "Church": 6458,
  "reject": 6459,
  "hospitality": 6460,
  "stately": 6461,
  "Things": 6462,
  "patroness": 6463,
  "aff": 6464,
  "ckoned": 6465,
  "Does": 6466,
  "Court": 6467,
  "Ser": 6468,
  "stamp": 6469,
  "instruction": 6470,
  "belonged": 6471,
  "prosperity": 6472,
  "concili": 6473,
  "_know_": 6474,
  "doings": 6475,
  "civilities": 6476,
  "bows": 6477,
  "luckily": 6478,
  "unreasonable": 6479,
  "stuff": 6480,
  "whist": 6481,
  "intelligible": 6482,
  "eligible": 6483,
  "_will": 6484,
  "_will_": 6485,
  "untary": 6486,
  "brothers": 6487,
  "pauses": 6488,
  "allowing": 6489,
  "trifle": 6490,
  "insol": 6491,
  "crowded": 6492,
  "behalf": 6493,
  "confirmation": 6494,
  "vivacity": 6495,
  "subdu": 6496,
  "mortification": 6497,
  "gratifying": 6498,
  "strained": 6499,
  "changing": 6500,
  "Bo": 6501,
  "accounts": 6502,
  "cerity": 6503,
  "exult": 6504,
  "promising": 6505,
  "blushed": 6506,
  "Many": 6507,
  "enjoying": 6508,
  "preparations": 6509,
  "respected": 6510,
  "wave": 6511,
  "econ": 6512,
  "briefly": 6513,
  "accepting": 6514,
  "roar": 6515,
  "threatened": 6516,
  "meanwhile": 6517,
  "hotel": 6518,
  "disapprobation": 6519,
  "conception": 6520,
  "commanded": 6521,
  "strang": 6522,
  "ili": 6523,
  "pang": 6524,
  "announce": 6525,
  "dwe": 6526,
  "dwelt": 6527,
  "instances": 6528,
  "congratulate": 6529,
  "dy": 6530,
  "slack": 6531,
  "roads": 6532,
  "Four": 6533,
  "weakened": 6534,
  "boundary": 6535,
  "breathless": 6536,
  "constantly": 6537,
  "aments": 6538,
  "sized": 6539,
  "meat": 6540,
  "plenty": 6541,
  "considerably": 6542,
  "softness": 6543,
  "dispos": 6544,
  "disposal": 6545,
  "prodig": 6546,
  "exas": 6547,
  "compose": 6548,
  "obligation": 6549,
  "vable": 6550,
  "inspired": 6551,
  "indulge": 6552,
  "mbling": 6553,
  "attentively": 6554,
  "stag": 6555,
  "tors": 6556,
  "cherished": 6557,
  "ston": 6558,
  "recalled": 6559,
  "hazard": 6560,
  "avoided": 6561,
  "repulsive": 6562,
  "depressed": 6563,
  "grin": 6564,
  "exerted": 6565,
  "deemed": 6566,
  "firmly": 6567,
  "parce": 6568,
  "decision": 6569,
  "camp": 6570,
  "welf": 6571,
  "welfare": 6572,
  "genial": 6573,
  "stroke": 6574,
  "dreadfully": 6575,
  "oping": 6576,
  "rapture": 6577,
  "aris": 6578,
  "arisen": 6579,
  "augment": 6580,
  "daz": 6581,
  "gal": 6582,
  "commencement": 6583,
  "route": 6584,
  "heim": 6585,
  "revived": 6586,
  "winding": 6587,
  "fortitude": 6588,
  "envir": 6589,
  "uts": 6590,
  "resolutely": 6591,
  "swallowed": 6592,
  "Say": 6593,
  "sources": 6594,
  "ceptible": 6595,
  "moderate": 6596,
  "wits": 6597,
  "household": 6598,
  "pour": 6599,
  "title": 6600,
  "affli": 6601,
  "slee": 6602,
  "sleepless": 6603,
  "diligence": 6604,
  "protection": 6605,
  "oppressive": 6606,
  "spurn": 6607,
  "arrangements": 6608,
  "flight": 6609,
  "consequences": 6610,
  "cks": 6611,
  "preceded": 6612,
  "completion": 6613,
  "Christian": 6614,
  "frankly": 6615,
  "heed": 6616,
  "pole": 6617,
  "tial": 6618,
  "expedition": 6619,
  "North": 6620,
  "purposes": 6621,
  "fis": 6622,
  "theory": 6623,
  "wrapped": 6624,
  "motionless": 6625,
  "blessings": 6626,
  "passes": 6627,
  "compassed": 6628,
  "nation": 6629,
  "Russian": 6630,
  "traver": 6631,
  "Walton": 6632,
  "incidents": 6633,
  "fainted": 6634,
  "pick": 6635,
  "wreck": 6636,
  "warmed": 6637,
  "quive": 6638,
  "quivered": 6639,
  "fashioned": 6640,
  "sting": 6641,
  "ese": 6642,
  "Beau": 6643,
  "Beaufort": 6644,
  "sorrows": 6645,
  "Italy": 6646,
  "France": 6647,
  "thed": 6648,
  "concent": 6649,
  "animate": 6650,
  "penetrate": 6651,
  "shat": 6652,
  "shattered": 6653,
  "elect": 6654,
  "university": 6655,
  "arrives": 6656,
  "mourning": 6657,
  "barred": 6658,
  "chemis": 6659,
  "hairs": 6660,
  "ascend": 6661,
  "laboratory": 6662,
  "chem": 6663,
  "chemical": 6664,
  "lessons": 6665,
  "coward": 6666,
  "logy": 6667,
  "brilli": 6668,
  "diz": 6669,
  "dizzy": 6670,
  "obliter": 6671,
  "Life": 6672,
  "tremendous": 6673,
  "loathing": 6674,
  "sights": 6675,
  "thered": 6676,
  "doomed": 6677,
  "convul": 6678,
  "whit": 6679,
  "jaw": 6680,
  "wrink": 6681,
  "serene": 6682,
  "bounded": 6683,
  "asks": 6684,
  "exertions": 6685,
  "Moritz": 6686,
  "soothing": 6687,
  "notwithstanding": 6688,
  "Pl": 6689,
  "prolonged": 6690,
  "Night": 6691,
  "crash": 6692,
  "deliri": 6693,
  "delirium": 6694,
  "mockery": 6695,
  "extinguish": 6696,
  "vital": 6697,
  "deeds": 6698,
  "centre": 6699,
  "arrow": 6700,
  "dashing": 6701,
  "Begone": 6702,
  "grant": 6703,
  "bird": 6704,
  "inding": 6705,
  "weapons": 6706,
  "chink": 6707,
  "habitation": 6708,
  "sadness": 6709,
  "store": 6710,
  "pile": 6711,
  "barren": 6712,
  "waved": 6713,
  "profound": 6714,
  "dragged": 6715,
  "gun": 6716,
  "haunted": 6717,
  "South": 6718,
  "fits": 6719,
  "resumed": 6720,
  "Rhine": 6721,
  "Hamp": 6722,
  "beaten": 6723,
  "basket": 6724,
  "rubbed": 6725,
  "bolts": 6726,
  "feeble": 6727,
  "bs": 6728,
  "lids": 6729,
  "nightmare": 6730,
  "adversary": 6731,
  "seal": 6732,
  "pis": 6733,
  "pisto": 6734,
  "distorted": 6735,
  "steel": 6736,
  "fought": 6737,
  "diabolical": 6738,
  "TE": 6739,
  "AT": 6740,
  "RK": 6741,
  "Hotel": 6742,
  "nails": 6743,
  "moust": 6744,
  "Herr": 6745,
  "implored": 6746,
  "ghostly": 6747,
  "poly": 6748,
  "blank": 6749,
  "Mit": 6750,
  "rolling": 6751,
  "flick": 6752,
  "experiences": 6753,
  "shouted": 6754,
  "gums": 6755,
  "Blo": 6756,
  "hole": 6757,
  "sanity": 6758,
  "champ": 6759,
  "Telegram": 6760,
  "scep": 6761,
  "buzz": 6762,
  "official": 6763,
  "weaker": 6764,
  "rusty": 6765,
  "Pat": 6766,
  "Master": 6767,
  "madmen": 6768,
  "corn": 6769,
  "moods": 6770,
  "doctors": 6771,
  "bund": 6772,
  "bundle": 6773,
  "bbing": 6774,
  "cyl": 6775,
  "cylind": 6776,
  "clut": 6777,
  "stertorous": 6778,
  "SE": 6779,
  "sternly": 6780,
  "bloofer": 6781,
  "Therefore": 6782,
  "keenly": 6783,
  "leaden": 6784,
  "Win": 6785,
  "Consul": 6786,
  "classification": 6787,
  "predicts": 6788,
  "numerical": 6789,
  "explicit": 6790,
  "lust": 6791,
  "computation": 6792,
  "adjust": 6793,
  "answering": 6794,
  "Dep": 6795,
  "frag": 6796,
  "essential": 6797,
  "compon": 6798,
  "performs": 6799,
  "alid": 6800,
  "decis": 6801,
  "xity": 6802,
  "programming": 6803,
  "tax": 6804,
  "scientific": 6805,
  "variable": 6806,
  "Fun": 6807,
  "loop": 6808,
  "mutable": 6809,
  "needs": 6810,
  "organ": 6811,
  "termin": 6812,
  "Ti": 6813,
  "Time": 6814,
  "array": 6815,
  "sear": 6816,
  "ordering": 6817,
  "ases": 6818,
  "normal": 6819,
  "rul": 6820,
  "services": 6821,
  "resources": 6822,
  "representation": 6823,
  "standard": 6824,
  "ized": 6825,
  "AP": 6826,
  "software": 6827,
  "ole": 6828,
  "ata": 6829,
  "balanced": 6830,
  "chain": 6831,
  "GE": 6832,
  "deco": 6833,
  "repet": 6834,
  "maint": 6835,
  "preferred": 6836,
  "wasted": 6837,
  "hypo": 6838,
  "contradi": 6839,
  "research": 6840,
  "limited": 6841,
  "gies": 6842,
  "Imp": 6843,
  "EN": 6844,
  "34": 6845,
  "gratefully": 6846,
  "authors": 6847,
  "devote": 6848,
  "_is": 6849,
  "alogue": 6850,
  "Pride": 6851,
  "nost": 6852,
  "gift": 6853,
  "Ad": 6854,
  "British": 6855,
  "vious": 6856,
  "minut": 6857,
  "Swi": 6858,
  "mildness": 6859,
  "ruth": 6860,
  "ators": 6861,
  "intelligent": 6862,
  "adise": 6863,
  "perfe": 6864,
  "wness": 6865,
  "miniature": 6866,
  "sway": 6867,
  "paint": 6868,
  "vest": 6869,
  "extended": 6870,
  "myri": 6871,
  "stirred": 6872,
  "philosophers": 6873,
  "reconc": 6874,
  "histo": 6875,
  "agger": 6876,
  "impropriety": 6877,
  "irre": 6878,
  "acutely": 6879,
  "Much": 6880,
  "skill": 6881,
  "Bingleys": 6882,
  "iveness": 6883,
  "ints": 6884,
  "acting": 6885,
  "finer": 6886,
  "demean": 6887,
  "charms": 6888,
  "belongs": 6889,
  "itute": 6890,
  "offen": 6891,
  "sensibility": 6892,
  "outward": 6893,
  "27": 6894,
  "accidentally": 6895,
  "opyright": 6896,
  "discret": 6897,
  "discretion": 6898,
  "teasing": 6899,
  "_we": 6900,
  "_we_": 6901,
  "venture": 6902,
  "decline": 6903,
  "ingen": 6904,
  "crown": 6905,
  "despatched": 6906,
  "defer": 6907,
  "consisted": 6908,
  "insupport": 6909,
  "insupportable": 6910,
  "ridiculous": 6911,
  "pleasantly": 6912,
  "honestly": 6913,
  "entitled": 6914,
  "acquired": 6915,
  "suited": 6916,
  "offence": 6917,
  "tho": 6918,
  "occupy": 6919,
  "James": 6920,
  "speaks": 6921,
  "_them": 6922,
  "_them_": 6923,
  "safely": 6924,
  "complac": 6925,
  "complacency": 6926,
  "relates": 6927,
  "fox": 6928,
  "twelvemonth": 6929,
  "Happ": 6930,
  "defects": 6931,
  "mortifying": 6932,
  "accomplishments": 6933,
  "gallant": 6934,
  "compla": 6935,
  "matrimony": 6936,
  "ample": 6937,
  "convenient": 6938,
  "iner": 6939,
  "vacant": 6940,
  "contrived": 6941,
  "militia": 6942,
  "quarters": 6943,
  "opposed": 6944,
  "collect": 6945,
  "sill": 6946,
  "sparkled": 6947,
  "theirs": 6948,
  "abominable": 6949,
  "_all": 6950,
  "_all_": 6951,
  "materially": 6952,
  "fetch": 6953,
  "cover": 6954,
  "extensive": 6955,
  "complaints": 6956,
  "daresay": 6957,
  "vary": 6958,
  "nour": 6959,
  "star": 6960,
  "exposing": 6961,
  "abrup": 6962,
  "mend": 6963,
  "quet": 6964,
  "perpetual": 6965,
  "reproof": 6966,
  "dece": 6967,
  "prec": 6968,
  "comparative": 6969,
  "despise": 6970,
  "provoke": 6971,
  "avenue": 6972,
  "accuracy": 6973,
  "fireplace": 6974,
  "rejected": 6975,
  "stretch": 6976,
  "volume": 6977,
  "nove": 6978,
  "novelt": 6979,
  "novelty": 6980,
  "joining": 6981,
  "explaining": 6982,
  "punish": 6983,
  "ague": 6984,
  "attempting": 6985,
  "ridicule": 6986,
  "Fo": 6987,
  "_do_": 6988,
  "faults": 6989,
  "puff": 6990,
  "wilf": 6991,
  "paying": 6992,
  "script": 6993,
  "lacon": 6994,
  "widow": 6995,
  "readiness": 6996,
  "folded": 6997,
  "atone": 6998,
  "promises": 6999,
  "punctual": 7000,
  "cook": 7001,
  "kit": 7002,
  "kitc": 7003,
  "kitchen": 7004,
  "approved": 7005,
  "fed": 7006,
  "shaking": 7007,
  "acceptable": 7008,
  "adorn": 7009,
  "invite": 7010,
  "beholding": 7011,
  "guid": 7012,
  "guidance": 7013,
  "cumb": 7014,
  "nomin": 7015,
  "os": 7016,
  "corps": 7017,
  "suming": 7018,
  "happening": 7019,
  "nois": 7020,
  "delights": 7021,
  "steadily": 7022,
  "chimney": 7023,
  "significance": 7024,
  "intervals": 7025,
  "mu": 7026,
  "exclaim": 7027,
  "infancy": 7028,
  "assertion": 7029,
  "qualified": 7030,
  "tempered": 7031,
  "breathed": 7032,
  "accuse": 7033,
  "unguarded": 7034,
  "crue": 7035,
  "childhood": 7036,
  "mates": 7037,
  "liberal": 7038,
  "gravity": 7039,
  "insolent": 7040,
  "reputation": 7041,
  "enumer": 7042,
  "purposely": 7043,
  "displeasure": 7044,
  "forbearance": 7045,
  "refreshment": 7046,
  "striking": 7047,
  "overspread": 7048,
  "puzzle": 7049,
  "angrily": 7050,
  "sne": 7051,
  "sincerity": 7052,
  "defence": 7053,
  "Pardon": 7054,
  "perver": 7055,
  "perverseness": 7056,
  "exhibit": 7057,
  "sensibly": 7058,
  "languor": 7059,
  "preserved": 7060,
  "eating": 7061,
  "declar": 7062,
  "declaration": 7063,
  "diffidence": 7064,
  "gathering": 7065,
  "unction": 7066,
  "economy": 7067,
  "acceptance": 7068,
  "attractions": 7069,
  "negative": 7070,
  "axed": 7071,
  "earnestness": 7072,
  "introducing": 7073,
  "flowing": 7074,
  "returns": 7075,
  "insensibility": 7076,
  "Christ": 7077,
  "Christmas": 7078,
  "_this": 7079,
  "_this_": 7080,
  "one_": 7081,
  "alike": 7082,
  "appearances": 7083,
  "prospects": 7084,
  "offers": 7085,
  "doubting": 7086,
  "powered": 7087,
  "envy": 7088,
  "insensible": 7089,
  "restraint": 7090,
  "troubles": 7091,
  "tidings": 7092,
  "overpower": 7093,
  "presents": 7094,
  "acquiescence": 7095,
  "affording": 7096,
  "refrain": 7097,
  "Thur": 7098,
  "Thurs": 7099,
  "Thursday": 7100,
  "March": 7101,
  "banish": 7102,
  "adie": 7103,
  "mercen": 7104,
  "mercenary": 7105,
  "Lakes": 7106,
  "involuntarily": 7107,
  "owned": 7108,
  "guiding": 7109,
  "acquire": 7110,
  "toi": 7111,
  "toilet": 7112,
  "talents": 7113,
  "indis": 7114,
  "minutely": 7115,
  "masters": 7116,
  "stating": 7117,
  "Collinses": 7118,
  "designs": 7119,
  "mix": 7120,
  "newsp": 7121,
  "newspa": 7122,
  "occasioned": 7123,
  "vanish": 7124,
  "hardships": 7125,
  "Unless": 7126,
  "clouded": 7127,
  "inflict": 7128,
  "oted": 7129,
  "expecting": 7130,
  "noticing": 7131,
  "stepping": 7132,
  "repugn": 7133,
  "remonstr": 7134,
  "ultimately": 7135,
  "juni": 7136,
  "inquiring": 7137,
  "discussed": 7138,
  "prejudiced": 7139,
  "unk": 7140,
  "grieve": 7141,
  "cam": 7142,
  "unhappiness": 7143,
  "extravagant": 7144,
  "teaching": 7145,
  "substance": 7146,
  "earthly": 7147,
  "dazz": 7148,
  "Mat": 7149,
  "Ox": 7150,
  "Oxford": 7151,
  "len": 7152,
  "reaching": 7153,
  "spreading": 7154,
  "submit": 7155,
  "imitate": 7156,
  "sustained": 7157,
  "environs": 7158,
  "fru": 7159,
  "injure": 7160,
  "brown": 7161,
  "cohe": 7162,
  "anxiously": 7163,
  "miserably": 7164,
  "handker": 7165,
  "handkerchief": 7166,
  "infa": 7167,
  "infamy": 7168,
  "disclose": 7169,
  "presumption": 7170,
  "sters": 7171,
  "fighting": 7172,
  "secl": 7173,
  "striving": 7174,
  "gaining": 7175,
  "pursuing": 7176,
  "Through": 7177,
  "portions": 7178,
  "decent": 7179,
  "gladly": 7180,
  "Must": 7181,
  "confide": 7182,
  "corruption": 7183,
  "neighbouring": 7184,
  "detested": 7185,
  "confine": 7186,
  "voc": 7187,
  "tortured": 7188,
  "burnt": 7189,
  "jewel": 7190,
  "Three": 7191,
  "sending": 7192,
  "regions": 7193,
  "region": 7194,
  "tread": 7195,
  "embark": 7196,
  "sustain": 7197,
  "encompassed": 7198,
  "sympathise": 7199,
  "difficulties": 7200,
  "endow": 7201,
  "traversed": 7202,
  "America": 7203,
  "floating": 7204,
  "accidents": 7205,
  "atmo": 7206,
  "manifested": 7207,
  "fervour": 7208,
  "paro": 7209,
  "paroxy": 7210,
  "paroxysm": 7211,
  "manus": 7212,
  "harrowing": 7213,
  "chances": 7214,
  "sickness": 7215,
  "phan": 7216,
  "weeping": 7217,
  "cottages": 7218,
  "hungry": 7219,
  "og": 7220,
  "dunge": 7221,
  "reveren": 7222,
  "majes": 7223,
  "majestic": 7224,
  "summ": 7225,
  "enchant": 7226,
  "recorded": 7227,
  "sullen": 7228,
  "narration": 7229,
  "bath": 7230,
  "Corne": 7231,
  "Corneli": 7232,
  "Cornelius": 7233,
  "writ": 7234,
  "Jur": 7235,
  "sickened": 7236,
  "desires": 7237,
  "Ange": 7238,
  "cope": 7239,
  "recess": 7240,
  "physi": 7241,
  "brilliant": 7242,
  "obliterated": 7243,
  "unha": 7244,
  "unhallow": 7245,
  "unhallowed": 7246,
  "fran": 7247,
  "operate": 7248,
  "filthy": 7249,
  "loathsome": 7250,
  "dreary": 7251,
  "candle": 7252,
  "arly": 7253,
  "liv": 7254,
  "wrinkled": 7255,
  "grasped": 7256,
  "undertake": 7257,
  "bedroom": 7258,
  "climb": 7259,
  "Mad": 7260,
  "dissipate": 7261,
  "winning": 7262,
  "wri": 7263,
  "sympathised": 7264,
  "lor": 7265,
  "contemplate": 7266,
  "clasp": 7267,
  "brooding": 7268,
  "extrem": 7269,
  "relatives": 7270,
  "mournful": 7271,
  "calmed": 7272,
  "judges": 7273,
  "weigh": 7274,
  "sobs": 7275,
  "melt": 7276,
  "flamed": 7277,
  "precipice": 7278,
  "aby": 7279,
  "destroyer": 7280,
  "castles": 7281,
  "aval": 7282,
  "avalan": 7283,
  "tingling": 7284,
  "barri": 7285,
  "glit": 7286,
  "roll": 7287,
  "implo": 7288,
  "bloody": 7289,
  "berries": 7290,
  "roof": 7291,
  "chilled": 7292,
  "shrie": 7293,
  "shrieked": 7294,
  "travels": 7295,
  "tools": 7296,
  "pulling": 7297,
  "refre": 7298,
  "refreshed": 7299,
  "flushed": 7300,
  "American": 7301,
  "flag": 7302,
  "mured": 7303,
  "leagues": 7304,
  "Legh": 7305,
  "Leghorn": 7306,
  "ter_": 7307,
  "towns": 7308,
  "monstrous": 7309,
  "stick": 7310,
  "destroying": 7311,
  "everlasting": 7312,
  "inside": 7313,
  "fired": 7314,
  "fiendish": 7315,
  "hagg": 7316,
  "haggard": 7317,
  "devour": 7318,
  "devouring": 7319,
  "tie": 7320,
  "intensity": 7321,
  "golden": 7322,
  "rocky": 7323,
  "languid": 7324,
  "Ve": 7325,
  "beach": 7326,
  "malign": 7327,
  "hateful": 7328,
  "unlocked": 7329,
  "await": 7330,
  "agonising": 7331,
  "relapse": 7332,
  "trous": 7333,
  "ffled": 7334,
  "leaped": 7335,
  "Gu": 7336,
  "wrung": 7337,
  "cracked": 7338,
  "drifting": 7339,
  "anchor": 7340,
  "leader": 7341,
  "HARK": 7342,
  "HARKER": 7343,
  "Bud": 7344,
  "Buda": 7345,
  "Pes": 7346,
  "Pesth": 7347,
  "_Mem": 7348,
  "maps": 7349,
  "Magy": 7350,
  "belt": 7351,
  "frontier": 7352,
  "Finally": 7353,
  "polyg": 7354,
  "polyglot": 7355,
  "passengers": 7356,
  "leiter": 7357,
  "wagon": 7358,
  "sheep": 7359,
  "lugg": 7360,
  "luggage": 7361,
  "helping": 7362,
  "paraly": 7363,
  "moustache": 7364,
  "manhood": 7365,
  "nostri": 7366,
  "palm": 7367,
  "Hung": 7368,
  "arian": 7369,
  "Purfleet": 7370,
  "Somehow": 7371,
  "Cres": 7372,
  "Crescent": 7373,
  "served": 7374,
  "corners": 7375,
  "dusty": 7376,
  "symbo": 7377,
  "wooden": 7378,
  "inch": 7379,
  "Jud": 7380,
  "swo": 7381,
  "patients": 7382,
  "unselfish": 7383,
  "_Telegram": 7384,
  "piers": 7385,
  "tombstones": 7386,
  "bull": 7387,
  "steans": 7388,
  "Sac": 7389,
  "Sacred": 7390,
  "Swal": 7391,
  "Swales": 7392,
  "xton": 7393,
  "homic": 7394,
  "homicid": 7395,
  "homicidal": 7396,
  "sugar": 7397,
  "spider": 7398,
  "wart": 7399,
  "schooner": 7400,
  "searchlight": 7401,
  "helm": 7402,
  "Tate": 7403,
  "inquest": 7404,
  "cargo": 7405,
  "hoarsely": 7406,
  "spells": 7407,
  "dishonour": 7408,
  "hadn": 7409,
  "reaction": 7410,
  "bunch": 7411,
  "Bild": 7412,
  "Bilder": 7413,
  "guv": 7414,
  "sovere": 7415,
  "sovereign": 7416,
  "maybe": 7417,
  "andum": 7418,
  "response": 7419,
  "sey": 7420,
  "Walworth": 7421,
  "Sons": 7422,
  "whiter": 7423,
  "Hampstead": 7424,
  "Heath": 7425,
  "hurriedly": 7426,
  "creak": 7427,
  "yew": 7428,
  "Thing": 7429,
  "steril": 7430,
  "sterilise": 7431,
  "Mile": 7432,
  "End": 7433,
  "lairs": 7434,
  "Vice": 7435,
  "Sere": 7436,
  "Sereth": 7437,
  "Bistritza": 7438,
  "comput": 7439,
  "predictions": 7440,
  "artificial": 7441,
  "relationships": 7442,
  "Su": 7443,
  "temperature": 7444,
  "clust": 7445,
  "based": 7446,
  "networks": 7447,
  "multiple": 7448,
  "representations": 7449,
  "area": 7450,
  "transformer": 7451,
  "architecture": 7452,
  "effic": 7453,
  "represents": 7454,
  "discre": 7455,
  "components": 7456,
  "models": 7457,
  "reduce": 7458,
  "distribution": 7459,
  "rad": 7460,
  "gradient": 7461,
  "Adam": 7462,
  "adap": 7463,
  "stable": 7464,
  "epo": 7465,
  "epoch": 7466,
  "poorly": 7467,
  "provides": 7468,
  "perplexity": 7469,
  "analysis": 7470,
  "associated": 7471,
  "usa": 7472,
  "Common": 7473,
  "stores": 7474,
  "behavior": 7475,
  "methods": 7476,
  "derive": 7477,
  "types": 7478,
  "complexity": 7479,
  "describes": 7480,
  "characteristics": 7481,
  "xim": 7482,
  "abase": 7483,
  "ctured": 7484,
  "containing": 7485,
  "maliz": 7486,
  "tech": 7487,
  "capacity": 7488,
  "persist": 7489,
  "HT": 7490,
  "clients": 7491,
  "adds": 7492,
  "sends": 7493,
  "numbers": 7494,
  "abor": 7495,
  "sitory": 7496,
  "mathem": 7497,
  "atics": 7498,
  "extract": 7499,
  "imputed": 7500,
  "successfully": 7501,
  "Back": 7502,
  "del": 7503,
  "Che": 7504,
  "resume": 7505,
  "trained": 7506,
  "inference": 7507,
  "sam": 7508,
  "thres": 7509,
  "threshold": 7510,
  "itative": 7511,
  "spection": 7512,
  "trains": 7513,
  "astro": 7514,
  "retain": 7515,
  "docu": 7516,
  "pheno": 7517,
  "phenomen": 7518,
  "RE": 7519,
  "curity": 7520,
  "easier": 7521,
  "strate": 7522,
  "OR": 7523,
  "DI": 7524,
  "1894": 7525,
  "Allen": 7526,
  "ns": 7527,
  "convent": 7528,
  "novels": 7529,
  "rical": 7530,
  "mma": 7531,
  "popular": 7532,
  "dialogue": 7533,
  "unite": 7534,
  "hesit": 7535,
  "_In": 7536,
  "barely": 7537,
  "combination": 7538,
  "vigor": 7539,
  "traced": 7540,
  "renched": 7541,
  "a_": 7542,
  "passages": 7543,
  "appreci": 7544,
  "Addis": 7545,
  "Addison": 7546,
  "Swift": 7547,
  "roast": 7548,
  "eighteenth": 7549,
  "principles": 7550,
  "grove": 7551,
  "metap": 7552,
  "combined": 7553,
  "term": 7554,
  "executed": 7555,
  "stirring": 7556,
  "reluct": 7557,
  "_was": 7558,
  "hable": 7559,
  "minis": 7560,
  "portrait": 7561,
  "reconciled": 7562,
  "_may": 7563,
  "amusing": 7564,
  "scape": 7565,
  "dealing": 7566,
  "dismissed": 7567,
  "heroes": 7568,
  "yielding": 7569,
  "psy": 7570,
  "restoration": 7571,
  "demeanour": 7572,
  "hunting": 7573,
  "consistent": 7574,
  "alle": 7575,
  "secondly": 7576,
  "attacks": 7577,
  "Woman": 7578,
  "passionate": 7579,
  "conversations": 7580,
  "chap": 7581,
  "mond": 7582,
  "Bar": 7583,
  "rant": 7584,
  "rode": 7585,
  "22": 7586,
  "prognost": 7587,
  "thec": 7588,
  "thecary": 7589,
  "iling": 7590,
  "tested": 7591,
  "XV": 7592,
  "14": 7593,
  "20": 7594,
  "XXX": 7595,
  "cram": 7596,
  "ender": 7597,
  "obsequ": 7598,
  "obsequious": 7599,
  "settling": 7600,
  "quickness": 7601,
  "caprice": 7602,
  "trim": 7603,
  "deign": 7604,
  "scold": 7605,
  "_there": 7606,
  "_there_": 7607,
  "fatigued": 7608,
  "amends": 7609,
  "acquaint": 7610,
  "eluded": 7611,
  "courses": 7612,
  "comfor": 7613,
  "Among": 7614,
  "Everybody": 7615,
  "fancying": 7616,
  "cautious": 7617,
  "candour": 7618,
  "deficient": 7619,
  "spending": 7620,
  "doubtful": 7621,
  "dissatisfied": 7622,
  "haught": 7623,
  "haughty": 7624,
  "pleasan": 7625,
  "pleasanter": 7626,
  "stiff": 7627,
  "market": 7628,
  "presentation": 7629,
  "mortified": 7630,
  "_mine": 7631,
  "_mine_": 7632,
  "score": 7633,
  "disadvantage": 7634,
  "fixing": 7635,
  "conversing": 7636,
  "ableness": 7637,
  "evenings": 7638,
  "getic": 7639,
  "Keep": 7640,
  "excellence": 7641,
  "inducement": 7642,
  "complaisance": 7643,
  "resistance": 7644,
  "unfortunately": 7645,
  "supplied": 7646,
  "lodg": 7647,
  "lodgings": 7648,
  "happens": 7649,
  "replying": 7650,
  "receipt": 7651,
  "horseback": 7652,
  "vance": 7653,
  "Jones": 7654,
  "sore": 7655,
  "alternative": 7656,
  "jumping": 7657,
  "iles": 7658,
  "politely": 7659,
  "unwillingly": 7660,
  "covering": 7661,
  "disliked": 7662,
  "intru": 7663,
  "indo": 7664,
  "petti": 7665,
  "petticoat": 7666,
  "decorum": 7667,
  "brightened": 7668,
  "lessen": 7669,
  "indulged": 7670,
  "censure": 7671,
  "pian": 7672,
  "pianof": 7673,
  "pianofor": 7674,
  "pianoforte": 7675,
  "agreeing": 7676,
  "estimation": 7677,
  "capti": 7678,
  "physic": 7679,
  "decidedly": 7680,
  "recovering": 7681,
  "gravel": 7682,
  "resolve": 7683,
  "whispering": 7684,
  "careless": 7685,
  "humility": 7686,
  "deceit": 7687,
  "carelessness": 7688,
  "irect": 7689,
  "assume": 7690,
  "Allow": 7691,
  "offering": 7692,
  "discuss": 7693,
  "disput": 7694,
  "sang": 7695,
  "affront": 7696,
  "alliance": 7697,
  "hints": 7698,
  "conceit": 7699,
  "copied": 7700,
  "rejoicing": 7701,
  "salutation": 7702,
  "tedious": 7703,
  "requiring": 7704,
  "defy": 7705,
  "vou": 7706,
  "convenience": 7707,
  "_is_": 7708,
  "borrow": 7709,
  "jealousy": 7710,
  "exceeded": 7711,
  "uncivil": 7712,
  "Ste": 7713,
  "questioned": 7714,
  "respectful": 7715,
  "Right": 7716,
  "promo": 7717,
  "apologize": 7718,
  "scarlet": 7719,
  "displeased": 7720,
  "withdrawn": 7721,
  "witnessed": 7722,
  "affability": 7723,
  "adri": 7724,
  "condescended": 7725,
  "sickly": 7726,
  "flattering": 7727,
  "assented": 7728,
  "announced": 7729,
  "Other": 7730,
  "mons": 7731,
  "gap": 7732,
  "forming": 7733,
  "disinterested": 7734,
  "avow": 7735,
  "nothings": 7736,
  "pretence": 7737,
  "intrusion": 7738,
  "contemplation": 7739,
  "exclamations": 7740,
  "uten": 7741,
  "noisy": 7742,
  "tery": 7743,
  "tickets": 7744,
  "cheering": 7745,
  "included": 7746,
  "prie": 7747,
  "listener": 7748,
  "zes": 7749,
  "imparti": 7750,
  "disgusted": 7751,
  "blinded": 7752,
  "truest": 7753,
  "legal": 7754,
  "publicly": 7755,
  "cruelly": 7756,
  "voluntary": 7757,
  "guardian": 7758,
  "Anne": 7759,
  "mislead": 7760,
  "incess": 7761,
  "enumerating": 7762,
  "defend": 7763,
  "Laugh": 7764,
  "disgraceful": 7765,
  "imposed": 7766,
  "_had": 7767,
  "anticipated": 7768,
  "pitiable": 7769,
  "roses": 7770,
  "urable": 7771,
  "subdued": 7772,
  "trusting": 7773,
  "release": 7774,
  "social": 7775,
  "steward": 7776,
  "unacquainted": 7777,
  "exultation": 7778,
  "total": 7779,
  "addressing": 7780,
  "regulate": 7781,
  "inexpres": 7782,
  "repetition": 7783,
  "likeli": 7784,
  "likelihood": 7785,
  "comforts": 7786,
  "chicken": 7787,
  "revive": 7788,
  "rewarded": 7789,
  "agonies": 7790,
  "impen": 7791,
  "impenetr": 7792,
  "beneficial": 7793,
  "inev": 7794,
  "convince": 7795,
  "manifold": 7796,
  "pretens": 7797,
  "pretensions": 7798,
  "sanction": 7799,
  "perseverance": 7800,
  "vestibu": 7801,
  "vestibule": 7802,
  "steadfast": 7803,
  "liable": 7804,
  "York": 7805,
  "pitied": 7806,
  "detained": 7807,
  "Far": 7808,
  "dejection": 7809,
  "tries": 7810,
  "_one_": 7811,
  "suggestion": 7812,
  "thanking": 7813,
  "encouraging": 7814,
  "stupidity": 7815,
  "boys": 7816,
  "firmness": 7817,
  "incredulous": 7818,
  "overpowered": 7819,
  "uced": 7820,
  "urous": 7821,
  "murmur": 7822,
  "unavail": 7823,
  "unavailing": 7824,
  "angelic": 7825,
  "universal": 7826,
  "respectability": 7827,
  "prudent": 7828,
  "benefited": 7829,
  "prudence": 7830,
  "uating": 7831,
  "curing": 7832,
  "warned": 7833,
  "ungracious": 7834,
  "dup": 7835,
  "contentment": 7836,
  "watchful": 7837,
  "isition": 7838,
  "gles": 7839,
  "purchased": 7840,
  "shy": 7841,
  "bust": 7842,
  "_He": 7843,
  "_He_": 7844,
  "relative": 7845,
  "sloping": 7846,
  "affectionately": 7847,
  "neat": 7848,
  "article": 7849,
  "cultivation": 7850,
  "clump": 7851,
  "ensuing": 7852,
  "employments": 7853,
  "Make": 7854,
  "doorway": 7855,
  "formid": 7856,
  "formidable": 7857,
  "inspire": 7858,
  "miracul": 7859,
  "instructed": 7860,
  "older": 7861,
  "strenuously": 7862,
  "sheltered": 7863,
  "symptom": 7864,
  "emergen": 7865,
  "recollecting": 7866,
  "bill": 7867,
  "balance": 7868,
  "imply": 7869,
  "utting": 7870,
  "forcing": 7871,
  "Young": 7872,
  "swelling": 7873,
  "exasper": 7874,
  "remembering": 7875,
  "disturbance": 7876,
  "struggling": 7877,
  "Tow": 7878,
  "ards": 7879,
  "founded": 7880,
  "oy": 7881,
  "succeeding": 7882,
  "unequal": 7883,
  "verd": 7884,
  "defi": 7885,
  "yourselves": 7886,
  "stagge": 7887,
  "staggered": 7888,
  "vicious": 7889,
  "dissol": 7890,
  "aches": 7891,
  "henceforth": 7892,
  "AM": 7893,
  "pertur": 7894,
  "errors": 7895,
  "pausing": 7896,
  "fainter": 7897,
  "unfit": 7898,
  "dimin": 7899,
  "rers": 7900,
  "constern": 7901,
  "consternation": 7902,
  "aling": 7903,
  "coachman": 7904,
  "ugly": 7905,
  "iers": 7906,
  "hears": 7907,
  "snu": 7908,
  "escap": 7909,
  "lou": 7910,
  "louder": 7911,
  "pretended": 7912,
  "merry": 7913,
  "suppress": 7914,
  "Most": 7915,
  "diverted": 7916,
  "anew": 7917,
  "pursuits": 7918,
  "despised": 7919,
  "tastes": 7920,
  "philosopher": 7921,
  "overlook": 7922,
  "rightly": 7923,
  "curt": 7924,
  "cele": 7925,
  "celebr": 7926,
  "Matlock": 7927,
  "flutter": 7928,
  "swelled": 7929,
  "merits": 7930,
  "yards": 7931,
  "deepest": 7932,
  "explore": 7933,
  "named": 7934,
  "amping": 7935,
  "brink": 7936,
  "quate": 7937,
  "attendance": 7938,
  "imperfect": 7939,
  "discharged": 7940,
  "coherent": 7941,
  "losing": 7942,
  "calls": 7943,
  "retro": 7944,
  "sighed": 7945,
  "exchanged": 7946,
  "Fi": 7947,
  "forgetfulness": 7948,
  "git": 7949,
  "sangu": 7950,
  "incur": 7951,
  "Give": 7952,
  "hysterics": 7953,
  "fare": 7954,
  "dil": 7955,
  "augmented": 7956,
  "reap": 7957,
  "Ten": 7958,
  "pledged": 7959,
  "plentiful": 7960,
  "proportions": 7961,
  "ittance": 7962,
  "spurned": 7963,
  "Newcastle": 7964,
  "eleven": 7965,
  "butcher": 7966,
  "shan": 7967,
  "suffe": 7968,
  "vow": 7969,
  "ridges": 7970,
  "sash": 7971,
  "inef": 7972,
  "ineffect": 7973,
  "ineffectual": 7974,
  "frankness": 7975,
  "Hear": 7976,
  "poll": 7977,
  "appeased": 7978,
  "dismay": 7979,
  "forgiven": 7980,
  "Ever": 7981,
  "discovering": 7982,
  "undergone": 7983,
  "Think": 7984,
  "Won": 7985,
  "springs": 7986,
  "fills": 7987,
  "advancing": 7988,
  "icy": 7989,
  "waf": 7990,
  "celes": 7991,
  "celestial": 7992,
  "countries": 7993,
  "intellectual": 7994,
  "forbidden": 7995,
  "icated": 7996,
  "wha": 7997,
  "harder": 7998,
  "furs": 7999,
  "changel": 8000,
  "commit": 8001,
  "medium": 8002,
  "disci": 8003,
  "abandoned": 8004,
  "vell": 8005,
  "dearer": 8006,
  "shores": 8007,
  "atmosphere": 8008,
  "traveller": 8009,
  "apparition": 8010,
  "drifted": 8011,
  "tormented": 8012,
  "arous": 8013,
  "aroused": 8014,
  "poign": 8015,
  "unparallel": 8016,
  "unparalleled": 8017,
  "interests": 8018,
  "drunk": 8019,
  "manuscript": 8020,
  "wrecked": 8021,
  "obliv": 8022,
  "oblivion": 8023,
  "mould": 8024,
  "earn": 8025,
  "bond": 8026,
  "reverence": 8027,
  "Germany": 8028,
  "rambles": 8029,
  "eyed": 8030,
  "childish": 8031,
  "seriousness": 8032,
  "calmer": 8033,
  "bul": 8034,
  "rive": 8035,
  "eastern": 8036,
  "league": 8037,
  "inner": 8038,
  "benefac": 8039,
  "joys": 8040,
  "fancies": 8041,
  "writers": 8042,
  "partially": 8043,
  "rout": 8044,
  "routine": 8045,
  "fulfilment": 8046,
  "Jura": 8047,
  "zeal": 8048,
  "chained": 8049,
  "oped": 8050,
  "professors": 8051,
  "unc": 8052,
  "enlight": 8053,
  "lectures": 8054,
  "lecture": 8055,
  "acher": 8056,
  "replaced": 8057,
  "endued": 8058,
  "revolved": 8059,
  "ology": 8060,
  "consumm": 8061,
  "overwhelming": 8062,
  "glim": 8063,
  "pires": 8064,
  "baffled": 8065,
  "frantic": 8066,
  "irresis": 8067,
  "sla": 8068,
  "slavery": 8069,
  "wholes": 8070,
  "wholesome": 8071,
  "panes": 8072,
  "livid": 8073,
  "craw": 8074,
  "jaws": 8075,
  "pulse": 8076,
  "dawned": 8077,
  "load": 8078,
  "Greek": 8079,
  "gazing": 8080,
  "darted": 8081,
  "raved": 8082,
  "bud": 8083,
  "consumed": 8084,
  "Madame": 8085,
  "rosy": 8086,
  "impress": 8087,
  "transaction": 8088,
  "dus": 8089,
  "radiant": 8090,
  "summits": 8091,
  "streams": 8092,
  "Sal": 8093,
  "Alps": 8094,
  "illu": 8095,
  "illumin": 8096,
  "clasped": 8097,
  "pend": 8098,
  "bedside": 8099,
  "carn": 8100,
  "inaccess": 8101,
  "inaccessible": 8102,
  "insan": 8103,
  "insanity": 8104,
  "Wel": 8105,
  "Welcome": 8106,
  "guiltless": 8107,
  "ignomin": 8108,
  "stolen": 8109,
  "tortures": 8110,
  "parched": 8111,
  "Ye": 8112,
  "victims": 8113,
  "monsters": 8114,
  "Cham": 8115,
  "Chamoun": 8116,
  "Chamounix": 8117,
  "plun": 8118,
  "plunged": 8119,
  "Ru": 8120,
  "avalanche": 8121,
  "lull": 8122,
  "glacier": 8123,
  "glittering": 8124,
  "rents": 8125,
  "veil": 8126,
  "Devil": 8127,
  "caves": 8128,
  "bleak": 8129,
  "Cur": 8130,
  "hut": 8131,
  "resting": 8132,
  "huge": 8133,
  "cloak": 8134,
  "innum": 8135,
  "innumerable": 8136,
  "herb": 8137,
  "dried": 8138,
  "roots": 8139,
  "brightly": 8140,
  "bru": 8141,
  "Being": 8142,
  "dank": 8143,
  "Early": 8144,
  "obstru": 8145,
  "terrified": 8146,
  "mirror": 8147,
  "blotted": 8148,
  "groans": 8149,
  "Turkish": 8150,
  "dungeon": 8151,
  "deliverer": 8152,
  "enthusiastic": 8153,
  "youthful": 8154,
  "prolong": 8155,
  "exile": 8156,
  "Taking": 8157,
  "developed": 8158,
  "Wer": 8159,
  "strengthen": 8160,
  "terrors": 8161,
  "instig": 8162,
  "swiftness": 8163,
  "stillness": 8164,
  "ogra": 8165,
  "map": 8166,
  "thrill": 8167,
  "Should": 8168,
  "insurmount": 8169,
  "insurmountable": 8170,
  "prayer": 8171,
  "blackness": 8172,
  "isation": 8173,
  "ensure": 8174,
  "Stras": 8175,
  "acquiesced": 8176,
  "colours": 8177,
  "islands": 8178,
  "lakes": 8179,
  "cliffs": 8180,
  "quiver": 8181,
  "lands": 8182,
  "expan": 8183,
  "expanse": 8184,
  "snatched": 8185,
  "hinges": 8186,
  "umb": 8187,
  "fren": 8188,
  "sels": 8189,
  "fisher": 8190,
  "streamed": 8191,
  "handle": 8192,
  "buf": 8193,
  "buffe": 8194,
  "cil": 8195,
  "hailed": 8196,
  "frowning": 8197,
  "roughly": 8198,
  "swore": 8199,
  "cries": 8200,
  "reland": 8201,
  "scared": 8202,
  "Memor": 8203,
  "obscured": 8204,
  "pistol": 8205,
  "panic": 8206,
  "prayed": 8207,
  "flit": 8208,
  "quivering": 8209,
  "mutil": 8210,
  "counsel": 8211,
  "holds": 8212,
  "crushed": 8213,
  "defeat": 8214,
  "ST": 8215,
  "JOUR": 8216,
  "JOURN": 8217,
  "JOURNAL": 8218,
  "wakened": 8219,
  "shirt": 8220,
  "comforting": 8221,
  "hysterical": 8222,
  "jagged": 8223,
  "gleam": 8224,
  "sten": 8225,
  "reverently": 8226,
  "creep": 8227,
  "reins": 8228,
  "roadway": 8229,
  "massive": 8230,
  "courtly": 8231,
  "nostrils": 8232,
  "bushy": 8233,
  "streak": 8234,
  "moth": 8235,
  "Hungarian": 8236,
  "blazed": 8237,
  "definite": 8238,
  "lordship": 8239,
  "melted": 8240,
  "eyelids": 8241,
  "hurled": 8242,
  "_18": 8243,
  "_19": 8244,
  "_28": 8245,
  "scrap": 8246,
  "whips": 8247,
  "_24": 8248,
  "slid": 8249,
  "weapon": 8250,
  "trickled": 8251,
  "lifting": 8252,
  "vault": 8253,
  "slang": 8254,
  "MIN": 8255,
  "MINA": 8256,
  "Ket": 8257,
  "Kett": 8258,
  "Kettleness": 8259,
  "thouse": 8260,
  "gang": 8261,
  "_11": 8262,
  "buzzing": 8263,
  "zo": 8264,
  "phag": 8265,
  "phagous": 8266,
  "erson": 8267,
  "_Mina": 8268,
  "Hood": 8269,
  "blowing": 8270,
  "dipped": 8271,
  "foam": 8272,
  "OF": 8273,
  "Dard": 8274,
  "Dardane": 8275,
  "Dardanell": 8276,
  "Dardanelles": 8277,
  "July_": 8278,
  "owners": 8279,
  "job": 8280,
  "wl": 8281,
  "appalled": 8282,
  "strolled": 8283,
  "whereon": 8284,
  "Son": 8285,
  "parcel": 8286,
  "Sister": 8287,
  "afar": 8288,
  "tiger": 8289,
  "Almighty": 8290,
  "gic": 8291,
  "slip": 8292,
  "Zo": 8293,
  "Doc": 8294,
  "Doctor": 8295,
  "phas": 8296,
  "horrified": 8297,
  "narco": 8298,
  "narcotic": 8299,
  "decan": 8300,
  "decanter": 8301,
  "telegraph": 8302,
  "hush": 8303,
  "Berke": 8304,
  "Berkeley": 8305,
  "beset": 8306,
  "bats": 8307,
  "eleph": 8308,
  "elephant": 8309,
  "isself": 8310,
  "wheres": 8311,
  "clutched": 8312,
  "Until": 8313,
  "carriers": 8314,
  "knives": 8315,
  "logic": 8316,
  "worried": 8317,
  "implore": 8318,
  "questioning": 8319,
  "policeman": 8320,
  "purity": 8321,
  "clues": 8322,
  "cylinders": 8323,
  "corrid": 8324,
  "corridor": 8325,
  "lethargy": 8326,
  "thicker": 8327,
  "Blox": 8328,
  "Bloxam": 8329,
  "Mitche": 8330,
  "Mitchell": 8331,
  "cowered": 8332,
  "smith": 8333,
  "Kuk": 8334,
  "Kukri": 8335,
  "swir": 8336,
  "Hild": 8337,
  "Hildes": 8338,
  "Hildesheim": 8339,
  "Fundu": 8340,
  "Verest": 8341,
  "Veresti": 8342,
  "computer": 8343,
  "mally": 8344,
  "izing": 8345,
  "pattern": 8346,
  "patterns": 8347,
  "Instead": 8348,
  "vised": 8349,
  "labe": 8350,
  "categ": 8351,
  "category": 8352,
  "weights": 8353,
  "acti": 8354,
  "activation": 8355,
  "functions": 8356,
  "adjusted": 8357,
  "produces": 8358,
  "lation": 8359,
  "stat": 8360,
  "auto": 8361,
  "izer": 8362,
  "uation": 8363,
  "fragment": 8364,
  "isms": 8365,
  "prevents": 8366,
  "current": 8367,
  "continuous": 8368,
  "tar": 8369,
  "vari": 8370,
  "update": 8371,
  "proced": 8372,
  "metri": 8373,
  "metric": 8374,
  "web": 8375,
  "index": 8376,
  "orient": 8377,
  "Ob": 8378,
  "itance": 8379,
  "internal": 8380,
  "defined": 8381,
  "increases": 8382,
  "upper": 8383,
  "requirements": 8384,
  "Both": 8385,
  "typically": 8386,
  "lement": 8387,
  "breadth": 8388,
  "consists": 8389,
  "weighted": 8390,
  "dividing": 8391,
  "rand": 8392,
  "random": 8393,
  "merge": 8394,
  "retri": 8395,
  "malization": 8396,
  "impose": 8397,
  "device": 8398,
  "beforehand": 8399,
  "tocol": 8400,
  "contains": 8401,
  "puts": 8402,
  "SON": 8403,
  "review": 8404,
  "Data": 8405,
  "mathematics": 8406,
  "describing": 8407,
  "variance": 8408,
  "Prob": 8409,
  "ques": 8410,
  "classes": 8411,
  "counting": 8412,
  "pag": 8413,
  "sig": 8414,
  "mechanism": 8415,
  "scratch": 8416,
  "involve": 8417,
  "sampl": 8418,
  "sampling": 8419,
  "restri": 8420,
  "cum": 8421,
  "bench": 8422,
  "compare": 8423,
  "differ": 8424,
  "tuning": 8425,
  "fewer": 8426,
  "phic": 8427,
  "alized": 8428,
  "experiments": 8429,
  "document": 8430,
  "thesis": 8431,
  "usage": 8432,
  "Sm": 8433,
  "smaller": 8434,
  "nical": 8435,
  "prompt": 8436,
  "matically": 8437,
  "LI": 8438,
  "RO": 8439,
  "DE": 8440,
  "bury": 8441,
  "rations": 8442,
  "mson": 8443,
  "IT": 8444,
  "HAM": 8445,
  "AND": 8446,
  "acknowledgment": 8447,
  "allowance": 8448,
  "convention": 8449,
  "sect": 8450,
  "of_": 8451,
  "catastro": 8452,
  "catastrophe": 8453,
  "assid": 8454,
  "Emma": 8455,
  "Prejudice": 8456,
  "reader": 8457,
  "construction": 8458,
  "Field": 8459,
  "Fielding": 8460,
  "atious": 8461,
  "awkwardness": 8462,
  "grasping": 8463,
  "situations": 8464,
  "loo": 8465,
  "iences": 8466,
  "sets": 8467,
  "pathe": 8468,
  "pathetic": 8469,
  "morous": 8470,
  "mouths": 8471,
  "despite": 8472,
  "faculty": 8473,
  "Thor": 8474,
  "finity": 8475,
  "obvious": 8476,
  "Spect": 8477,
  "liken": 8478,
  "likeness": 8479,
  "gross": 8480,
  "Bur": 8481,
  "insat": 8482,
  "ninet": 8483,
  "nineteenth": 8484,
  "Sha": 8485,
  "cynic": 8486,
  "regrets": 8487,
  "snar": 8488,
  "displaying": 8489,
  "immensely": 8490,
  "perfection": 8491,
  "justly": 8492,
  "retirement": 8493,
  "craft": 8494,
  "myriad": 8495,
  "reluctant": 8496,
  "hundreds": 8497,
  "ministers": 8498,
  "bis": 8499,
  "formality": 8500,
  "tiness": 8501,
  "greatness": 8502,
  "centred": 8503,
  "sable": 8504,
  "helplessness": 8505,
  "surviv": 8506,
  "tradition": 8507,
  "privately": 8508,
  "grievous": 8509,
  "comment": 8510,
  "sket": 8511,
  "disgusting": 8512,
  "healthy": 8513,
  "smart": 8514,
  "downwards": 8515,
  "army": 8516,
  "objectionable": 8517,
  "speeches": 8518,
  "palp": 8519,
  "offensive": 8520,
  "impud": 8521,
  "invar": 8522,
  "gid": 8523,
  "determining": 8524,
  "companionship": 8525,
  "competition": 8526,
  "List": 8527,
  "26": 8528,
  "31": 8529,
  "apothecary": 8530,
  "screen": 8531,
  "Protested": 8532,
  "Whenever": 8533,
  "19": 8534,
  "25": 8535,
  "eting": 8536,
  "obe": 8537,
  "obeisance": 8538,
  "elevation": 8539,
  "nicely": 8540,
  "28": 8541,
  "Mill": 8542,
  "Engaged": 8543,
  "universally": 8544,
  "surrounding": 8545,
  "_have": 8546,
  "_have_": 8547,
  "discontented": 8548,
  "assuring": 8549,
  "serving": 8550,
  "cough": 8551,
  "sakes": 8552,
  "_are": 8553,
  "_are_": 8554,
  "housekeeping": 8555,
  "disconcer": 8556,
  "disconcerted": 8557,
  "unreserved": 8558,
  "slighted": 8559,
  "kingdom": 8560,
  "cordial": 8561,
  "playful": 8562,
  "llies": 8563,
  "unas": 8564,
  "meanly": 8565,
  "easiness": 8566,
  "accidental": 8567,
  "recommendation": 8568,
  "opposition": 8569,
  "offend": 8570,
  "simpleton": 8571,
  "adopt": 8572,
  "glancing": 8573,
  "Scotch": 8574,
  "delightfully": 8575,
  "requested": 8576,
  "anno": 8577,
  "agreeably": 8578,
  "medit": 8579,
  "furnish": 8580,
  "coo": 8581,
  "coolly": 8582,
  "coinc": 8583,
  "IND": 8584,
  "_t": 8585,
  "te_": 8586,
  "oftener": 8587,
  "rained": 8588,
  "contrivance": 8589,
  "zie": 8590,
  "wives": 8591,
  "springing": 8592,
  "withheld": 8593,
  "indol": 8594,
  "inches": 8595,
  "possibilities": 8596,
  "imitation": 8597,
  "deserves": 8598,
  "antial": 8599,
  "protesting": 8600,
  "condescend": 8601,
  "bears": 8602,
  "despic": 8603,
  "desiring": 8604,
  "complied": 8605,
  "sweetest": 8606,
  "pitiful": 8607,
  "poetry": 8608,
  "unconcern": 8609,
  "indirect": 8610,
  "pane": 8611,
  "laud": 8612,
  "obstin": 8613,
  "precision": 8614,
  "reprehen": 8615,
  "reprehensible": 8616,
  "Itali": 8617,
  "songs": 8618,
  "traits": 8619,
  "abominably": 8620,
  "ya": 8621,
  "soup": 8622,
  "ibly": 8623,
  "perse": 8624,
  "plague": 8625,
  "consisten": 8626,
  "isely": 8627,
  "vouch": 8628,
  "tendency": 8629,
  "pleases": 8630,
  "quarre": 8631,
  "scruples": 8632,
  "_15": 8633,
  "patronage": 8634,
  "ceremon": 8635,
  "promote": 8636,
  "overlooked": 8637,
  "apologizing": 8638,
  "reverse": 8639,
  "allude": 8640,
  "estates": 8641,
  "precipitate": 8642,
  "summons": 8643,
  "eloquent": 8644,
  "quadri": 8645,
  "quadrille": 8646,
  "parsonage": 8647,
  "handsom": 8648,
  "handsomest": 8649,
  "phaet": 8650,
  "phaeton": 8651,
  "unhappily": 8652,
  "brightest": 8653,
  "adorned": 8654,
  "adapted": 8655,
  "deliberation": 8656,
  "mono": 8657,
  "pages": 8658,
  "amusements": 8659,
  "civilly": 8660,
  "originally": 8661,
  "avowal": 8662,
  "incumb": 8663,
  "incumbent": 8664,
  "foli": 8665,
  "arrested": 8666,
  "awed": 8667,
  "gratification": 8668,
  "proprie": 8669,
  "proprietor": 8670,
  "mansion": 8671,
  "improvements": 8672,
  "mantel": 8673,
  "topic": 8674,
  "rival": 8675,
  "abund": 8676,
  "exclaiming": 8677,
  "unexpectedly": 8678,
  "scand": 8679,
  "Soci": 8680,
  "Society": 8681,
  "_must": 8682,
  "_must_": 8683,
  "redress": 8684,
  "extravagance": 8685,
  "attribute": 8686,
  "irr": 8687,
  "descending": 8688,
  "clos": 8689,
  "closest": 8690,
  "sharing": 8691,
  "debt": 8692,
  "impulses": 8693,
  "_some": 8694,
  "_some_": 8695,
  "rog": 8696,
  "incessantly": 8697,
  "scruple": 8698,
  "liveliness": 8699,
  "suspended": 8700,
  "omitted": 8701,
  "significant": 8702,
  "consulting": 8703,
  "similarity": 8704,
  "verb": 8705,
  "affir": 8706,
  "affirmat": 8707,
  "affirmative": 8708,
  "judging": 8709,
  "infam": 8710,
  "infamous": 8711,
  "including": 8712,
  "consign": 8713,
  "eti": 8714,
  "etiqu": 8715,
  "etiquette": 8716,
  "triumphantly": 8717,
  "inexpressible": 8718,
  "indignant": 8719,
  "owes": 8720,
  "oppose": 8721,
  "unwillingness": 8722,
  "purport": 8723,
  "decease": 8724,
  "secretly": 8725,
  "daring": 8726,
  "undo": 8727,
  "decisive": 8728,
  "conference": 8729,
  "genu": 8730,
  "genuine": 8731,
  "headstrong": 8732,
  "sists": 8733,
  "inevitable": 8734,
  "resignation": 8735,
  "transfer": 8736,
  "rised": 8737,
  "Gros": 8738,
  "ieties": 8739,
  "foo": 8740,
  "foundation": 8741,
  "desponding": 8742,
  "repaid": 8743,
  "comparatively": 8744,
  "continuance": 8745,
  "ifully": 8746,
  "cordiality": 8747,
  "sacrific": 8748,
  "sacrificed": 8749,
  "humili": 8750,
  "pted": 8751,
  "inconvenient": 8752,
  "unfeeling": 8753,
  "overpowering": 8754,
  "professed": 8755,
  "accomplishment": 8756,
  "inmate": 8757,
  "inclinations": 8758,
  "involved": 8759,
  "suppressed": 8760,
  "repine": 8761,
  "security": 8762,
  "_two": 8763,
  "_two_": 8764,
  "omen": 8765,
  "Bey": 8766,
  "Beyond": 8767,
  "unlikely": 8768,
  "befall": 8769,
  "canv": 8770,
  "allev": 8771,
  "subsisted": 8772,
  "sleev": 8773,
  "sleeves": 8774,
  "hackney": 8775,
  "essence": 8776,
  "unconnected": 8777,
  "procuring": 8778,
  "bestowing": 8779,
  "wiser": 8780,
  "pronounce": 8781,
  "obstinate": 8782,
  "struggles": 8783,
  "relinqu": 8784,
  "distracted": 8785,
  "unwelcome": 8786,
  "peep": 8787,
  "troop": 8788,
  "vigour": 8789,
  "Adie": 8790,
  "Adieu": 8791,
  "imaginations": 8792,
  "arriving": 8793,
  "regularly": 8794,
  "meditate": 8795,
  "landing": 8796,
  "fronted": 8797,
  "miraculous": 8798,
  "ante": 8799,
  "dinnertime": 8800,
  "cows": 8801,
  "_such": 8802,
  "_such_": 8803,
  "thankfulness": 8804,
  "harmony": 8805,
  "conversed": 8806,
  "profic": 8807,
  "rises": 8808,
  "emergency": 8809,
  "colder": 8810,
  "conjectures": 8811,
  "captiv": 8812,
  "ramble": 8813,
  "haunt": 8814,
  "sons": 8815,
  "guardians": 8816,
  "thoughtful": 8817,
  "officious": 8818,
  "jest": 8819,
  "boundless": 8820,
  "inflicted": 8821,
  "seren": 8822,
  "serenity": 8823,
  "veying": 8824,
  "perusal": 8825,
  "degrad": 8826,
  "degradation": 8827,
  "acles": 8828,
  "conquer": 8829,
  "avowed": 8830,
  "_was_": 8831,
  "incredul": 8832,
  "incredulity": 8833,
  "Towards": 8834,
  "recital": 8835,
  "confession": 8836,
  "accusations": 8837,
  "painfully": 8838,
  "unpardon": 8839,
  "unpardonable": 8840,
  "agit": 8841,
  "plant": 8842,
  "sheets": 8843,
  "defiance": 8844,
  "severity": 8845,
  "respecting": 8846,
  "scr": 8847,
  "particip": 8848,
  "misled": 8849,
  "investig": 8850,
  "repugnance": 8851,
  "discharge": 8852,
  "acced": 8853,
  "idleness": 8854,
  "junior": 8855,
  "Younge": 8856,
  "revealed": 8857,
  "refer": 8858,
  "moderation": 8859,
  "cautiously": 8860,
  "religious": 8861,
  "unjustly": 8862,
  "restrain": 8863,
  "spirited": 8864,
  "irrit": 8865,
  "reple": 8866,
  "replete": 8867,
  "urgent": 8868,
  "trunk": 8869,
  "afresh": 8870,
  "conquered": 8871,
  "waiter": 8872,
  "husbands": 8873,
  "escaping": 8874,
  "diminished": 8875,
  "blinds": 8876,
  "despaired": 8877,
  "lessened": 8878,
  "existed": 8879,
  "shifting": 8880,
  "feather": 8881,
  "prejudices": 8882,
  "allay": 8883,
  "lamentations": 8884,
  "exciting": 8885,
  "warr": 8886,
  "injuries": 8887,
  "comprehended": 8888,
  "uncontro": 8889,
  "sured": 8890,
  "detect": 8891,
  "renewing": 8892,
  "orous": 8893,
  "quer": 8894,
  "quartered": 8895,
  "contracted": 8896,
  "northward": 8897,
  "celebrated": 8898,
  "hats": 8899,
  "curtains": 8900,
  "Wood": 8901,
  "lowest": 8902,
  "abrupt": 8903,
  "elderly": 8904,
  "plays": 8905,
  "landlord": 8906,
  "bby": 8907,
  "traction": 8908,
  "nobl": 8909,
  "Whether": 8910,
  "triumphant": 8911,
  "windings": 8912,
  "unfavourable": 8913,
  "faulty": 8914,
  "relied": 8915,
  "orary": 8916,
  "ouched": 8917,
  "Span": 8918,
  "nuts": 8919,
  "yr": 8920,
  "fruit": 8921,
  "Dearest": 8922,
  "Clap": 8923,
  "Clapham": 8924,
  "apprehensions": 8925,
  "detain": 8926,
  "brow": 8927,
  "intrude": 8928,
  "foundations": 8929,
  "Sur": 8930,
  "deliberately": 8931,
  "fluct": 8932,
  "wearied": 8933,
  "pad": 8934,
  "villain": 8935,
  "busily": 8936,
  "packed": 8937,
  "bitte": 8938,
  "bitterest": 8939,
  "enor": 8940,
  "enorm": 8941,
  "soever": 8942,
  "copse": 8943,
  "Send": 8944,
  "Gener": 8945,
  "preparation": 8946,
  "humbled": 8947,
  "Stay": 8948,
  "Ring": 8949,
  "survived": 8950,
  "secluded": 8951,
  "nup": 8952,
  "concei": 8953,
  "conceivable": 8954,
  "confid": 8955,
  "individually": 8956,
  "impas": 8957,
  "proudly": 8958,
  "atre": 8959,
  "unsettled": 8960,
  "considerations": 8961,
  "Wr": 8962,
  "Tis": 8963,
  "Happy": 8964,
  "sufferer": 8965,
  "interven": 8966,
  "paler": 8967,
  "preservation": 8968,
  "velled": 8969,
  "compens": 8970,
  "kindled": 8971,
  "pouring": 8972,
  "raged": 8973,
  "barbarous": 8974,
  "wilder": 8975,
  "shades": 8976,
  "gos": 8977,
  "vert": 8978,
  "pleasantry": 8979,
  "boldly": 8980,
  "diffused": 8981,
  "void": 8982,
  "flows": 8983,
  "cile": 8984,
  "jewels": 8985,
  "warmest": 8986,
  "govern": 8987,
  "revolution": 8988,
  "ingrat": 8989,
  "ingratitude": 8990,
  "arre": 8991,
  "disaster": 8992,
  "vivid": 8993,
  "navig": 8994,
  "sailing": 8995,
  "wafted": 8996,
  "heavenly": 8997,
  "holi": 8998,
  "voyages": 8999,
  "poets": 9000,
  "whale": 9001,
  "medicine": 9002,
  "Greenland": 9003,
  "luxury": 9004,
  "Archangel": 9005,
  "cultiv": 9006,
  "seam": 9007,
  "madly": 9008,
  "national": 9009,
  "brut": 9010,
  "noted": 9011,
  "prize": 9012,
  "exor": 9013,
  "renders": 9014,
  "utions": 9015,
  "mysteries": 9016,
  "workman": 9017,
  "marvell": 9018,
  "marvellous": 9019,
  "southern": 9020,
  " \n": 9021,
  "befallen": 9022,
  "obedient": 9023,
  "emac": 9024,
  "emaciated": 9025,
  "swallow": 9026,
  "blan": 9027,
  "woes": 9028,
  "inquis": 9029,
  "poignant": 9030,
  "utterance": 9031,
  "foes": 9032,
  "wisdom": 9033,
  "beggar": 9034,
  "bonds": 9035,
  "cloudless": 9036,
  "nursed": 9037,
  "Austri": 9038,
  "rustic": 9039,
  "ado": 9040,
  "playfully": 9041,
  "Har": 9042,
  "concentrated": 9043,
  "Swiss": 9044,
  "Cu": 9045,
  "Bel": 9046,
  "Belrive": 9047,
  "resided": 9048,
  "chival": 9049,
  "redeem": 9050,
  "torrent": 9051,
  "attempts": 9052,
  "cursor": 9053,
  "cursory": 9054,
  "Parace": 9055,
  "Paracel": 9056,
  "Paracelsus": 9057,
  "imbu": 9058,
  "imbued": 9059,
  "tific": 9060,
  "medical": 9061,
  "benign": 9062,
  "befitting": 9063,
  "repar": 9064,
  "respite": 9065,
  "cible": 9066,
  "Angel": 9067,
  "omni": 9068,
  "enlightened": 9069,
  "chemistry": 9070,
  "mortality": 9071,
  "deliver": 9072,
  "sounded": 9073,
  "stim": 9074,
  "physiog": 9075,
  "physiogno": 9076,
  "infall": 9077,
  "cowardice": 9078,
  "supernatural": 9079,
  "worm": 9080,
  "blooming": 9081,
  "consummation": 9082,
  "glimmer": 9083,
  "patiently": 9084,
  "unrem": 9085,
  "relaxed": 9086,
  "bled": 9087,
  "clay": 9088,
  "ceasing": 9089,
  "vines": 9090,
  "luxu": 9091,
  "irresistible": 9092,
  "cribed": 9093,
  "transitory": 9094,
  "supre": 9095,
  "supreme": 9096,
  "shun": 9097,
  "arter": 9098,
  "whiteness": 9099,
  "inanimate": 9100,
  "wildest": 9101,
  "enveloped": 9102,
  "folds": 9103,
  "articulate": 9104,
  "demoniac": 9105,
  "bodily": 9106,
  "Like": 9107,
  "Dut": 9108,
  "Dutch": 9109,
  "shiver": 9110,
  "shivering": 9111,
  "tingle": 9112,
  "chairs": 9113,
  "Doub": 9114,
  "Doubt": 9115,
  "Doubtless": 9116,
  "vales": 9117,
  "encoun": 9118,
  "career": 9119,
  "Roman": 9120,
  "stare": 9121,
  "toward": 9122,
  "ulations": 9123,
  "invented": 9124,
  "tales": 9125,
  "ais": 9126,
  "dusk": 9127,
  "vainly": 9128,
  "print": 9129,
  "joyou": 9130,
  "sorrowing": 9131,
  "Fear": 9132,
  "promon": 9133,
  "promontory": 9134,
  "perpend": 9135,
  "perpendic": 9136,
  "perpendicular": 9137,
  "endowed": 9138,
  "venerable": 9139,
  "demanded": 9140,
  "rests": 9141,
  "ignominy": 9142,
  "sickening": 9143,
  "stony": 9144,
  "Despair": 9145,
  "accursed": 9146,
  "preyed": 9147,
  "Often": 9148,
  "plunge": 9149,
  "pilgrim": 9150,
  "pilgrimage": 9151,
  "wreak": 9152,
  "remote": 9153,
  "assuredly": 9154,
  "drag": 9155,
  "fainting": 9156,
  "pierced": 9157,
  "valleys": 9158,
  "etern": 9159,
  "nought": 9160,
  "Arve": 9161,
  "potence": 9162,
  "hangs": 9163,
  "_a": 9164,
  "cracking": 9165,
  "accumulated": 9166,
  "mists": 9167,
  "wreaths": 9168,
  "blows": 9169,
  "surface": 9170,
  "rift": 9171,
  "stupendous": 9172,
  "peaks": 9173,
  "overwhelm": 9174,
  "furious": 9175,
  "extinction": 9176,
  "accumulation": 9177,
  "bliss": 9178,
  "virtuous": 9179,
  "Cursed": 9180,
  "multip": 9181,
  "brook": 9182,
  "throats": 9183,
  "wing": 9184,
  "sparrow": 9185,
  "thrust": 9186,
  "cheese": 9187,
  "depos": 9188,
  "chinks": 9189,
  "jac": 9190,
  "plank": 9191,
  "washed": 9192,
  "nighting": 9193,
  "nightingale": 9194,
  "despondency": 9195,
  "nourishment": 9196,
  "wipe": 9197,
  "repl": 9198,
  "replen": 9199,
  "viewed": 9200,
  "flitted": 9201,
  "guit": 9202,
  "guitar": 9203,
  "pink": 9204,
  "Asi": 9205,
  "squalid": 9206,
  "government": 9207,
  "religion": 9208,
  "simplest": 9209,
  "leather": 9210,
  "images": 9211,
  "suic": 9212,
  "suicide": 9213,
  "destination": 9214,
  "assembl": 9215,
  "patri": 9216,
  "Satan": 9217,
  "tumultuous": 9218,
  "outcast": 9219,
  "absorbed": 9220,
  "lion": 9221,
  "tearing": 9222,
  "mounted": 9223,
  "strive": 9224,
  "wes": 9225,
  "licked": 9226,
  "ography": 9227,
  "senseless": 9228,
  "bone": 9229,
  "healed": 9230,
  "shrill": 9231,
  "sworn": 9232,
  "transported": 9233,
  "ranged": 9234,
  "sympathies": 9235,
  "wanton": 9236,
  "urning": 9237,
  "consume": 9238,
  "ripp": 9239,
  "conjure": 9240,
  "achieved": 9241,
  "precaution": 9242,
  "Strasburgh": 9243,
  "iment": 9244,
  "confli": 9245,
  "landscape": 9246,
  "scener": 9247,
  "scenery": 9248,
  "tter": 9249,
  "shipping": 9250,
  "ciful": 9251,
  "tower": 9252,
  "barrier": 9253,
  "Edin": 9254,
  "Edinburgh": 9255,
  "Wind": 9256,
  "_en": 9257,
  "soil": 9258,
  "roared": 9259,
  "giant": 9260,
  "malignant": 9261,
  "fishermen": 9262,
  "oars": 9263,
  "Vill": 9264,
  "Indi": 9265,
  "Indian": 9266,
  "steered": 9267,
  "folks": 9268,
  "drowned": 9269,
  "ske": 9270,
  "Ireland": 9271,
  "drug": 9272,
  "confided": 9273,
  "obstacle": 9274,
  "replace": 9275,
  "traged": 9276,
  "tragedy": 9277,
  "bble": 9278,
  "exhaustion": 9279,
  "unspeak": 9280,
  "unspeakable": 9281,
  "sandy": 9282,
  "Med": 9283,
  "snows": 9284,
  "murmured": 9285,
  "wrap": 9286,
  "harness": 9287,
  "provisions": 9288,
  "speck": 9289,
  "wiped": 9290,
  "piercing": 9291,
  "recognise": 9292,
  "wan": 9293,
  "geon": 9294,
  "specimen": 9295,
  "rights": 9296,
  "ARD": 9297,
  "Da": 9298,
  "Daily": 9299,
  "wherein": 9300,
  "records": 9301,
  "Sze": 9302,
  "Szeke": 9303,
  "Szekely": 9304,
  "Szekelys": 9305,
  "afe": 9306,
  "knocking": 9307,
  "gin": 9308,
  "trousers": 9309,
  "studded": 9310,
  "retic": 9311,
  "grip": 9312,
  "witch": 9313,
  "whip": 9314,
  "Land": 9315,
  "curve": 9316,
  "outer": 9317,
  "weir": 9318,
  "weird": 9319,
  "lashed": 9320,
  "tos": 9321,
  "movements": 9322,
  "cran": 9323,
  "coal": 9324,
  "stam": 9325,
  "mered": 9326,
  "arched": 9327,
  "moaned": 9328,
  "bay": 9329,
  "brush": 9330,
  "canny": 9331,
  "swung": 9332,
  "impulsively": 9333,
  "oct": 9334,
  "aqu": 9335,
  "aquil": 9336,
  "aquiline": 9337,
  "nause": 9338,
  "Seeing": 9339,
  "evidences": 9340,
  "Ham": 9341,
  "shaving": 9342,
  "newspapers": 9343,
  "_boy": 9344,
  "canine": 9345,
  "sale": 9346,
  "Aha": 9347,
  "cock": 9348,
  "_8": 9349,
  "beads": 9350,
  "wrench": 9351,
  "lonel": 9352,
  "loneliness": 9353,
  "warlike": 9354,
  "uel": 9355,
  "endor": 9356,
  "emerge": 9357,
  "angle": 9358,
  "sheer": 9359,
  "smells": 9360,
  "blazing": 9361,
  "deathly": 9362,
  "sanct": 9363,
  "suck": 9364,
  "bars": 9365,
  "thest": 9366,
  "robe": 9367,
  "square": 9368,
  "muffled": 9369,
  "quaint": 9370,
  "safer": 9371,
  "laden": 9372,
  "lick": 9373,
  "_Same": 9374,
  "lain": 9375,
  "steeply": 9376,
  "lethal": 9377,
  "bloated": 9378,
  "millions": 9379,
  "dening": 9380,
  "downward": 9381,
  "flange": 9382,
  "tramping": 9383,
  "rum": 9384,
  "haired": 9385,
  "silk": 9386,
  "isn": 9387,
  "lightly": 9388,
  "needn": 9389,
  "RA": 9390,
  "Esk": 9391,
  "pathway": 9392,
  "lighthouse": 9393,
  "Outside": 9394,
  "sailor": 9395,
  "sceptical": 9396,
  "masel": 9397,
  "lookin": 9398,
  "Judgment": 9399,
  "cerebr": 9400,
  "opiate": 9401,
  "lunatics": 9402,
  "_26": 9403,
  "enclosed": 9404,
  "_6": 9405,
  "presage": 9406,
  "whet": 9407,
  "Bay": 9408,
  "tail": 9409,
  "barking": 9410,
  "intens": 9411,
  "intensified": 9412,
  "dereli": 9413,
  "derelict": 9414,
  "buffeting": 9415,
  "officials": 9416,
  "mania": 9417,
  "disappear": 9418,
  "Rou": 9419,
  "Rouman": 9420,
  "nightdress": 9421,
  "Ter": 9422,
  "recl": 9423,
  "reclining": 9424,
  "lung": 9425,
  "lungs": 9426,
  "whirling": 9427,
  "fading": 9428,
  "sits": 9429,
  "Mess": 9430,
  "Messrs": 9431,
  "Paterson": 9432,
  "invoice": 9433,
  "Jose": 9434,
  "Joseph": 9435,
  "padded": 9436,
  "cage": 9437,
  "worry": 9438,
  "preying": 9439,
  "lethargic": 9440,
  "beckoned": 9441,
  "inspiration": 9442,
  "Got": 9443,
  "Gott": 9444,
  "Quick": 9445,
  "handful": 9446,
  "palms": 9447,
  "waxen": 9448,
  "arsk": 9449,
  "animiles": 9450,
  "quid": 9451,
  "Lor": 9452,
  "kem": 9453,
  "Old": 9454,
  "somewheres": 9455,
  "Memorandum": 9456,
  "pillar": 9457,
  "dazed": 9458,
  "sobbing": 9459,
  "vam": 9460,
  "vampires": 9461,
  "hinder": 9462,
  "responsibility": 9463,
  "e_": 9464,
  "staring": 9465,
  "sexton": 9466,
  "Westmin": 9467,
  "Westminster": 9468,
  "stray": 9469,
  "HEL": 9470,
  "typewritten": 9471,
  "whistle": 9472,
  "hypnotism": 9473,
  "Lordship": 9474,
  "unclean": 9475,
  "aneously": 9476,
  "bravely": 9477,
  "powerless": 9478,
  "ral": 9479,
  "flourish": 9480,
  "lair": 9481,
  "collapse": 9482,
  "fascination": 9483,
  "Bermond": 9484,
  "Bermondsey": 9485,
  "Candy": 9486,
  "fixedly": 9487,
  "wily": 9488,
  "Hush": 9489,
  "Inst": 9490,
  "Instinct": 9491,
  "Instinctively": 9492,
  "flinch": 9493,
  "stricken": 9494,
  "Lloy": 9495,
  "Lloyd": 9496,
  "Winchest": 9497,
  "Winchesters": 9498,
  "Bu": 9499,
  "Deil": 9500,
  "Holy": 9501,
  "LE": 9502,
  "normally": 9503,
  "programs": 9504,
  "Super": 9505,
  "groups": 9506,
  "computational": 9507,
  "inputs": 9508,
  "lications": 9509,
  "summar": 9510,
  "autoreg": 9511,
  "autoregressive": 9512,
  "unit": 9513,
  "Ca": 9514,
  "predicting": 9515,
  "fund": 9516,
  "algorithms": 9517,
  "variation": 9518,
  "separates": 9519,
  "parameter": 9520,
  "batch": 9521,
  "batches": 9522,
  "Training": 9523,
  "Over": 9524,
  "unseen": 9525,
  "generaliz": 9526,
  "generalization": 9527,
  "valid": 9528,
  "interpreted": 9529,
  "Low": 9530,
  "Py": 9531,
  "Pyth": 9532,
  "Python": 9533,
  "syn": 9534,
  "block": 9535,
  "insert": 9536,
  "associate": 9537,
  "creating": 9538,
  "attributes": 9539,
  "hier": 9540,
  "archi": 9541,
  "phis": 9542,
  "stack": 9543,
  "recently": 9544,
  "linked": 9545,
  "ferences": 9546,
  "node": 9547,
  "spec": 9548,
  "relational": 9549,
  "database": 9550,
  "column": 9551,
  "query": 9552,
  "identif": 9553,
  "identifies": 9554,
  "techni": 9555,
  "rules": 9556,
  "operating": 9557,
  "iler": 9558,
  "preter": 9559,
  "PS": 9560,
  "loc": 9561,
  "domain": 9562,
  "client": 9563,
  "authen": 9564,
  "authentic": 9565,
  "exchange": 9566,
  "files": 9567,
  "distributed": 9568,
  "plat": 9569,
  "istics": 9570,
  "devi": 9571,
  "properties": 9572,
  "Mis": 9573,
  "incomplete": 9574,
  "misleading": 9575,
  "propag": 9576,
  "gradients": 9577,
  "nonline": 9578,
  "nonlinear": 9579,
  "LU": 9580,
  "applies": 9581,
  "alongside": 9582,
  "procedure": 9583,
  "selecting": 9584,
  "candid": 9585,
  "decoding": 9586,
  "inspection": 9587,
  "generated": 9588,
  "adapt": 9589,
  "starts": 9590,
  "capabilities": 9591,
  "resear": 9592,
  "investigate": 9593,
  "helps": 9594,
  "behaves": 9595,
  "focus": 9596,
  "gging": 9597,
  "oft": 9598,
  "commer": 9599,
  "chers": 9600,
  "demonstr": 9601,
  "HER": 9602,
  "156": 9603,
  "Letters": 9604,
  "CE": 9605,
  "Illustrations": 9606,
  "Hu": 9607,
  "Road": 9608,
  "PR": 9609,
  "CO": 9610,
  "_To": 9611,
  "inscri": 9612,
  "Jan": 9613,
  "Abbey": 9614,
  "ody": 9615,
  "exal": 9616,
  "insip": 9617,
  "insipid": 9618,
  "Ed": 9619,
  "fondness": 9620,
  "exemp": 9621,
  "vulgarity": 9622,
  "composition": 9623,
  "rages": 9624,
  "hesitat": 9625,
  "hesitatingly": 9626,
  "eminently": 9627,
  "publ": 9628,
  "vigorous": 9629,
  "superiority": 9630,
  "possesses": 9631,
  "plot": 9632,
  "_it": 9633,
  "transactions": 9634,
  "contributes": 9635,
  "intri": 9636,
  "Although": 9637,
  "gifts": 9638,
  "graces": 9639,
  "advantageously": 9640,
  "consciously": 9641,
  "humorous": 9642,
  "consummate": 9643,
  "pup": 9644,
  "apprehended": 9645,
  "affinity": 9646,
  "femin": 9647,
  "feminine": 9648,
  "Spectator": 9649,
  "minuteness": 9650,
  "glaring": 9651,
  "ousness": 9652,
  "insatiable": 9653,
  "ruthless": 9654,
  "cutting": 9655,
  "gus": 9656,
  "buff": 9657,
  "another_": 9658,
  "assures": 9659,
  "admires": 9660,
  "cynicism": 9661,
  "deceiving": 9662,
  "itous": 9663,
  "inve": 9664,
  "paradise": 9665,
  "disse": 9666,
  "fools": 9667,
  "Gold": 9668,
  "Smith": 9669,
  "sevent": 9670,
  "metaphy": 9671,
  "metaphys": 9672,
  "pierce": 9673,
  "kid": 9674,
  "astic": 9675,
  "magic": 9676,
  "immortal": 9677,
  "bisho": 9678,
  "metals": 9679,
  "existent": 9680,
  "spoiled": 9681,
  "exhib": 9682,
  "exhibition": 9683,
  "rically": 9684,
  "artfully": 9685,
  "exagger": 9686,
  "earl": 9687,
  "erful": 9688,
  "cris": 9689,
  "readers": 9690,
  "shocks": 9691,
  "glanced": 9692,
  "exquisitely": 9693,
  "weaknesses": 9694,
  "retail": 9695,
  "sins": 9696,
  "exig": 9697,
  "encies": 9698,
  "sketch": 9699,
  "cheap": 9700,
  "tints": 9701,
  "rejection": 9702,
  "division": 9703,
  "heroines": 9704,
  "destitute": 9705,
  "propen": 9706,
  "playfulness": 9707,
  "speechless": 9708,
  "fascin": 9709,
  "fascinating": 9710,
  "nast": 9711,
  "nasty": 9712,
  "invari": 9713,
  "invariably": 9714,
  "chron": 9715,
  "chrono": 9716,
  "chronological": 9717,
  "Es": 9718,
  "36": 9719,
  "prognostics": 9720,
  "40": 9721,
  "45": 9722,
  "XXV": 9723,
  "35": 9724,
  "crammed": 9725,
  "XL": 9726,
  "Miller": 9727,
  "flir": 9728,
  "flirting": 9729,
  "29": 9730,
  "Conject": 9731,
  "spiteful": 9732,
  "survey": 9733,
  "Unable": 9734,
  "XI": 9735,
  "_Copyright": 9736,
  "Non": 9737,
  "Nonsense": 9738,
  "_may_": 9739,
  "whiche": 9740,
  "whichever": 9741,
  "sar": 9742,
  "disclosed": 9743,
  "deigned": 9744,
  "emphat": 9745,
  "surpassing": 9746,
  "acquaintances": 9747,
  "stout": 9748,
  "surmises": 9749,
  "ascertaining": 9750,
  "planned": 9751,
  "deferred": 9752,
  "comforted": 9753,
  "mien": 9754,
  "handso": 9755,
  "handsomer": 9756,
  "sharpened": 9757,
  "overhear": 9758,
  "fastid": 9759,
  "fastidious": 9760,
  "Which": 9761,
  "wasting": 9762,
  "partners": 9763,
  "dresses": 9764,
  "enduring": 9765,
  "follies": 9766,
  "inherited": 9767,
  "openness": 9768,
  "firmest": 9769,
  "reliance": 9770,
  "inviting": 9771,
  "authorized": 9772,
  "Within": 9773,
  "alty": 9774,
  "ckled": 9775,
  "Robins": 9776,
  "Robinson": 9777,
  "overheard": 9778,
  "_My": 9779,
  "_My_": 9780,
  "excepting": 9781,
  "_more": 9782,
  "_more_": 9783,
  "critic": 9784,
  "asserting": 9785,
  "unaware": 9786,
  "provoking": 9787,
  "energetic": 9788,
  "teased": 9789,
  "musical": 9790,
  "invaluable": 9791,
  "Ir": 9792,
  "Irish": 9793,
  "refine": 9794,
  "polished": 9795,
  "discomposure": 9796,
  "reverie": 9797,
  "yed": 9798,
  "meditating": 9799,
  "attor": 9800,
  "attorney": 9801,
  "worthless": 9802,
  "regimentals": 9803,
  "eff": 9804,
  "effusions": 9805,
  "NIND": 9806,
  "compassionate": 9807,
  "intermission": 9808,
  "Bre": 9809,
  "Break": 9810,
  "Breakfast": 9811,
  "headache": 9812,
  "People": 9813,
  "dirt": 9814,
  "pud": 9815,
  "favourably": 9816,
  "advised": 9817,
  "thankfully": 9818,
  "distinguishing": 9819,
  "abusing": 9820,
  "walker": 9821,
  "nonsens": 9822,
  "nonsensical": 9823,
  "generations": 9824,
  "stationed": 9825,
  "amazing": 9826,
  "assistant": 9827,
  "paltry": 9828,
  "despicable": 9829,
  "ets": 9830,
  "amend": 9831,
  "profuse": 9832,
  "lease": 9833,
  "intric": 9834,
  "varying": 9835,
  "victory": 9836,
  "blushing": 9837,
  "gente": 9838,
  "genteel": 9839,
  "_very": 9840,
  "ensued": 9841,
  "troubling": 9842,
  "messages": 9843,
  "praises": 9844,
  "contrive": 9845,
  "writes": 9846,
  "imaginable": 9847,
  "panegy": 9848,
  "panegyric": 9849,
  "undone": 9850,
  "obstinacy": 9851,
  "complying": 9852,
  "sisting": 9853,
  "resented": 9854,
  "expost": 9855,
  "ived": 9856,
  "Italian": 9857,
  "reel": 9858,
  "meditated": 9859,
  "inferiority": 9860,
  "liking": 9861,
  "planning": 9862,
  "compass": 9863,
  "bordering": 9864,
  "eyel": 9865,
  "eyelashes": 9866,
  "disengaged": 9867,
  "gaily": 9868,
  "ambled": 9869,
  "anec": 9870,
  "anecdo": 9871,
  "sofas": 9872,
  "yawn": 9873,
  "refreshing": 9874,
  "disappointing": 9875,
  "whim": 9876,
  "whims": 9877,
  "inconsisten": 9878,
  "divert": 9879,
  "presume": 9880,
  "offences": 9881,
  "lac": 9882,
  "wilfully": 9883,
  "misunderstand": 9884,
  "postscript": 9885,
  "hered": 9886,
  "embracing": 9887,
  "liveliest": 9888,
  "cordially": 9889,
  "laconic": 9890,
  "quarrelling": 9891,
  "fili": 9892,
  "filial": 9893,
  "RIG": 9894,
  "RIGHT": 9895,
  "heal": 9896,
  "breach": 9897,
  "Easter": 9898,
  "Lew": 9899,
  "Lewis": 9900,
  "olive": 9901,
  "18th": 9902,
  "objecting": 9903,
  "atonement": 9904,
  "pomp": 9905,
  "pompous": 9906,
  "complimented": 9907,
  "fame": 9908,
  "hearer": 9909,
  "hardship": 9910,
  "praised": 9911,
  "viewing": 9912,
  "preaching": 9913,
  "reckoned": 9914,
  "ponies": 9915,
  "suggesting": 9916,
  "keenest": 9917,
  "Fe": 9918,
  "ulating": 9919,
  "monoton": 9920,
  "monotonous": 9921,
  "talks": 9922,
  "hire": 9923,
  "gam": 9924,
  "rector": 9925,
  "suitableness": 9926,
  "notions": 9927,
  "bon": 9928,
  "bonnet": 9929,
  "muslin": 9930,
  "unassuming": 9931,
  "riding": 9932,
  "corro": 9933,
  "corrobor": 9934,
  "lieuten": 9935,
  "lieutenant": 9936,
  "unluckily": 9937,
  "lottery": 9938,
  "seats": 9939,
  "creditable": 9940,
  "insignificance": 9941,
  "abundantly": 9942,
  "ffin": 9943,
  "impartial": 9944,
  "proclaim": 9945,
  "scandalous": 9946,
  "disgrac": 9947,
  "behave": 9948,
  "malicious": 9949,
  "forgiving": 9950,
  "inmates": 9951,
  "confidential": 9952,
  "obligations": 9953,
  "honesty": 9954,
  "brotherly": 9955,
  "equals": 9956,
  "prosperous": 9957,
  "treating": 9958,
  "contradict": 9959,
  "ceremonious": 9960,
  "mornings": 9961,
  "assisting": 9962,
  "dispute": 9963,
  "coats": 9964,
  "conquest": 9965,
  "unheard": 9966,
  "answerable": 9967,
  "provoked": 9968,
  "tac": 9969,
  "tacit": 9970,
  "blaming": 9971,
  "constrained": 9972,
  "oks": 9973,
  "implicit": 9974,
  "assertions": 9975,
  "Exc": 9976,
  "Excuse": 9977,
  "wilful": 9978,
  "pleasantness": 9979,
  "plead": 9980,
  "dissu": 9981,
  "maintained": 9982,
  "neglecting": 9983,
  "unrestrained": 9984,
  "discernment": 9985,
  "audible": 9986,
  "stan": 9987,
  "composedly": 9988,
  "diversion": 9989,
  "excused": 9990,
  "preferment": 9991,
  "acquit": 9992,
  "orderly": 9993,
  "hastening": 9994,
  "stool": 9995,
  "uniformly": 9996,
  "ungenerous": 9997,
  "femal": 9998,
  "females": 9999
}
