{
  "<PAD>": 0,
  "<UNK>": 1,
  "<BOS>": 2,
  "<EOS>": 3,
  " ": 4,
  "e": 5,
  "a": 6,
  "t": 7,
  "n": 8,
  "i": 9,
  "o": 10,
  "s": 11,
  "r": 12,
  "l": 13,
  "c": 14,
  "d": 15,
  "m": 16,
  "u": 17,
  "p": 18,
  "h": 19,
  "g": 20,
  "f": 21,
  ".": 22,
  "b": 23,
  "y": 24,
  "v": 25,
  "w": 26,
  ",": 27,
  "\n": 28,
  "k": 29,
  "A": 30,
  "x": 31,
  "z": 32,
  "q": 33,
  "I": 34,
  "T": 35,
  "-": 36,
  "D": 37,
  "P": 38,
  "S": 39,
  "C": 40,
  "j": 41,
  "L": 42,
  "E": 43,
  "R": 44,
  "M": 45,
  "G": 46,
  "U": 47,
  "B": 48,
  "'": 49,
  "O": 50,
  "N": 51,
  "F": 52,
  "Q": 53,
  "H": 54,
  "V": 55,
  "W": 56,
  "(": 57,
  ")": 58,
  "J": 59,
  "in": 60,
  "at": 61,
  "on": 62,
  "an": 63,
  "re": 64,
  "er": 65,
  "es": 66,
  "en": 67,
  "or": 68,
  "ion": 69,
  "th": 70,
  "ing": 71,
  "al": 72,
  "ed": 73,
  "ro": 74,
  "ar": 75,
  "is": 76,
  "ation": 77,
  "and": 78,
  "ct": 79,
  "le": 80,
  "de": 81,
  "to": 82,
  "ent": 83,
  "co": 84,
  "pro": 85,
  "ch": 86,
  "it": 87,
  "tr": 88,
  "the": 89,
  "as": 90,
  "ic": 91,
  "of": 92,
  "us": 93,
  "me": 94,
  "mp": 95,
  "mo": 96,
  "res": 97,
  "for": 98,
  "ly": 99,
  "ut": 100,
  "ex": 101,
  "st": 102,
  "dat": 103,
  "ce": 104,
  "ain": 105,
  "di": 106,
  "del": 107,
  "ur": 108,
  "un": 109,
  "ne": 110,
  "model": 111,
  "ter": 112,
  "be": 113,
  "ul": 114,
  "ge": 115,
  "se": 116,
  "con": 117,
  "can": 118,
  "ab": 119,
  "lo": 120,
  "ces": 121,
  "form": 122,
  "qu": 123,
  "iz": 124,
  "ra": 125,
  "ti": 126,
  "val": 127,
  "tw": 128,
  "ve": 129,
  "mm": 130,
  "per": 131,
  "comp": 132,
  "pre": 133,
  "ction": 134,
  "data": 135,
  "train": 136,
  "ho": 137,
  "valu": 138,
  "ang": 139,
  "are": 140,
  "ith": 141,
  "il": 142,
  "age": 143,
  "ate": 144,
  "cess": 145,
  "ig": 146,
  "that": 147,
  "ect": 148,
  "rep": 149,
  "training": 150,
  "ment": 151,
  "gra": 152,
  "used": 153,
  "ity": 154,
  "ence": 155,
  "cl": 156,
  "lear": 157,
  "su": 158,
  "vi": 159,
  "fe": 160,
  "lang": 161,
  "langu": 162,
  "language": 163,
  "learn": 164,
  "amp": 165,
  "les": 166,
  "ations": 167,
  "si": 168,
  "ken": 169,
  "ame": 170,
  "he": 171,
  "ort": 172,
  "po": 173,
  "te": 174,
  "ure": 175,
  "token": 176,
  "It": 177,
  "ma": 178,
  "ork": 179,
  "mmon": 180,
  "ac": 181,
  "par": 182,
  "des": 183,
  "ste": 184,
  "ms": 185,
  "ine": 186,
  "ad": 187,
  "process": 188,
  "arch": 189,
  "ren": 190,
  "fic": 191,
  "predi": 192,
  "examp": 193,
  "ans": 194,
  "with": 195,
  "um": 196,
  "ther": 197,
  "ts": 198,
  "feren": 199,
  "able": 200,
  "cont": 201,
  "op": 202,
  "ap": 203,
  "ec": 204,
  "wh": 205,
  "progra": 206,
  "use": 207,
  "examples": 208,
  "ical": 209,
  "ural": 210,
  "netw": 211,
  "network": 212,
  "ization": 213,
  "by": 214,
  "fi": 215,
  "sy": 216,
  "learning": 217,
  "fro": 218,
  "from": 219,
  "ver": 220,
  "common": 221,
  "up": 222,
  "repres": 223,
  "represent": 224,
  "du": 225,
  "gen": 226,
  "gener": 227,
  "str": 228,
  "sho": 229,
  "uld": 230,
  "ib": 231,
  "ated": 232,
  "ding": 233,
  "syste": 234,
  "ctions": 235,
  "so": 236,
  "gor": 237,
  "no": 238,
  "ext": 239,
  "low": 240,
  "should": 241,
  "parame": 242,
  "parameter": 243,
  "comput": 244,
  "inter": 245,
  "commonly": 246,
  "put": 247,
  "we": 248,
  "igh": 249,
  "act": 250,
  "ug": 251,
  "ase": 252,
  "col": 253,
  "predict": 254,
  "num": 255,
  "ob": 256,
  "ser": 257,
  "neural": 258,
  "trans": 259,
  "uring": 260,
  "ist": 261,
  "ient": 262,
  "sit": 263,
  "how": 264,
  "fferen": 265,
  "fferent": 266,
  "abil": 267,
  "ari": 268,
  "ive": 269,
  "stru": 270,
  "prob": 271,
  "man": 272,
  "rel": 273,
  "clas": 274,
  "sp": 275,
  "ple": 276,
  "using": 277,
  "iv": 278,
  "sequ": 279,
  "other": 280,
  "formation": 281,
  "The": 282,
  "ures": 283,
  "tim": 284,
  "parameters": 285,
  "ugh": 286,
  "ject": 287,
  "perform": 288,
  "der": 289,
  "ke": 290,
  "pl": 291,
  "algor": 292,
  "algorith": 293,
  "input": 294,
  "imp": 295,
  "information": 296,
  "different": 297,
  "one": 298,
  "when": 299,
  "im": 300,
  "ss": 301,
  "ability": 302,
  "od": 303,
  "ize": 304,
  "evalu": 305,
  "out": 306,
  "values": 307,
  "cr": 308,
  "ll": 309,
  "mal": 310,
  "requ": 311,
  "stand": 312,
  "chine": 313,
  "sion": 314,
  "ha": 315,
  "ep": 316,
  "comple": 317,
  "transform": 318,
  "est": 319,
  "text": 320,
  "fo": 321,
  "lows": 322,
  "sequence": 323,
  "ant": 324,
  "twe": 325,
  "posit": 326,
  "during": 327,
  "ents": 328,
  "An": 329,
  "optim": 330,
  "ution": 331,
  "vari": 332,
  "datase": 333,
  "dataset": 334,
  "repe": 335,
  "provi": 336,
  "ance": 337,
  "code": 338,
  "ful": 339,
  "ack": 340,
  "om": 341,
  "ial": 342,
  "systems": 343,
  "incl": 344,
  "inclu": 345,
  "pat": 346,
  "In": 347,
  "ally": 348,
  "machine": 349,
  "dis": 350,
  "ps": 351,
  "such": 352,
  "value": 353,
  "cor": 354,
  "ay": 355,
  "fun": 356,
  "search": 357,
  "tokens": 358,
  "another": 359,
  "betwe": 360,
  "between": 361,
  "ty": 362,
  "loss": 363,
  "red": 364,
  "updat": 365,
  "exec": 366,
  "port": 367,
  "fir": 368,
  "first": 369,
  "inte": 370,
  "ci": 371,
  "ormal": 372,
  "include": 373,
  "hi": 374,
  "plic": 375,
  "algorithm": 376,
  "ulti": 377,
  "ultiple": 378,
  "ational": 379,
  "processing": 380,
  "cted": 381,
  "ted": 382,
  "produ": 383,
  "au": 384,
  "allows": 385,
  "ies": 386,
  "ach": 387,
  "cur": 388,
  "meas": 389,
  "ting": 390,
  "trib": 391,
  "mor": 392,
  "repeated": 393,
  "id": 394,
  "fin": 395,
  "program": 396,
  "sto": 397,
  "ments": 398,
  "struct": 399,
  "contain": 400,
  "oper": 401,
  "useful": 402,
  "object": 403,
  "ph": 404,
  "descr": 405,
  "ics": 406,
  "oftw": 407,
  "oftware": 408,
  "cer": 409,
  "tas": 410,
  "task": 411,
  "requi": 412,
  "ns": 413,
  "whi": 414,
  "system": 415,
  "predicts": 416,
  "am": 417,
  "not": 418,
  "numer": 419,
  "numerical": 420,
  "serv": 421,
  "weigh": 422,
  "generation": 423,
  "ating": 424,
  "may": 425,
  "archit": 426,
  "architect": 427,
  "import": 428,
  "important": 429,
  "time": 430,
  "optimization": 431,
  "mat": 432,
  "ates": 433,
  "resp": 434,
  "memor": 435,
  "thro": 436,
  "through": 437,
  "oc": 438,
  "xity": 439,
  "programm": 440,
  "programming": 441,
  "Co": 442,
  "ue": 443,
  "colle": 444,
  "ary": 445,
  "class": 446,
  "beha": 447,
  "typ": 448,
  "numb": 449,
  "number": 450,
  "describ": 451,
  "sort": 452,
  "software": 453,
  "ling": 454,
  "tific": 455,
  "tificial": 456,
  "intell": 457,
  "intellig": 458,
  "intelligence": 459,
  "normal": 460,
  "predictions": 461,
  "proble": 462,
  "relations": 463,
  "relationshi": 464,
  "led": 465,
  "classi": 466,
  "classific": 467,
  "classification": 468,
  "reg": 469,
  "regres": 470,
  "ature": 471,
  "pr": 472,
  "observ": 473,
  "networks": 474,
  "multiple": 475,
  "arge": 476,
  "conne": 477,
  "unit": 478,
  "activ": 479,
  "wer": 480,
  "fore": 481,
  "transformer": 482,
  "att": 483,
  "attent": 484,
  "attention": 485,
  "chan": 486,
  "Tr": 487,
  "ef": 488,
  "ficient": 489,
  "same": 490,
  "term": 491,
  "cre": 492,
  "compon": 493,
  "components": 494,
  "function": 495,
  "probability": 496,
  "distrib": 497,
  "meth": 498,
  "method": 499,
  "gradi": 500,
  "chang": 501,
  "contro": 502,
  "size": 503,
  "atch": 504,
  "more": 505,
  "ough": 506,
  "memory": 507,
  "provides": 508,
  "performance": 509,
  "ved": 510,
  "evaluation": 511,
  "tain": 512,
  "read": 513,
  "anal": 514,
  "analy": 515,
  "sis": 516,
  "variable": 517,
  "ten": 518,
  "execution": 519,
  "Common": 520,
  "state": 521,
  "sup": 522,
  "support": 523,
  "remo": 524,
  "key": 525,
  "pa": 526,
  "behavi": 527,
  "behavior": 528,
  "cap": 529,
  "ood": 530,
  "exp": 531,
  "structure": 532,
  "spec": 533,
  "Dat": 534,
  "reso": 535,
  "resour": 536,
  "mis": 537,
  "ives": 538,
  "sele": 539,
  "computer": 540,
  "tasks": 541,
  "require": 542,
  "Th": 543,
  "ese": 544,
  "under": 545,
  "understand": 546,
  "patter": 547,
  "patterns": 548,
  "peri": 549,
  "ually": 550,
  "relationships": 551,
  "make": 552,
  "vis": 553,
  "problem": 554,
  "cate": 555,
  "categor": 556,
  "temp": 557,
  "erature": 558,
  "work": 559,
  "ilar": 560,
  "observations": 561,
  "toge": 562,
  "together": 563,
  "De": 564,
  "bas": 565,
  "based": 566,
  "ide": 567,
  "cal": 568,
  "ir": 569,
  "ases": 570,
  "activation": 571,
  "auto": 572,
  "sive": 573,
  "next": 574,
  "before": 575,
  "izer": 576,
  "complete": 577,
  "architecture": 578,
  "ca": 579,
  "cause": 580,
  "efficient": 581,
  "each": 582,
  "determ": 583,
  "ong": 584,
  "lu": 585,
  "ail": 586,
  "mb": 587,
  "represents": 588,
  "ite": 589,
  "contin": 590,
  "continu": 591,
  "measures": 592,
  "redu": 593,
  "distribution": 594,
  "changes": 595,
  "dire": 596,
  "update": 597,
  "control": 598,
  "too": 599,
  "necess": 600,
  "repeatedly": 601,
  "occur": 602,
  "way": 603,
  "test": 604,
  "ced": 605,
  "metr": 606,
  "high": 607,
  "web": 608,
  "often": 609,
  "loc": 610,
  "loop": 611,
  "utes": 612,
  "while": 613,
  "path": 614,
  "collection": 615,
  "operations": 616,
  "stores": 617,
  "objects": 618,
  "methods": 619,
  "respon": 620,
  "complexity": 621,
  "describes": 622,
  "ele": 623,
  "typical": 624,
  "typically": 625,
  "istics": 626,
  "end": 627,
  "add": 628,
  "que": 629,
  "li": 630,
  "ference": 631,
  "tre": 632,
  "ges": 633,
  "ities": 634,
  "sh": 635,
  "rand": 636,
  "random": 637,
  "ifi": 638,
  "abase": 639,
  "manage": 640,
  "ard": 641,
  "resources": 642,
  "instru": 643,
  "instructions": 644,
  "ardi": 645,
  "ardiz": 646,
  "tocol": 647,
  "Pro": 648,
  "ication": 649,
  "omain": 650,
  "ests": 651,
  "some": 652,
  "Data": 653,
  "cting": 654,
  "mean": 655,
  "provide": 656,
  "sing": 657,
  "inv": 658,
  "hel": 659,
  "samp": 660,
  "sampling": 661,
  "set": 662,
  "ative": 663,
  "tun": 664,
  "tuning": 665,
  "el": 666,
  "concer": 667,
  "ned": 668,
  "These": 669,
  "lv": 670,
  "experi": 671,
  "ran": 672,
  "artificial": 673,
  "programs": 674,
  "pervis": 675,
  "pervised": 676,
  "category": 677,
  "temperature": 678,
  "ice": 679,
  "have": 680,
  "gro": 681,
  "sim": 682,
  "similar": 683,
  "computational": 684,
  "ayer": 685,
  "representations": 686,
  "large": 687,
  "wide": 688,
  "widely": 689,
  "spe": 690,
  "atural": 691,
  "connected": 692,
  "inputs": 693,
  "weights": 694,
  "During": 695,
  "bet": 696,
  "better": 697,
  "summ": 698,
  "summar": 699,
  "autoregres": 700,
  "autoregressive": 701,
  "Dep": 702,
  "part": 703,
  "fra": 704,
  "into": 705,
  "mechan": 706,
  "mechanis": 707,
  "many": 708,
  "position": 709,
  "consi": 710,
  "consider": 711,
  "inf": 712,
  "influ": 713,
  "influence": 714,
  "predicting": 715,
  "ess": 716,
  "only": 717,
  "av": 718,
  "avail": 719,
  "available": 720,
  "ous": 721,
  "deve": 722,
  "develo": 723,
  "develop": 724,
  "models": 725,
  "algorithms": 726,
  "reduce": 727,
  "well": 728,
  "generally": 729,
  "adap": 730,
  "rate": 731,
  "come": 732,
  "unnecess": 733,
  "batch": 734,
  "computation": 735,
  "alth": 736,
  "although": 737,
  "epo": 738,
  "epoch": 739,
  "Train": 740,
  "Training": 741,
  "performs": 742,
  "general": 743,
  "ose": 744,
  "about": 745,
  "hy": 746,
  "proced": 747,
  "interpre": 748,
  "measure": 749,
  "uncer": 750,
  "uncertain": 751,
  "Py": 752,
  "Pyth": 753,
  "Python": 754,
  "leve": 755,
  "level": 756,
  "kno": 757,
  "know": 758,
  "analysis": 759,
  "ific": 760,
  "asso": 761,
  "associ": 762,
  "bloc": 763,
  "block": 764,
  "pt": 765,
  "resul": 766,
  "results": 767,
  "cond": 768,
  "condit": 769,
  "condition": 770,
  "true": 771,
  "fal": 772,
  "false": 773,
  "inde": 774,
  "inser": 775,
  "insert": 776,
  "int": 777,
  "access": 778,
  "steps": 779,
  "good": 780,
  "corre": 781,
  "bo": 782,
  "stack": 783,
  "fol": 784,
  "most": 785,
  "ently": 786,
  "removed": 787,
  "ear": 788,
  "earli": 789,
  "node": 790,
  "tree": 791,
  "edges": 792,
  "graph": 793,
  "ices": 794,
  "sib": 795,
  "track": 796,
  "divi": 797,
  "appro": 798,
  "relational": 799,
  "database": 800,
  "ables": 801,
  "ident": 802,
  "identifi": 803,
  "identifies": 804,
  "tech": 805,
  "techn": 806,
  "techni": 807,
  "applic": 808,
  "application": 809,
  "management": 810,
  "its": 811,
  "med": 812,
  "medi": 813,
  "hand": 814,
  "net": 815,
  "comm": 816,
  "commun": 817,
  "icate": 818,
  "standardiz": 819,
  "client": 820,
  "server": 821,
  "domain": 822,
  "ses": 823,
  "side": 824,
  "output": 825,
  "auth": 826,
  "version": 827,
  "project": 828,
  "Re": 829,
  "ev": 830,
  "feat": 831,
  "features": 832,
  "coding": 833,
  "proport": 834,
  "proportion": 835,
  "positive": 836,
  "conf": 837,
  "invo": 838,
  "gradients": 839,
  "non": 840,
  "nonl": 841,
  "nonline": 842,
  "nonlinear": 843,
  "LU": 844,
  "dual": 845,
  "help": 846,
  "qual": 847,
  "trained": 848,
  "produce": 849,
  "cts": 850,
  "idat": 851,
  "Ar": 852,
  "Artificial": 853,
  "fiel": 854,
  "field": 855,
  "sci": 856,
  "science": 857,
  "concerned": 858,
  "hum": 859,
  "human": 860,
  "understanding": 861,
  "izing": 862,
  "mak": 863,
  "solv": 864,
  "solving": 865,
  "bran": 866,
  "branch": 867,
  "which": 868,
  "stead": 869,
  "wr": 870,
  "writ": 871,
  "ru": 872,
  "rule": 873,
  "new": 874,
  "uses": 875,
  "la": 876,
  "labe": 877,
  "spam": 878,
  "regression": 879,
  "Un": 880,
  "supervised": 881,
  "works": 882,
  "do": 883,
  "does": 884,
  "explic": 885,
  "explicit": 886,
  "uster": 887,
  "ustering": 888,
  "example": 889,
  "group": 890,
  "accor": 891,
  "according": 892,
  "Deep": 893,
  "layer": 894,
  "natural": 895,
  "os": 896,
  "interconnected": 897,
  "units": 898,
  "called": 899,
  "their": 900,
  "functions": 901,
  "adj": 902,
  "adjus": 903,
  "produces": 904,
  "Ap": 905,
  "Applic": 906,
  "Applications": 907,
  "transl": 908,
  "quest": 909,
  "question": 910,
  "answer": 911,
  "conver": 912,
  "learns": 913,
  "stat": 914,
  "sequen": 915,
  "sequences": 916,
  "came": 917,
  "Depen": 918,
  "Depending": 919,
  "tokenizer": 920,
  "wor": 921,
  "word": 922,
  "uation": 923,
  "frag": 924,
  "fragment": 925,
  "raw": 926,
  "mechanisms": 927,
  "Trans": 928,
  "because": 929,
  "they": 930,
  "efficiently": 931,
  "positions": 932,
  "computes": 933,
  "determine": 934,
  "strong": 935,
  "strongly": 936,
  "prev": 937,
  "proper": 938,
  "actually": 939,
  "mbed": 940,
  "mbedding": 941,
  "discre": 942,
  "discrete": 943,
  "continuous": 944,
  "desi": 945,
  "desired": 946,
  "targe": 947,
  "target": 948,
  "ross": 949,
  "modeling": 950,
  "predicted": 951,
  "actu": 952,
  "actual": 953,
  "Gra": 954,
  "min": 955,
  "minim": 956,
  "minimize": 957,
  "gradient": 958,
  "ind": 959,
  "indic": 960,
  "indicates": 961,
  "respect": 962,
  "Ad": 963,
  "Adam": 964,
  "comb": 965,
  "combin": 966,
  "combines": 967,
  "related": 968,
  "separ": 969,
  "dec": 970,
  "controls": 971,
  "updates": 972,
  "If": 973,
  "become": 974,
  "smal": 975,
  "arily": 976,
  "processed": 977,
  "arg": 978,
  "pas": 979,
  "pass": 980,
  "epochs": 981,
  "but": 982,
  "over": 983,
  "fit": 984,
  "fitting": 985,
  "idation": 986,
  "generalization": 987,
  "evaluate": 988,
  "development": 989,
  "ision": 990,
  "plexity": 991,
  "metric": 992,
  "evaluating": 993,
  "ta": 994,
  "sc": 995,
  "scient": 996,
  "scientific": 997,
  "associated": 998,
  "stored": 999,
  "desig": 1000,
  "partic": 1001,
  "particul": 1002,
  "particular": 1003,
  "cept": 1004,
  "executes": 1005,
  "loops": 1006,
  "statement": 1007,
  "paths": 1008,
  "whe": 1009,
  "whether": 1010,
  "list": 1011,
  "orde": 1012,
  "ordered": 1013,
  "utable": 1014,
  "index": 1015,
  "insertion": 1016,
  "need": 1017,
  "orient": 1018,
  "oriented": 1019,
  "fine": 1020,
  "represented": 1021,
  "attrib": 1022,
  "attributes": 1023,
  "her": 1024,
  "hier": 1025,
  "hierarch": 1026,
  "hierarchical": 1027,
  "types": 1028,
  "org": 1029,
  "organ": 1030,
  "ace": 1031,
  "ways": 1032,
  "finite": 1033,
  "defin": 1034,
  "correct": 1035,
  "af": 1036,
  "after": 1037,
  "run": 1038,
  "incre": 1039,
  "increases": 1040,
  "und": 1041,
  "requirements": 1042,
  "change": 1043,
  "oth": 1044,
  "arra": 1045,
  "array": 1046,
  "elements": 1047,
  "imple": 1048,
  "implement": 1049,
  "char": 1050,
  "charact": 1051,
  "character": 1052,
  "characteristics": 1053,
  "pend": 1054,
  "follows": 1055,
  "ast": 1056,
  "prin": 1057,
  "princi": 1058,
  "principle": 1059,
  "rec": 1060,
  "added": 1061,
  "element": 1062,
  "pus": 1063,
  "queue": 1064,
  "sch": 1065,
  "readth": 1066,
  "consis": 1067,
  "consists": 1068,
  "nodes": 1069,
  "Each": 1070,
  "reference": 1071,
  "sist": 1072,
  "inary": 1073,
  "has": 1074,
  "directed": 1075,
  "weighted": 1076,
  "explo": 1077,
  "explores": 1078,
  "deep": 1079,
  "pos": 1080,
  "possib": 1081,
  "possible": 1082,
  "back": 1083,
  "tracking": 1084,
  "dividing": 1085,
  "approx": 1086,
  "approxim": 1087,
  "approximate": 1088,
  "approximately": 1089,
  "mer": 1090,
  "structured": 1091,
  "tables": 1092,
  "row": 1093,
  "SQ": 1094,
  "SQL": 1095,
  "quer": 1096,
  "query": 1097,
  "tri": 1098,
  "table": 1099,
  "Normal": 1100,
  "Normalization": 1101,
  "unnecessary": 1102,
  "impro": 1103,
  "improve": 1104,
  "integ": 1105,
  "integr": 1106,
  "Di": 1107,
  "Different": 1108,
  "forms": 1109,
  "operating": 1110,
  "mana": 1111,
  "thread": 1112,
  "Multiple": 1113,
  "share": 1114,
  "sour": 1115,
  "source": 1116,
  "than": 1117,
  "produc": 1118,
  "alone": 1119,
  "internet": 1120,
  "bal": 1121,
  "communicate": 1122,
  "standardized": 1123,
  "protocol": 1124,
  "Protocol": 1125,
  "HT": 1126,
  "HTT": 1127,
  "HTTP": 1128,
  "clients": 1129,
  "adds": 1130,
  "requests": 1131,
  "responses": 1132,
  "contains": 1133,
  "AP": 1134,
  "API": 1135,
  "outputs": 1136,
  "sometim": 1137,
  "sometimes": 1138,
  "authent": 1139,
  "authentication": 1140,
  "fil": 1141,
  "files": 1142,
  "uted": 1143,
  "ging": 1144,
  "coll": 1145,
  "collab": 1146,
  "collabor": 1147,
  "collaboration": 1148,
  "mathe": 1149,
  "mathemat": 1150,
  "knowled": 1151,
  "knowledge": 1152,
  "St": 1153,
  "describing": 1154,
  "median": 1155,
  "variance": 1156,
  "calc": 1157,
  "calcul": 1158,
  "special": 1159,
  "handling": 1160,
  "Prob": 1161,
  "Probability": 1162,
  "event": 1163,
  "zer": 1164,
  "zero": 1165,
  "Good": 1166,
  "preprocessing": 1167,
  "normalization": 1168,
  "missing": 1169,
  "techniqu": 1170,
  "techniques": 1171,
  "acy": 1172,
  "misle": 1173,
  "mislead": 1174,
  "misleading": 1175,
  "highly": 1176,
  "ix": 1177,
  "izes": 1178,
  "coun": 1179,
  "positives": 1180,
  "neg": 1181,
  "negat": 1182,
  "negatives": 1183,
  "transformations": 1184,
  "forw": 1185,
  "forward": 1186,
  "propa": 1187,
  "propag": 1188,
  "propagation": 1189,
  "optimizer": 1190,
  "GE": 1191,
  "GELU": 1192,
  "architectures": 1193,
  "idual": 1194,
  "earlier": 1195,
  "scr": 1196,
  "scratch": 1197,
  "requires": 1198,
  "procedure": 1199,
  "learned": 1200,
  "quality": 1201,
  "chec": 1202,
  "check": 1203,
  "invol": 1204,
  "involve": 1205,
  "ness": 1206,
  "determin": 1207,
  "determinist": 1208,
  "deterministic": 1209,
  "Top": 1210,
  "cand": 1211,
  "candidat": 1212,
  "selects": 1213,
  "decoding": 1214,
  "less": 1215,
  "fer": 1216,
  "itative": 1217,
  "metrics": 1218,
  "ben": 1219,
  "bench": 1220,
  "benchm": 1221,
  "benchmar": 1222,
  "benchmark": 1223,
  "rele": 1224,
  "relev": 1225,
  "relevant": 1226,
  "upl": 1227,
  "ves": 1228,
  "adapt": 1229,
  "adaptation": 1230,
  "Fine": 1231,
  "capabil": 1232,
  "capabilities": 1233,
  "config": 1234,
  "configur": 1235,
  "configuration": 1236,
  "rese": 1237,
  "research": 1238,
  "doc": 1239,
  "docu": 1240,
  "document": 1241,
  "hypo": 1242,
  "hypoth": 1243,
  "hypothes": 1244,
  "hypothesis": 1245,
  "evi": 1246,
  "evid": 1247,
  "evidence": 1248,
  "enough": 1249,
  "expect": 1250,
  "expected": 1251,
  "tests": 1252,
  "bug": 1253,
  "prot": 1254,
  "protect": 1255
}
